{
  "version": "1.0",
  "truncation": null,
  "padding": null,
  "added_tokens": [
    {
      "id": 0,
      "content": "[UNK]",
      "single_word": false,
      "lstrip": false,
      "rstrip": false,
      "normalized": false,
      "special": true
    },
    {
      "id": 1,
      "content": "[PAD]",
      "single_word": false,
      "lstrip": false,
      "rstrip": false,
      "normalized": false,
      "special": true
    },
    {
      "id": 2,
      "content": "[EOS]",
      "single_word": false,
      "lstrip": false,
      "rstrip": false,
      "normalized": false,
      "special": true
    },
    {
      "id": 3,
      "content": "[PROOFSTATE]",
      "single_word": false,
      "lstrip": false,
      "rstrip": false,
      "normalized": false,
      "special": true
    },
    {
      "id": 4,
      "content": "[PROOFSTEP]",
      "single_word": false,
      "lstrip": false,
      "rstrip": false,
      "normalized": false,
      "special": true
    },
    {
      "id": 5,
      "content": "[TACTICS]",
      "single_word": false,
      "lstrip": false,
      "rstrip": false,
      "normalized": false,
      "special": true
    },
    {
      "id": 6,
      "content": "[SEP]",
      "single_word": false,
      "lstrip": false,
      "rstrip": false,
      "normalized": false,
      "special": true
    }
  ],
  "normalizer": null,
  "pre_tokenizer": {
    "type": "Sequence",
    "pretokenizers": [
      {
        "type": "Punctuation",
        "behavior": "Isolated"
      },
      {
        "type": "Whitespace"
      }
    ]
  },
  "post_processor": null,
  "decoder": null,
  "model": {
    "type": "BPE",
    "dropout": null,
    "unk_token": "[UNK]",
    "continuing_subword_prefix": null,
    "end_of_word_suffix": null,
    "fuse_unk": false,
    "byte_fallback": false,
    "ignore_merges": false,
    "vocab": {
      "[UNK]": 0,
      "[PAD]": 1,
      "[EOS]": 2,
      "[PROOFSTATE]": 3,
      "[PROOFSTEP]": 4,
      "[TACTICS]": 5,
      "[SEP]": 6,
      "!": 7,
      "\"": 8,
      "#": 9,
      "$": 10,
      "%": 11,
      "&": 12,
      "'": 13,
      "(": 14,
      ")": 15,
      "*": 16,
      "+": 17,
      ",": 18,
      "-": 19,
      ".": 20,
      "/": 21,
      "0": 22,
      "1": 23,
      "2": 24,
      "3": 25,
      "4": 26,
      "5": 27,
      "6": 28,
      "7": 29,
      "8": 30,
      "9": 31,
      ":": 32,
      ";": 33,
      "<": 34,
      "=": 35,
      ">": 36,
      "?": 37,
      "@": 38,
      "A": 39,
      "B": 40,
      "C": 41,
      "D": 42,
      "E": 43,
      "F": 44,
      "G": 45,
      "H": 46,
      "I": 47,
      "J": 48,
      "K": 49,
      "L": 50,
      "M": 51,
      "N": 52,
      "O": 53,
      "P": 54,
      "Q": 55,
      "R": 56,
      "S": 57,
      "T": 58,
      "U": 59,
      "V": 60,
      "W": 61,
      "X": 62,
      "Y": 63,
      "Z": 64,
      "[": 65,
      "\\": 66,
      "]": 67,
      "^": 68,
      "_": 69,
      "`": 70,
      "a": 71,
      "b": 72,
      "c": 73,
      "d": 74,
      "e": 75,
      "f": 76,
      "g": 77,
      "h": 78,
      "i": 79,
      "j": 80,
      "k": 81,
      "l": 82,
      "m": 83,
      "n": 84,
      "o": 85,
      "p": 86,
      "q": 87,
      "r": 88,
      "s": 89,
      "t": 90,
      "u": 91,
      "v": 92,
      "w": 93,
      "x": 94,
      "y": 95,
      "z": 96,
      "{": 97,
      "|": 98,
      "}": 99,
      "~": 100,
      "¥": 101,
      "§": 102,
      "«": 103,
      "¬": 104,
      "°": 105,
      "±": 106,
      "²": 107,
      "³": 108,
      "´": 109,
      "µ": 110,
      "·": 111,
      "¹": 112,
      "»": 113,
      "½": 114,
      "Á": 115,
      "É": 116,
      "×": 117,
      "ß": 118,
      "à": 119,
      "á": 120,
      "ä": 121,
      "æ": 122,
      "ç": 123,
      "è": 124,
      "é": 125,
      "ê": 126,
      "ë": 127,
      "ì": 128,
      "í": 129,
      "ï": 130,
      "ò": 131,
      "ó": 132,
      "ô": 133,
      "ö": 134,
      "ø": 135,
      "ü": 136,
      "ý": 137,
      "ă": 138,
      "ć": 139,
      "Č": 140,
      "č": 141,
      "ĝ": 142,
      "Ł": 143,
      "ł": 144,
      "ń": 145,
      "ō": 146,
      "ő": 147,
      "ř": 148,
      "ś": 149,
      "Š": 150,
      "š": 151,
      "Ž": 152,
      "ɢ": 153,
      "ɪ": 154,
      "ɴ": 155,
      "ʀ": 156,
      "ʏ": 157,
      "ʙ": 158,
      "ʜ": 159,
      "ʟ": 160,
      "ʰ": 161,
      "ʲ": 162,
      "ʳ": 163,
      "ʷ": 164,
      "ʸ": 165,
      "ˡ": 166,
      "ˢ": 167,
      "ˣ": 168,
      "̀": 169,
      "̂": 170,
      "Β": 171,
      "Γ": 172,
      "Δ": 173,
      "Θ": 174,
      "Ι": 175,
      "Λ": 176,
      "Π": 177,
      "Σ": 178,
      "Φ": 179,
      "Ψ": 180,
      "Ω": 181,
      "α": 182,
      "β": 183,
      "γ": 184,
      "δ": 185,
      "ε": 186,
      "ζ": 187,
      "η": 188,
      "θ": 189,
      "ι": 190,
      "κ": 191,
      "λ": 192,
      "μ": 193,
      "ν": 194,
      "ξ": 195,
      "π": 196,
      "ρ": 197,
      "σ": 198,
      "τ": 199,
      "υ": 200,
      "φ": 201,
      "χ": 202,
      "ψ": 203,
      "ω": 204,
      "ϕ": 205,
      "ϖ": 206,
      "И": 207,
      "а": 208,
      "в": 209,
      "и": 210,
      "н": 211,
      "о": 212,
      "ч": 213,
      "ᗮ": 214,
      "ᘁ": 215,
      "ᴀ": 216,
      "ᴄ": 217,
      "ᴅ": 218,
      "ᴇ": 219,
      "ᴊ": 220,
      "ᴋ": 221,
      "ᴍ": 222,
      "ᴏ": 223,
      "ᴘ": 224,
      "ᴛ": 225,
      "ᴜ": 226,
      "ᴠ": 227,
      "ᴡ": 228,
      "ᴢ": 229,
      "ᴬ": 230,
      "ᴮ": 231,
      "ᴰ": 232,
      "ᴱ": 233,
      "ᴳ": 234,
      "ᴴ": 235,
      "ᴵ": 236,
      "ᴶ": 237,
      "ᴷ": 238,
      "ᴸ": 239,
      "ᴹ": 240,
      "ᴺ": 241,
      "ᴼ": 242,
      "ᴾ": 243,
      "ᴿ": 244,
      "ᵀ": 245,
      "ᵁ": 246,
      "ᵂ": 247,
      "ᵃ": 248,
      "ᵇ": 249,
      "ᵈ": 250,
      "ᵉ": 251,
      "ᵋ": 252,
      "ᵍ": 253,
      "ᵏ": 254,
      "ᵐ": 255,
      "ᵒ": 256,
      "ᵖ": 257,
      "ᵗ": 258,
      "ᵘ": 259,
      "ᵛ": 260,
      "ᵝ": 261,
      "ᵞ": 262,
      "ᵟ": 263,
      "ᵠ": 264,
      "ᵡ": 265,
      "ᵢ": 266,
      "ᵣ": 267,
      "ᵤ": 268,
      "ᵥ": 269,
      "ᵦ": 270,
      "ᵧ": 271,
      "ᵨ": 272,
      "ᵩ": 273,
      "ᵪ": 274,
      "ᶜ": 275,
      "ᶠ": 276,
      "ᶥ": 277,
      "ᶹ": 278,
      "ᶻ": 279,
      "ᶿ": 280,
      "ầ": 281,
      "ỳ": 282,
      "​": 283,
      "‌": 284,
      "–": 285,
      "—": 286,
      "‖": 287,
      "’": 288,
      "“": 289,
      "”": 290,
      "†": 291,
      "•": 292,
      "…": 293,
      "′": 294,
      "‹": 295,
      "›": 296,
      "‼": 297,
      "⁄": 298,
      "⁅": 299,
      "⁆": 300,
      "⁰": 301,
      "ⁱ": 302,
      "⁴": 303,
      "⁵": 304,
      "⁶": 305,
      "⁷": 306,
      "⁸": 307,
      "⁹": 308,
      "⁺": 309,
      "⁻": 310,
      "⁼": 311,
      "⁽": 312,
      "⁾": 313,
      "ⁿ": 314,
      "₀": 315,
      "₁": 316,
      "₂": 317,
      "₃": 318,
      "₄": 319,
      "₅": 320,
      "₆": 321,
      "₇": 322,
      "₈": 323,
      "₉": 324,
      "₊": 325,
      "₋": 326,
      "₌": 327,
      "₍": 328,
      "₎": 329,
      "ₐ": 330,
      "ₑ": 331,
      "ₒ": 332,
      "ₓ": 333,
      "ₕ": 334,
      "ₖ": 335,
      "ₗ": 336,
      "ₘ": 337,
      "ₙ": 338,
      "ₚ": 339,
      "ₛ": 340,
      "ₜ": 341,
      "ℂ": 342,
      "ℋ": 343,
      "ℍ": 344,
      "ℐ": 345,
      "ℑ": 346,
      "ℒ": 347,
      "ℓ": 348,
      "ℕ": 349,
      "№": 350,
      "ℙ": 351,
      "ℚ": 352,
      "ℜ": 353,
      "ℝ": 354,
      "™": 355,
      "ℤ": 356,
      "ℬ": 357,
      "ℰ": 358,
      "ℱ": 359,
      "ℳ": 360,
      "ℵ": 361,
      "⅓": 362,
      "⅟": 363,
      "←": 364,
      "↑": 365,
      "→": 366,
      "↓": 367,
      "↔": 368,
      "↗": 369,
      "↘": 370,
      "↟": 371,
      "↠": 372,
      "↥": 373,
      "↦": 374,
      "↪": 375,
      "↭": 376,
      "↻": 377,
      "↾": 378,
      "↿": 379,
      "⇉": 380,
      "⇑": 381,
      "⇒": 382,
      "⇔": 383,
      "⇘": 384,
      "⇨": 385,
      "∀": 386,
      "∂": 387,
      "∃": 388,
      "∅": 389,
      "∆": 390,
      "∇": 391,
      "∈": 392,
      "∉": 393,
      "∋": 394,
      "∏": 395,
      "∐": 396,
      "∑": 397,
      "−": 398,
      "∖": 399,
      "∗": 400,
      "∘": 401,
      "∙": 402,
      "√": 403,
      "∞": 404,
      "∠": 405,
      "∡": 406,
      "∣": 407,
      "∤": 408,
      "∥": 409,
      "∧": 410,
      "∨": 411,
      "∩": 412,
      "∪": 413,
      "∫": 414,
      "∮": 415,
      "∯": 416,
      "∼": 417,
      "≃": 418,
      "≅": 419,
      "≈": 420,
      "≌": 421,
      "≟": 422,
      "≠": 423,
      "≡": 424,
      "≣": 425,
      "≤": 426,
      "≥": 427,
      "≪": 428,
      "≫": 429,
      "≰": 430,
      "≱": 431,
      "≺": 432,
      "≼": 433,
      "⊂": 434,
      "⊃": 435,
      "⊆": 436,
      "⊇": 437,
      "⊈": 438,
      "⊓": 439,
      "⊔": 440,
      "⊕": 441,
      "⊗": 442,
      "⊙": 443,
      "⊚": 444,
      "⊛": 445,
      "⊞": 446,
      "⊢": 447,
      "⊣": 448,
      "⊤": 449,
      "⊥": 450,
      "⊨": 451,
      "⊸": 452,
      "⊻": 453,
      "⊼": 454,
      "⋀": 455,
      "⋁": 456,
      "⋂": 457,
      "⋃": 458,
      "⋆": 459,
      "⋈": 460,
      "⋊": 461,
      "⋖": 462,
      "⋙": 463,
      "⋮": 464,
      "⋯": 465,
      "⌈": 466,
      "⌉": 467,
      "⌊": 468,
      "⌋": 469,
      "⌟": 470,
      "⍟": 471,
      "⏩": 472,
      "⏳": 473,
      "─": 474,
      "│": 475,
      "┌": 476,
      "├": 477,
      "□": 478,
      "△": 479,
      "▷": 480,
      "▸": 481,
      "▼": 482,
      "▽": 483,
      "◁": 484,
      "◃": 485,
      "○": 486,
      "◢": 487,
      "◥": 488,
      "◫": 489,
      "◹": 490,
      "◾": 491,
      "◿": 492,
      "♩": 493,
      "♯": 494,
      "⚠": 495,
      "⚬": 496,
      "✝": 497,
      "✶": 498,
      "❓": 499,
      "⟂": 500,
      "⟋": 501,
      "⟍": 502,
      "⟦": 503,
      "⟧": 504,
      "⟨": 505,
      "⟩": 506,
      "⟪": 507,
      "⟫": 508,
      "⟮": 509,
      "⟯": 510,
      "⟵": 511,
      "⟶": 512,
      "⟹": 513,
      "⤳": 514,
      "⥤": 515,
      "⥥": 516,
      "⦃": 517,
      "⦄": 518,
      "⧏": 519,
      "⧸": 520,
      "⨁": 521,
      "⨂": 522,
      "⨅": 523,
      "⨆": 524,
      "⨍": 525,
      "⨯": 526,
      "⨳": 527,
      "⨿": 528,
      "⩿": 529,
      "⬝": 530,
      "ⱼ": 531,
      "ⱽ": 532,
      "꙳": 533,
      "ꜰ": 534,
      "ꜱ": 535,
      "ꞯ": 536,
      "ꟴ": 537,
      "️": 538,
      "－": 539,
      "／": 540,
      "＼": 541,
      "￢": 542,
      "𐞥": 543,
      "𝐒": 544,
      "𝐓": 545,
      "𝐞": 546,
      "𝑳": 547,
      "𝑹": 548,
      "𝒄": 549,
      "𝒅": 550,
      "𝒜": 551,
      "𝒞": 552,
      "𝒟": 553,
      "𝒢": 554,
      "𝒥": 555,
      "𝒪": 556,
      "𝒫": 557,
      "𝒮": 558,
      "𝒯": 559,
      "𝒰": 560,
      "𝒱": 561,
      "𝒳": 562,
      "𝒴": 563,
      "𝒵": 564,
      "𝓐": 565,
      "𝓑": 566,
      "𝓒": 567,
      "𝓓": 568,
      "𝓕": 569,
      "𝓖": 570,
      "𝓘": 571,
      "𝓚": 572,
      "𝓜": 573,
      "𝓝": 574,
      "𝓞": 575,
      "𝓟": 576,
      "𝓡": 577,
      "𝓢": 578,
      "𝓣": 579,
      "𝓤": 580,
      "𝓥": 581,
      "𝓦": 582,
      "𝔇": 583,
      "𝔖": 584,
      "𝔗": 585,
      "𝔠": 586,
      "𝔣": 587,
      "𝔭": 588,
      "𝔮": 589,
      "𝔸": 590,
      "𝔹": 591,
      "𝔻": 592,
      "𝔼": 593,
      "𝔽": 594,
      "𝕀": 595,
      "𝕂": 596,
      "𝕄": 597,
      "𝕆": 598,
      "𝕊": 599,
      "𝕋": 600,
      "𝕌": 601,
      "𝕎": 602,
      "𝕜": 603,
      "𝕝": 604,
      "𝖣": 605,
      "𝟙": 606,
      "𝟭": 607,
      "🆕": 608,
      "🎉": 609,
      "🏁": 610,
      "🐙": 611,
      "💡": 612,
      "🔍": 613,
      "in": 614,
      "on": 615,
      "al": 616,
      "or": 617,
      "er": 618,
      "le": 619,
      "th": 620,
      "at": 621,
      "om": 622,
      "is": 623,
      "re": 624,
      "ct": 625,
      "im": 626,
      "en": 627,
      "un": 628,
      "as": 629,
      "an": 630,
      "em": 631,
      "ap": 632,
      "the": 633,
      "it": 634,
      "ig": 635,
      "ar": 636,
      "et": 637,
      "of": 638,
      "iv": 639,
      "ul": 640,
      "ro": 641,
      "ion": 642,
      "su": 643,
      "if": 644,
      "ed": 645,
      "to": 646,
      "eq": 647,
      "imp": 648,
      "ing": 649,
      "ly": 650,
      "ign": 651,
      "st": 652,
      "align": 653,
      "ce": 654,
      "ex": 655,
      "ab": 656,
      "mul": 657,
      "by": 658,
      "theor": 659,
      "eg": 660,
      "con": 661,
      "dd": 662,
      "simp": 663,
      "fun": 664,
      "com": 665,
      "theorem": 666,
      "de": 667,
      "ge": 668,
      "ic": 669,
      "po": 670,
      "co": 671,
      "iff": 672,
      "int": 673,
      "able": 674,
      "se": 675,
      "ot": 676,
      "es": 677,
      "map": 678,
      "set": 679,
      "lo": 680,
      "act": 681,
      "add": 682,
      "tr": 683,
      "Is": 684,
      "id": 685,
      "sub": 686,
      "ero": 687,
      "ent": 688,
      "us": 689,
      "In": 690,
      "pe": 691,
      "he": 692,
      "pro": 693,
      "fin": 694,
      "rw": 695,
      "orm": 696,
      "du": 697,
      "Su": 698,
      "comp": 699,
      "ith": 700,
      "ht": 701,
      "eas": 702,
      "mm": 703,
      "ory": 704,
      "lt": 705,
      "app": 706,
      "ive": 707,
      "ist": 708,
      "mem": 709,
      "op": 710,
      "zero": 711,
      "pa": 712,
      "ction": 713,
      "easu": 714,
      "Set": 715,
      "one": 716,
      "der": 717,
      "ight": 718,
      "ype": 719,
      "Com": 720,
      "ne": 721,
      "Fin": 722,
      "qu": 723,
      "ra": 724,
      "fl": 725,
      "ha": 726,
      "end": 727,
      "ono": 728,
      "up": 729,
      "ve": 730,
      "ft": 731,
      "apply": 732,
      "The": 733,
      "ib": 734,
      "pace": 735,
      "coe": 736,
      "ort": 737,
      "right": 738,
      "ect": 739,
      "Re": 740,
      "ation": 741,
      "am": 742,
      "rfl": 743,
      "Hom": 744,
      "ver": 745,
      "Sub": 746,
      "ut": 747,
      "Con": 748,
      "ine": 749,
      "ous": 750,
      "ial": 751,
      "tin": 752,
      "oc": 753,
      "let": 754,
      "tinu": 755,
      "and": 756,
      "exact": 757,
      "with": 758,
      "ri": 759,
      "ance": 760,
      "ateg": 761,
      "bra": 762,
      "gebra": 763,
      "tinuous": 764,
      "left": 765,
      "ategory": 766,
      "Fun": 767,
      "inear": 768,
      "ass": 769,
      "fi": 770,
      "ymm": 771,
      "cas": 772,
      "var": 773,
      "ch": 774,
      "Map": 775,
      "Un": 776,
      "roup": 777,
      "imit": 778,
      "for": 779,
      "smul": 780,
      "def": 781,
      "not": 782,
      "easure": 783,
      "ext": 784,
      "il": 785,
      "hf": 786,
      "ite": 787,
      "res": 788,
      "iable": 789,
      "el": 790,
      "neg": 791,
      "ject": 792,
      "rable": 793,
      "inst": 794,
      "age": 795,
      "onoid": 796,
      "mo": 797,
      "norm": 798,
      "symm": 799,
      "pt": 800,
      "Nat": 801,
      "non": 802,
      "Equ": 803,
      "ol": 804,
      "Add": 805,
      "mk": 806,
      "pow": 807,
      "Al": 808,
      "Mul": 809,
      "inv": 810,
      "log": 811,
      "wh": 812,
      "sup": 813,
      "iz": 814,
      "Equiv": 815,
      "equ": 816,
      "pos": 817,
      "Pro": 818,
      "Or": 819,
      "hx": 820,
      "val": 821,
      "Type": 822,
      "hom": 823,
      "ran": 824,
      "dule": 825,
      "ard": 826,
      "cc": 827,
      "have": 828,
      "only": 829,
      "ir": 830,
      "ity": 831,
      "Comp": 832,
      "all": 833,
      "variable": 834,
      "Space": 835,
      "prod": 836,
      "jective": 837,
      "fine": 838,
      "ath": 839,
      "comm": 840,
      "image": 841,
      "Theory": 842,
      "sum": 843,
      "Int": 844,
      "ctor": 845,
      "easurable": 846,
      "instance": 847,
      "nat": 848,
      "To": 849,
      "pr": 850,
      "ift": 851,
      "At": 852,
      "Comm": 853,
      "On": 854,
      "um": 855,
      "ere": 856,
      "Ring": 857,
      "ob": 858,
      "ad": 859,
      "Real": 860,
      "ral": 861,
      "ans": 862,
      "lter": 863,
      "With": 864,
      "Category": 865,
      "gr": 866,
      "lib": 867,
      "import": 868,
      "Of": 869,
      "athlib": 870,
      "Finset": 871,
      "trans": 872,
      "ate": 873,
      "art": 874,
      "pty": 875,
      "hs": 876,
      "und": 877,
      "ph": 878,
      "sing": 879,
      "continuous": 880,
      "Co": 881,
      "Linear": 882,
      "lemm": 883,
      "ain": 884,
      "pre": 885,
      "inter": 886,
      "Po": 887,
      "ens": 888,
      "Monoid": 889,
      "this": 890,
      "subset": 891,
      "intro": 892,
      "const": 893,
      "cl": 894,
      "per": 895,
      "ical": 896,
      "has": 897,
      "Algebra": 898,
      "div": 899,
      "Order": 900,
      "pl": 901,
      "ists": 902,
      "ree": 903,
      "empty": 904,
      "card": 905,
      "lemma": 906,
      "Measure": 907,
      "Mo": 908,
      "top": 909,
      "itive": 910,
      "Mathlib": 911,
      "that": 912,
      "ti": 913,
      "ma": 914,
      "cal": 915,
      "type": 916,
      "egral": 917,
      "ends": 918,
      "ur": 919,
      "equiv": 920,
      "Le": 921,
      "fr": 922,
      "algebra": 923,
      "ound": 924,
      "Iso": 925,
      "orph": 926,
      "lf": 927,
      "Fi": 928,
      "range": 929,
      "jo": 930,
      "Group": 931,
      "where": 932,
      "exists": 933,
      "List": 934,
      "clo": 935,
      "polog": 936,
      "omial": 937,
      "ru": 938,
      "cases": 939,
      "inf": 940,
      "self": 941,
      "get": 942,
      "congr": 943,
      "refine": 944,
      "ition": 945,
      "assoc": 946,
      "Continuous": 947,
      "theory": 948,
      "we": 949,
      "ck": 950,
      "succ": 951,
      "Sem": 952,
      "ant": 953,
      "supp": 954,
      "endsto": 955,
      "lift": 956,
      "measure": 957,
      "module": 958,
      "aliz": 959,
      "etr": 960,
      "pi": 961,
      "af": 962,
      "Has": 963,
      "duct": 964,
      "stri": 965,
      "Unit": 966,
      "group": 967,
      "Measurable": 968,
      "additive": 969,
      "from": 970,
      "nomial": 971,
      "lynomial": 972,
      "Non": 973,
      "ind": 974,
      "ff": 975,
      "imits": 976,
      "ds": 977,
      "erm": 978,
      "univ": 979,
      "open": 980,
      "lex": 981,
      "atri": 982,
      "leton": 983,
      "CategoryTheory": 984,
      "be": 985,
      "strict": 986,
      "ors": 987,
      "Sup": 988,
      "category": 989,
      "reser": 990,
      "order": 991,
      "ker": 992,
      "atrix": 993,
      "Cl": 994,
      "wo": 995,
      "ang": 996,
      "ies": 997,
      "sure": 998,
      "cast": 999,
      "finite": 1000,
      "reserv": 1001,
      "sed": 1002,
      "ient": 1003,
      "ame": 1004,
      "ism": 1005,
      "ure": 1006,
      "are": 1007,
      "asis": 1008,
      "ho": 1009,
      "orphism": 1010,
      "Qu": 1011,
      "section": 1012,
      "Op": 1013,
      "then": 1014,
      "singleton": 1015,
      "ime": 1016,
      "ally": 1017,
      "ence": 1018,
      "using": 1019,
      "Ex": 1020,
      "hb": 1021,
      "deal": 1022,
      "Module": 1023,
      "mono": 1024,
      "nd": 1025,
      "hy": 1026,
      "Finite": 1027,
      "Norm": 1028,
      "ring": 1029,
      "function": 1030,
      "integral": 1031,
      "Loc": 1032,
      "joint": 1033,
      "dis": 1034,
      "ke": 1035,
      "Der": 1036,
      "injective": 1037,
      "diff": 1038,
      "ag": 1039,
      "Deriv": 1040,
      "monoid": 1041,
      "ment": 1042,
      "ull": 1043,
      "deriv": 1044,
      "do": 1045,
      "hp": 1046,
      "ue": 1047,
      "Zero": 1048,
      "ated": 1049,
      "Topolog": 1050,
      "Within": 1051,
      "Top": 1052,
      "Li": 1053,
      "exp": 1054,
      "Eq": 1055,
      "Class": 1056,
      "two": 1057,
      "indu": 1058,
      "LinearMap": 1059,
      "filter": 1060,
      "Diff": 1061,
      "au": 1062,
      "Function": 1063,
      "Filter": 1064,
      "ser": 1065,
      "linear": 1066,
      "De": 1067,
      "ounded": 1068,
      "tain": 1069,
      "eval": 1070,
      "iring": 1071,
      "inal": 1072,
      "pan": 1073,
      "hg": 1074,
      "otient": 1075,
      "hds": 1076,
      "iform": 1077,
      "Th": 1078,
      "Str": 1079,
      "EN": 1080,
      "tendsto": 1081,
      "unit": 1082,
      "⁻¹": 1083,
      "nhds": 1084,
      "bi": 1085,
      "unt": 1086,
      "wer": 1087,
      "Inf": 1088,
      "dist": 1089,
      "space": 1090,
      "obj": 1091,
      "di": 1092,
      "hi": 1093,
      "An": 1094,
      "cons": 1095,
      "egree": 1096,
      "des": 1097,
      "no": 1098,
      "gen": 1099,
      "ames": 1100,
      "mp": 1101,
      "St": 1102,
      "measurable": 1103,
      "oo": 1104,
      "Clo": 1105,
      "eld": 1106,
      "heaf": 1107,
      "lement": 1108,
      "Au": 1109,
      "Pre": 1110,
      "hn": 1111,
      "Matrix": 1112,
      "closure": 1113,
      "ding": 1114,
      "ome": 1115,
      "20": 1116,
      "vd": 1117,
      "ast": 1118,
      "bot": 1119,
      "names": 1120,
      "ack": 1121,
      "intype": 1122,
      "nonneg": 1123,
      "max": 1124,
      "nel": 1125,
      "Prop": 1126,
      "NReal": 1127,
      "Ideal": 1128,
      "comap": 1129,
      "dvd": 1130,
      "ruct": 1131,
      "Submodule": 1132,
      "some": 1133,
      "product": 1134,
      "ip": 1135,
      "namespace": 1136,
      "Left": 1137,
      "alse": 1138,
      "Polynomial": 1139,
      "ancel": 1140,
      "ator": 1141,
      "Union": 1142,
      "so": 1143,
      "local": 1144,
      "verse": 1145,
      "Ar": 1146,
      "ae": 1147,
      "file": 1148,
      "AddComm": 1149,
      "ase": 1150,
      "Mult": 1151,
      "root": 1152,
      "simpa": 1153,
      "Functor": 1154,
      "dep": 1155,
      "ta": 1156,
      "ss": 1157,
      "span": 1158,
      "Part": 1159,
      "fst": 1160,
      "obtain": 1161,
      "erent": 1162,
      "Pr": 1163,
      "ary": 1164,
      "ative": 1165,
      "desc": 1166,
      "limit": 1167,
      "Right": 1168,
      "cle": 1169,
      "ometr": 1170,
      "trib": 1171,
      "par": 1172,
      "bed": 1173,
      "sert": 1174,
      "plic": 1175,
      "ers": 1176,
      "iset": 1177,
      "num": 1178,
      "note": 1179,
      "ret": 1180,
      "forall": 1181,
      "functor": 1182,
      "min": 1183,
      "restrict": 1184,
      "part": 1185,
      "ense": 1186,
      "ise": 1187,
      "Em": 1188,
      "real": 1189,
      "Complex": 1190,
      "bedding": 1191,
      "hc": 1192,
      "SMul": 1193,
      "Semiring": 1194,
      "point": 1195,
      "false": 1196,
      "ple": 1197,
      "Homo": 1198,
      "mon": 1199,
      "que": 1200,
      "MeasureTheory": 1201,
      "cid": 1202,
      "angle": 1203,
      "struct": 1204,
      "finset": 1205,
      "abs": 1206,
      "back": 1207,
      "insert": 1208,
      "induction": 1209,
      "Open": 1210,
      "ord": 1211,
      "under": 1212,
      "Dis": 1213,
      "support": 1214,
      "snd": 1215,
      "sem": 1216,
      "Col": 1217,
      "preimage": 1218,
      "ong": 1219,
      "Limits": 1220,
      "defin": 1221,
      "egrable": 1222,
      "Prod": 1223,
      "This": 1224,
      "Basis": 1225,
      "oth": 1226,
      "lic": 1227,
      "Sum": 1228,
      "cidable": 1229,
      "ique": 1230,
      "cted": 1231,
      "ivial": 1232,
      "ible": 1233,
      "can": 1234,
      "ute": 1235,
      "cond": 1236,
      "Icc": 1237,
      "ata": 1238,
      "union": 1239,
      "WithinAt": 1240,
      "ullback": 1241,
      "arg": 1242,
      "action": 1243,
      "etric": 1244,
      "ometry": 1245,
      "row": 1246,
      "Fintype": 1247,
      "If": 1248,
      "cone": 1249,
      "sin": 1250,
      "vert": 1251,
      "orting": 1252,
      "ensor": 1253,
      "list": 1254,
      "reserves": 1255,
      "Se": 1256,
      "Normed": 1257,
      "cancel": 1258,
      "closed": 1259,
      "rjective": 1260,
      "ected": 1261,
      "mod": 1262,
      "tected": 1263,
      "che": 1264,
      "protected": 1265,
      "ular": 1266,
      "actic": 1267,
      "gener": 1268,
      "Topological": 1269,
      "ide": 1270,
      "count": 1271,
      "Cat": 1272,
      "ension": 1273,
      "ange": 1274,
      "omorphism": 1275,
      "ev": 1276,
      "Quotient": 1277,
      "rintro": 1278,
      "Ch": 1279,
      "hm": 1280,
      "pec": 1281,
      "Porting": 1282,
      "coeff": 1283,
      "refl": 1284,
      "Mon": 1285,
      "out": 1286,
      "inl": 1287,
      "logy": 1288,
      "io": 1289,
      "sq": 1290,
      "trivial": 1291,
      "Lean": 1292,
      "iso": 1293,
      "fact": 1294,
      "tice": 1295,
      "ich": 1296,
      "ie": 1297,
      "Cop": 1298,
      "old": 1299,
      "element": 1300,
      "plit": 1301,
      "true": 1302,
      "erentiable": 1303,
      "form": 1304,
      "Limit": 1305,
      "opt": 1306,
      "ization": 1307,
      "ample": 1308,
      "lean": 1309,
      "rel": 1310,
      "kernel": 1311,
      "cont": 1312,
      "We": 1313,
      "upper": 1314,
      "sho": 1315,
      "Simp": 1316,
      "Integral": 1317,
      "eta": 1318,
      "Bot": 1319,
      "ption": 1320,
      "attice": 1321,
      "nonempty": 1322,
      "vex": 1323,
      "rcases": 1324,
      "comput": 1325,
      "hr": 1326,
      "ually": 1327,
      "inr": 1328,
      "lete": 1329,
      "prime": 1330,
      "single": 1331,
      "compl": 1332,
      "class": 1333,
      "simps": 1334,
      "polynomial": 1335,
      "inj": 1336,
      "hab": 1337,
      "omain": 1338,
      "Ab": 1339,
      "example": 1340,
      "For": 1341,
      "Rel": 1342,
      "Ad": 1343,
      "ult": 1344,
      "cy": 1345,
      "option": 1346,
      "Pi": 1347,
      "structure": 1348,
      "rank": 1349,
      "rec": 1350,
      "ENNReal": 1351,
      "disjoint": 1352,
      "case": 1353,
      "onal": 1354,
      "aph": 1355,
      "uniform": 1356,
      "Cast": 1357,
      "ty": 1358,
      "algebraMap": 1359,
      "Decidable": 1360,
      "Nonempty": 1361,
      "eries": 1362,
      "Like": 1363,
      "ore": 1364,
      "star": 1365,
      "Closed": 1366,
      "Fr": 1367,
      "Id": 1368,
      "use": 1369,
      "All": 1370,
      "Compact": 1371,
      "tra": 1372,
      "mpr": 1373,
      "Finsupp": 1374,
      "Multiset": 1375,
      "calar": 1376,
      "basis": 1377,
      "ize": 1378,
      "RingHom": 1379,
      "len": 1380,
      "index": 1381,
      "alence": 1382,
      "Field": 1383,
      "topolog": 1384,
      "asic": 1385,
      "igma": 1386,
      "One": 1387,
      "TopologicalSpace": 1388,
      "subtype": 1389,
      "ian": 1390,
      "join": 1391,
      "ased": 1392,
      "atTop": 1393,
      "dsimp": 1394,
      "Inter": 1395,
      "toFun": 1396,
      "which": 1397,
      "ner": 1398,
      "Mono": 1399,
      "sion": 1400,
      "Data": 1401,
      "computable": 1402,
      "Degree": 1403,
      "Subtype": 1404,
      "ys": 1405,
      "gth": 1406,
      "entually": 1407,
      "low": 1408,
      "DerivAt": 1409,
      "bit": 1410,
      "limits": 1411,
      "Subgroup": 1412,
      "Product": 1413,
      "descr": 1414,
      "Tendsto": 1415,
      "dic": 1416,
      "equal": 1417,
      "alization": 1418,
      "reserved": 1419,
      "any": 1420,
      "Cont": 1421,
      "Topology": 1422,
      "sh": 1423,
      "describ": 1424,
      "pect": 1425,
      "gc": 1426,
      "term": 1427,
      "Ico": 1428,
      "ual": 1429,
      "str": 1430,
      "vari": 1431,
      "Uniform": 1432,
      "Copy": 1433,
      "Sh": 1434,
      "duc": 1435,
      "length": 1436,
      "Alg": 1437,
      "Bo": 1438,
      "noncomputable": 1439,
      "urn": 1440,
      "ilinear": 1441,
      "202": 1442,
      "Bounded": 1443,
      "MonoidHom": 1444,
      "LI": 1445,
      "AddCommGroup": 1446,
      "iven": 1447,
      "Action": 1448,
      "described": 1449,
      "tiplic": 1450,
      "show": 1451,
      "homo": 1452,
      "Lift": 1453,
      "degree": 1454,
      "otone": 1455,
      "ih": 1456,
      "ces": 1457,
      "thors": 1458,
      "nected": 1459,
      "ural": 1460,
      "SE": 1461,
      "fa": 1462,
      "Series": 1463,
      "Embedding": 1464,
      "rans": 1465,
      "Rele": 1466,
      "oal": 1467,
      "Authors": 1468,
      "LIC": 1469,
      "license": 1470,
      "Copyright": 1471,
      "Apa": 1472,
      "Trans": 1473,
      "ball": 1474,
      "rights": 1475,
      "ENSE": 1476,
      "Released": 1477,
      "LICENSE": 1478,
      "Apache": 1479,
      "ates": 1480,
      "ily": 1481,
      "ber": 1482,
      "infer": 1483,
      "lim": 1484,
      "onent": 1485,
      "dual": 1486,
      "natural": 1487,
      "ry": 1488,
      "Ord": 1489,
      "surjective": 1490,
      "Colimit": 1491,
      "nil": 1492,
      "ou": 1493,
      "hain": 1494,
      "Ordered": 1495,
      "its": 1496,
      "elim": 1497,
      "omorph": 1498,
      "Lie": 1499,
      "Aux": 1500,
      "split": 1501,
      "linter": 1502,
      "ax": 1503,
      "pullback": 1504,
      "IsS": 1505,
      "iUnion": 1506,
      "iter": 1507,
      "iSup": 1508,
      "abil": 1509,
      "wise": 1510,
      "over": 1511,
      "wap": 1512,
      "Div": 1513,
      "Localization": 1514,
      "CommRing": 1515,
      "Num": 1516,
      "depend": 1517,
      "bet": 1518,
      "object": 1519,
      "forget": 1520,
      "spec": 1521,
      "10": 1522,
      "ell": 1523,
      "bounded": 1524,
      "position": 1525,
      "fix": 1526,
      "pres": 1527,
      "Unital": 1528,
      "No": 1529,
      "Ioc": 1530,
      "sets": 1531,
      "Submonoid": 1532,
      "sy": 1533,
      "swap": 1534,
      "Dual": 1535,
      "rat": 1536,
      "Mod": 1537,
      "ict": 1538,
      "compact": 1539,
      "ced": 1540,
      "rpow": 1541,
      "ween": 1542,
      "ations": 1543,
      "attr": 1544,
      "imal": 1545,
      "quotient": 1546,
      "conj": 1547,
      "mult": 1548,
      "oi": 1549,
      "amily": 1550,
      "eventually": 1551,
      "Injective": 1552,
      "Option": 1553,
      "ps": 1554,
      "Strict": 1555,
      "between": 1556,
      "fold": 1557,
      "hu": 1558,
      "constru": 1559,
      "variant": 1560,
      "ful": 1561,
      "Expr": 1562,
      "alizer": 1563,
      "Prime": 1564,
      "Metric": 1565,
      "esop": 1566,
      "field": 1567,
      "matrix": 1568,
      "morphism": 1569,
      "Pa": 1570,
      "affine": 1571,
      "Tensor": 1572,
      "else": 1573,
      "definition": 1574,
      "mathlib": 1575,
      "return": 1576,
      "Di": 1577,
      "Seq": 1578,
      "ofReal": 1579,
      "bin": 1580,
      "cur": 1581,
      "tot": 1582,
      "prover": 1583,
      "leanprover": 1584,
      "Gr": 1585,
      "aux": 1586,
      "vector": 1587,
      "Ob": 1588,
      "gcd": 1589,
      "NonUnital": 1590,
      "dependent": 1591,
      "alk": 1592,
      "unique": 1593,
      "inner": 1594,
      "unop": 1595,
      "ay": 1596,
      "Integrable": 1597,
      "ability": 1598,
      "atch": 1599,
      "Free": 1600,
      "Ass": 1601,
      "Val": 1602,
      "Rat": 1603,
      "itt": 1604,
      "Sy": 1605,
      "diag": 1606,
      "Lp": 1607,
      "unity": 1608,
      "choo": 1609,
      "Ext": 1610,
      "inc": 1611,
      "Ioo": 1612,
      "Form": 1613,
      "Locally": 1614,
      "choose": 1615,
      "pure": 1616,
      "same": 1617,
      "Simple": 1618,
      "Var": 1619,
      "Partial": 1620,
      "Fact": 1621,
      "det": 1622,
      "erase": 1623,
      "equivalence": 1624,
      "cret": 1625,
      "nn": 1626,
      "hl": 1627,
      "cop": 1628,
      "Cone": 1629,
      "Coe": 1630,
      "ongly": 1631,
      "crete": 1632,
      "Tactic": 1633,
      "Mv": 1634,
      "lower": 1635,
      "reduc": 1636,
      "sSup": 1637,
      "Inst": 1638,
      "₁₂": 1639,
      "proj": 1640,
      "fle": 1641,
      "Pres": 1642,
      "preserves": 1643,
      "Assoc": 1644,
      "Af": 1645,
      "Point": 1646,
      "none": 1647,
      "mooth": 1648,
      "inorm": 1649,
      "version": 1650,
      "Ne": 1651,
      "graph": 1652,
      "rwa": 1653,
      "complex": 1654,
      "Affine": 1655,
      "adj": 1656,
      "LE": 1657,
      "ideal": 1658,
      "Closure": 1659,
      "integrable": 1660,
      "prop": 1661,
      "MeasurableSet": 1662,
      "factor": 1663,
      "proper": 1664,
      "bound": 1665,
      "differentiable": 1666,
      "Inv": 1667,
      "Lean3": 1668,
      "colimit": 1669,
      "Gen": 1670,
      "Star": 1671,
      "convert": 1672,
      "Ha": 1673,
      "such": 1674,
      "Not": 1675,
      "cos": 1676,
      "sInf": 1677,
      "community": 1678,
      "natCast": 1679,
      "uppercase": 1680,
      "multiplic": 1681,
      "Const": 1682,
      "uppercaseLean3": 1683,
      "hd": 1684,
      "Basic": 1685,
      "tho": 1686,
      "eomorph": 1687,
      "hz": 1688,
      "also": 1689,
      "goal": 1690,
      "rev": 1691,
      "Ro": 1692,
      "fderiv": 1693,
      "constructor": 1694,
      "Ioi": 1695,
      "ape": 1696,
      "convex": 1697,
      "natDegree": 1698,
      "ection": 1699,
      "dire": 1700,
      "iInf": 1701,
      "Pos": 1702,
      "ach": 1703,
      "commut": 1704,
      "functions": 1705,
      "By": 1706,
      "separ": 1707,
      "reducible": 1708,
      "char": 1709,
      "Complete": 1710,
      "Instance": 1711,
      "inverse": 1712,
      "append": 1713,
      "Preserves": 1714,
      "Domain": 1715,
      "pair": 1716,
      "Ball": 1717,
      "pus": 1718,
      "zpow": 1719,
      "Homology": 1720,
      "Char": 1721,
      "igroup": 1722,
      "NNReal": 1723,
      "aesop": 1724,
      "cent": 1725,
      "ᵒᵖ": 1726,
      "Iic": 1727,
      "ove": 1728,
      "indic": 1729,
      "DecidableEq": 1730,
      "change": 1731,
      "maps": 1732,
      "hk": 1733,
      "Count": 1734,
      "base": 1735,
      "imension": 1736,
      "Lattice": 1737,
      "Sheaf": 1738,
      "ram": 1739,
      "match": 1740,
      "lintegral": 1741,
      "xs": 1742,
      "tactic": 1743,
      "extend": 1744,
      "ior": 1745,
      "Bi": 1746,
      "Name": 1747,
      "onglyMeasurable": 1748,
      "isymm": 1749,
      "ali": 1750,
      "pose": 1751,
      "h2": 1752,
      "Subalgebra": 1753,
      "subgroup": 1754,
      "fir": 1755,
      "h1": 1756,
      "Perm": 1757,
      "ci": 1758,
      "perm": 1759,
      "first": 1760,
      "MulAction": 1761,
      "indicator": 1762,
      "bind": 1763,
      "Ker": 1764,
      "Ap": 1765,
      "ray": 1766,
      "prove": 1767,
      "poly": 1768,
      "Card": 1769,
      "bo": 1770,
      "olut": 1771,
      "AddGroup": 1772,
      "ren": 1773,
      "embedding": 1774,
      "uation": 1775,
      "Fraction": 1776,
      "monotone": 1777,
      "ep": 1778,
      "when": 1779,
      "but": 1780,
      "Bool": 1781,
      "simple": 1782,
      "connected": 1783,
      "AlgHom": 1784,
      "calc": 1785,
      "MeasurableSpace": 1786,
      "adjoin": 1787,
      "find": 1788,
      "cau": 1789,
      "proof": 1790,
      "Ici": 1791,
      "power": 1792,
      "ill": 1793,
      "hv": 1794,
      "LinearEquiv": 1795,
      "free": 1796,
      "entr": 1797,
      "finrank": 1798,
      "associ": 1799,
      "AddCommMonoid": 1800,
      "very": 1801,
      "Differentiable": 1802,
      "isker": 1803,
      "ded": 1804,
      "AE": 1805,
      "Max": 1806,
      "toReal": 1807,
      "Root": 1808,
      "size": 1809,
      "incl": 1810,
      "Divis": 1811,
      "undle": 1812,
      "urce": 1813,
      "cycle": 1814,
      "ify": 1815,
      "li": 1816,
      "submodule": 1817,
      "antisymm": 1818,
      "ward": 1819,
      "itz": 1820,
      "arget": 1821,
      "tensor": 1822,
      "result": 1823,
      "tribute": 1824,
      "isOpen": 1825,
      "MvPolynomial": 1826,
      "itial": 1827,
      "est": 1828,
      "irw": 1829,
      "ork": 1830,
      "del": 1831,
      "irwise": 1832,
      "used": 1833,
      "ector": 1834,
      "See": 1835,
      "Unique": 1836,
      "there": 1837,
      "ther": 1838,
      "sigma": 1839,
      "Ordinal": 1840,
      "ac": 1841,
      "gt": 1842,
      "semiring": 1843,
      "alias": 1844,
      "lin": 1845,
      "uld": 1846,
      "Term": 1847,
      "cf": 1848,
      "incip": 1849,
      "Up": 1850,
      "nth": 1851,
      "edSpace": 1852,
      "topological": 1853,
      "Empty": 1854,
      "uage": 1855,
      "anguage": 1856,
      "Arrow": 1857,
      "Kernel": 1858,
      "suf": 1859,
      "Convex": 1860,
      "date": 1861,
      "cated": 1862,
      "ter": 1863,
      "closedBall": 1864,
      "alized": 1865,
      "hq": 1866,
      "distrib": 1867,
      "rum": 1868,
      "pectrum": 1869,
      "rt": 1870,
      "mall": 1871,
      "seq": 1872,
      "reverse": 1873,
      "countable": 1874,
      "Cy": 1875,
      "domain": 1876,
      "given": 1877,
      "update": 1878,
      "den": 1879,
      "IsOpen": 1880,
      "pred": 1881,
      "Ant": 1882,
      "rop": 1883,
      "Algebraic": 1884,
      "isomorphism": 1885,
      "decl": 1886,
      "lie": 1887,
      "Congr": 1888,
      "Vector": 1889,
      "Cof": 1890,
      "hj": 1891,
      "Disjoint": 1892,
      "topology": 1893,
      "Quot": 1894,
      "ess": 1895,
      "prov": 1896,
      "flect": 1897,
      "ace": 1898,
      "family": 1899,
      "Pullback": 1900,
      "edist": 1901,
      "attribute": 1902,
      "source": 1903,
      "ited": 1904,
      "ents": 1905,
      "mmable": 1906,
      "since": 1907,
      "induced": 1908,
      "interval": 1909,
      "vadd": 1910,
      "Multilinear": 1911,
      "ident": 1912,
      "posite": 1913,
      "port": 1914,
      "assum": 1915,
      "imensional": 1916,
      "hout": 1917,
      "Presheaf": 1918,
      "bability": 1919,
      "ofNat": 1920,
      "composition": 1921,
      "Sigma": 1922,
      "topy": 1923,
      "elements": 1924,
      "cover": 1925,
      "WithZero": 1926,
      "Semi": 1927,
      "Meta": 1928,
      "nsmul": 1929,
      "Bin": 1930,
      "Seminorm": 1931,
      "alize": 1932,
      "ust": 1933,
      "Fn": 1934,
      "Distrib": 1935,
      "pes": 1936,
      "FunLike": 1937,
      "homology": 1938,
      "sdiff": 1939,
      "rier": 1940,
      "curry": 1941,
      "multiset": 1942,
      "uct": 1943,
      "FDerivAt": 1944,
      "fices": 1945,
      "whisker": 1946,
      "Im": 1947,
      "ak": 1948,
      "rou": 1949,
      "ensity": 1950,
      "hxy": 1951,
      "habited": 1952,
      "oangle": 1953,
      "Pair": 1954,
      "Scalar": 1955,
      "interior": 1956,
      "sqrt": 1957,
      "center": 1958,
      "tsum": 1959,
      "col": 1960,
      "Struct": 1961,
      "conv": 1962,
      "cess": 1963,
      "FDeriv": 1964,
      "suffices": 1965,
      "derivative": 1966,
      "shift": 1967,
      "Cardinal": 1968,
      "AddMonoid": 1969,
      "lock": 1970,
      "inferInstance": 1971,
      "target": 1972,
      "Array": 1973,
      "finsupp": 1974,
      "Tower": 1975,
      "contain": 1976,
      "Tr": 1977,
      "Succ": 1978,
      "haveI": 1979,
      "ting": 1980,
      "ircle": 1981,
      "cor": 1982,
      "CommSemiring": 1983,
      "edi": 1984,
      "value": 1985,
      "incipal": 1986,
      "Reg": 1987,
      "partial": 1988,
      "total": 1989,
      "otom": 1990,
      "Units": 1991,
      "Shape": 1992,
      "equence": 1993,
      "Obj": 1994,
      "ale": 1995,
      "naturality": 1996,
      "chitz": 1997,
      "Coeff": 1998,
      "quot": 1999,
      "Classical": 2000,
      "Iio": 2001,
      "itone": 2002,
      "erse": 2003,
      "Abs": 2004,
      "Given": 2005,
      "other": 2006,
      "Separ": 2007,
      "condition": 2008,
      "OD": 2009,
      "every": 2010,
      "pot": 2011,
      "into": 2012,
      "Preorder": 2013,
      "universe": 2014,
      "sign": 2015,
      "Regular": 2016,
      "complete": 2017,
      "reg": 2018,
      "series": 2019,
      "alg": 2020,
      "elian": 2021,
      "precated": 2022,
      "thog": 2023,
      "ream": 2024,
      "need": 2025,
      "Homeomorph": 2026,
      "olution": 2027,
      "thogonal": 2028,
      "Lo": 2029,
      "ContinuousLinearMap": 2030,
      "Independent": 2031,
      "Main": 2032,
      "Span": 2033,
      "head": 2034,
      "19": 2035,
      "Power": 2036,
      "MDiff": 2037,
      "aeval": 2038,
      "Note": 2039,
      "within": 2040,
      "tail": 2041,
      "chy": 2042,
      "smooth": 2043,
      "ann": 2044,
      "As": 2045,
      "Iff": 2046,
      "points": 2047,
      "ContDiff": 2048,
      "fintype": 2049,
      "Subsingleton": 2050,
      "locally": 2051,
      "units": 2052,
      "pri": 2053,
      "erw": 2054,
      "subsingleton": 2055,
      "Cocone": 2056,
      "nhdsWithin": 2057,
      "Graph": 2058,
      "deprecated": 2059,
      "Func": 2060,
      "homomorphism": 2061,
      "node": 2062,
      "Sort": 2063,
      "Anal": 2064,
      "Ge": 2065,
      "Local": 2066,
      "ZMod": 2067,
      "isClosed": 2068,
      "coped": 2069,
      "ivity": 2070,
      "repl": 2071,
      "gu": 2072,
      "tsub": 2073,
      "2024": 2074,
      "Spec": 2075,
      "Big": 2076,
      "AddMonoidHom": 2077,
      "NormedSpace": 2078,
      "name": 2079,
      "scoped": 2080,
      "iterate": 2081,
      "En": 2082,
      "epi": 2083,
      "Surjective": 2084,
      "hS": 2085,
      "sheaf": 2086,
      "Mem": 2087,
      "Path": 2088,
      "BigO": 2089,
      "arith": 2090,
      "partition": 2091,
      "equalizer": 2092,
      "arrow": 2093,
      "notation": 2094,
      "vsub": 2095,
      "Component": 2096,
      "dec": 2097,
      "Epi": 2098,
      "hI": 2099,
      "prior": 2100,
      "fig": 2101,
      "Geometry": 2102,
      "usion": 2103,
      "hP": 2104,
      "Range": 2105,
      "defined": 2106,
      "infinite": 2107,
      "Lin": 2108,
      "snorm": 2109,
      "wn": 2110,
      "Countable": 2111,
      "alent": 2112,
      "Isometry": 2113,
      "End": 2114,
      "ose": 2115,
      "reassoc": 2116,
      "rect": 2117,
      "ysis": 2118,
      "Restrict": 2119,
      "push": 2120,
      "line": 2121,
      "Arg": 2122,
      "Sch": 2123,
      "tri": 2124,
      "trace": 2125,
      "seu": 2126,
      "Adj": 2127,
      "zsmul": 2128,
      "each": 2129,
      "priority": 2130,
      "Adjoint": 2131,
      "toFinset": 2132,
      "Gener": 2133,
      "hU": 2134,
      "Indep": 2135,
      "nnnorm": 2136,
      "ror": 2137,
      "ick": 2138,
      "ieve": 2139,
      "Par": 2140,
      "requ": 2141,
      "vol": 2142,
      "invFun": 2143,
      "chain": 2144,
      "repr": 2145,
      "does": 2146,
      "number": 2147,
      "CommMonoid": 2148,
      "isUnit": 2149,
      "dup": 2150,
      "Walk": 2151,
      "basic": 2152,
      "MVar": 2153,
      "From": 2154,
      "IsLimit": 2155,
      "Above": 2156,
      "Nontrivial": 2157,
      "localization": 2158,
      "av": 2159,
      "factors": 2160,
      "Ev": 2161,
      "Sing": 2162,
      "weight": 2163,
      "constant": 2164,
      "alo": 2165,
      "ison": 2166,
      "oned": 2167,
      "Min": 2168,
      "Res": 2169,
      "App": 2170,
      "algebraic": 2171,
      "atis": 2172,
      "Cover": 2173,
      "Binary": 2174,
      "Monotone": 2175,
      "guard": 2176,
      "normal": 2177,
      "lemmas": 2178,
      "unction": 2179,
      "calarTower": 2180,
      "IsScalarTower": 2181,
      "Connected": 2182,
      "Cancel": 2183,
      "ega": 2184,
      "semigroup": 2185,
      "ucl": 2186,
      "SimpleGraph": 2187,
      "new": 2188,
      "continuousOn": 2189,
      "TensorProduct": 2190,
      "define": 2191,
      "hw": 2192,
      "idean": 2193,
      "uclidean": 2194,
      "brev": 2195,
      "continuousAt": 2196,
      "red": 2197,
      "oneda": 2198,
      "ish": 2199,
      "ault": 2200,
      "Inhabited": 2201,
      "Colimits": 2202,
      "clotom": 2203,
      "clotomic": 2204,
      "Ru": 2205,
      "eous": 2206,
      "data": 2207,
      "quare": 2208,
      "Monoidal": 2209,
      "default": 2210,
      "Bound": 2211,
      "IsIso": 2212,
      "monomial": 2213,
      "adrat": 2214,
      "adratic": 2215,
      "conver": 2216,
      "biUnion": 2217,
      "100": 2218,
      "property": 2219,
      "prox": 2220,
      "than": 2221,
      "od": 2222,
      "orthogonal": 2223,
      "oid": 2224,
      "entation": 2225,
      "letion": 2226,
      "Opens": 2227,
      "extension": 2228,
      "measurableSet": 2229,
      "cat": 2230,
      "cardinal": 2231,
      "Cau": 2232,
      "ics": 2233,
      "even": 2234,
      "Er": 2235,
      "code": 2236,
      "separable": 2237,
      "edge": 2238,
      "Structure": 2239,
      "generate": 2240,
      "these": 2241,
      "funext": 2242,
      "Equivalence": 2243,
      "17": 2244,
      "agonal": 2245,
      "MultilinearMap": 2246,
      "Density": 2247,
      "acter": 2248,
      "gh": 2249,
      "principal": 2250,
      "toList": 2251,
      "normed": 2252,
      "seudo": 2253,
      "abbrev": 2254,
      "iber": 2255,
      "me": 2256,
      "Jo": 2257,
      "irreducible": 2258,
      "see": 2259,
      "oper": 2260,
      "diagonal": 2261,
      "contr": 2262,
      "SetLike": 2263,
      "setOf": 2264,
      "∫⁻": 2265,
      "cof": 2266,
      "cod": 2267,
      "geneous": 2268,
      "Rule": 2269,
      "alois": 2270,
      "submonoid": 2271,
      "replace": 2272,
      "ating": 2273,
      "ordered": 2274,
      "spaces": 2275,
      "StronglyMeasurable": 2276,
      "Divisors": 2277,
      "Tri": 2278,
      "Image": 2279,
      "well": 2280,
      "Morphism": 2281,
      "He": 2282,
      "ume": 2283,
      "logical": 2284,
      "Inverse": 2285,
      "itivity": 2286,
      "enn": 2287,
      "IsColimit": 2288,
      "move": 2289,
      "ContinuousMap": 2290,
      "Subring": 2291,
      "volume": 2292,
      "wr": 2293,
      "IH": 2294,
      "Game": 2295,
      "Mk": 2296,
      "products": 2297,
      "bdd": 2298,
      "flip": 2299,
      "Lex": 2300,
      "sequence": 2301,
      "Extension": 2302,
      "ᵒᵈ": 2303,
      "Pow": 2304,
      "omega": 2305,
      "Dimensional": 2306,
      "fol": 2307,
      "last": 2308,
      "asi": 2309,
      "→₀": 2310,
      "ediate": 2311,
      "bundle": 2312,
      "cause": 2313,
      "raded": 2314,
      "potent": 2315,
      "continu": 2316,
      "alle": 2317,
      "Homotopy": 2318,
      "Cycle": 2319,
      "18": 2320,
      "nontrivial": 2321,
      "vertible": 2322,
      "Prim": 2323,
      "ater": 2324,
      "Fir": 2325,
      "Pus": 2326,
      "ms": 2327,
      "poid": 2328,
      "ub": 2329,
      "Discrete": 2330,
      "roupoid": 2331,
      "drop": 2332,
      "satis": 2333,
      "fixed": 2334,
      "cocone": 2335,
      "argum": 2336,
      "lattice": 2337,
      "Support": 2338,
      "First": 2339,
      "Sym": 2340,
      "dom": 2341,
      "rule": 2342,
      "ithful": 2343,
      "path": 2344,
      "initial": 2345,
      "nta": 2346,
      "ntax": 2347,
      "hfg": 2348,
      "flects": 2349,
      "Analysis": 2350,
      "tw": 2351,
      "TOD": 2352,
      "Additive": 2353,
      "commutative": 2354,
      "TODO": 2355,
      "triangle": 2356,
      "cmp": 2357,
      "expres": 2358,
      "Normal": 2359,
      "presheaf": 2360,
      "Proper": 2361,
      "valu": 2362,
      "Core": 2363,
      "LT": 2364,
      "fer": 2365,
      "contDiff": 2366,
      "State": 2367,
      "special": 2368,
      "Family": 2369,
      "hT": 2370,
      "inclusion": 2371,
      "AddSubgroup": 2372,
      "maximal": 2373,
      "dense": 2374,
      "roots": 2375,
      "elab": 2376,
      "hij": 2377,
      "rot": 2378,
      "TopCat": 2379,
      "aw": 2380,
      "bers": 2381,
      "Pred": 2382,
      "take": 2383,
      "It": 2384,
      "UniformSpace": 2385,
      "fg": 2386,
      "Opposite": 2387,
      "iterated": 2388,
      "Cond": 2389,
      "respect": 2390,
      "summable": 2391,
      "nonpos": 2392,
      "ModuleCat": 2393,
      "Factor": 2394,
      "Scalars": 2395,
      "L1": 2396,
      "Neg": 2397,
      "phere": 2398,
      "ca": 2399,
      "run": 2400,
      "vi": 2401,
      "lead": 2402,
      "decidable": 2403,
      "Ga": 2404,
      "Probability": 2405,
      "check": 2406,
      "NormedAddCommGroup": 2407,
      "config": 2408,
      "LinearOrdered": 2409,
      "was": 2410,
      "WithTop": 2411,
      "Object": 2412,
      "IsUnit": 2413,
      "eme": 2414,
      "adjoint": 2415,
      "will": 2416,
      "Dist": 2417,
      "MetricSpace": 2418,
      "cm": 2419,
      "Be": 2420,
      "deg": 2421,
      "equivalent": 2422,
      "Per": 2423,
      "assumption": 2424,
      "Language": 2425,
      "small": 2426,
      "relation": 2427,
      "resp": 2428,
      "String": 2429,
      "plicit": 2430,
      "led": 2431,
      "Grp": 2432,
      "h0": 2433,
      "lhs": 2434,
      "Proj": 2435,
      "lab": 2436,
      "Bor": 2437,
      "car": 2438,
      "equality": 2439,
      "about": 2440,
      "classical": 2441,
      "idi": 2442,
      "imitive": 2443,
      "divis": 2444,
      "regular": 2445,
      "Box": 2446,
      "Ind": 2447,
      "hB": 2448,
      "rhs": 2449,
      "Sq": 2450,
      "ec": 2451,
      "ighb": 2452,
      "ives": 2453,
      "letI": 2454,
      "minpoly": 2455,
      "her": 2456,
      "mula": 2457,
      "definitions": 2458,
      "onical": 2459,
      "inite": 2460,
      "pairwise": 2461,
      "alf": 2462,
      "geometry": 2463,
      "aco": 2464,
      "meas": 2465,
      "reserving": 2466,
      "hμ": 2467,
      "positive": 2468,
      "ific": 2469,
      "mma": 2470,
      "ULift": 2471,
      "sur": 2472,
      "fs": 2473,
      "test": 2474,
      "toMatrix": 2475,
      "instances": 2476,
      "Ir": 2477,
      "PowerSeries": 2478,
      "follow": 2479,
      "step": 2480,
      "coprime": 2481,
      "DFunLike": 2482,
      "mt": 2483,
      "isometry": 2484,
      "PGame": 2485,
      "Multiplic": 2486,
      "because": 2487,
      "Change": 2488,
      "iInter": 2489,
      "morphisms": 2490,
      "block": 2491,
      "uniformity": 2492,
      "Upper": 2493,
      "Associ": 2494,
      "iver": 2495,
      "IsClosed": 2496,
      "Compl": 2497,
      "ContinuousOn": 2498,
      "mv": 2499,
      "lem": 2500,
      "Commute": 2501,
      "OfShape": 2502,
      "Galois": 2503,
      "multi": 2504,
      "counit": 2505,
      "Goal": 2506,
      "AddSubmonoid": 2507,
      "Haus": 2508,
      "aleph": 2509,
      "most": 2510,
      "bal": 2511,
      "condexp": 2512,
      "types": 2513,
      "next": 2514,
      "subst": 2515,
      "Well": 2516,
      "iodic": 2517,
      "loor": 2518,
      "LinearOrder": 2519,
      "Lower": 2520,
      "Subset": 2521,
      "box": 2522,
      "vec": 2523,
      "leading": 2524,
      "vel": 2525,
      "withDensity": 2526,
      "binary": 2527,
      "results": 2528,
      "Bdd": 2529,
      "sym": 2530,
      "son": 2531,
      "character": 2532,
      "isL": 2533,
      "isIso": 2534,
      "NatTrans": 2535,
      "ration": 2536,
      "go": 2537,
      "Scheme": 2538,
      "NonAssoc": 2539,
      "projection": 2540,
      "Out": 2541,
      "Monad": 2542,
      "Number": 2543,
      "rime": 2544,
      "00": 2545,
      "btw": 2546,
      "Homological": 2547,
      "Coprime": 2548,
      "fac": 2549,
      "neighb": 2550,
      "work": 2551,
      "Split": 2552,
      "positivity": 2553,
      "more": 2554,
      "atBot": 2555,
      "Coc": 2556,
      "respon": 2557,
      "Smooth": 2558,
      "indep": 2559,
      "IsLocalization": 2560,
      "image2": 2561,
      "FiniteDimensional": 2562,
      "ilin": 2563,
      "WithBot": 2564,
      "Direct": 2565,
      "ennreal": 2566,
      "cycles": 2567,
      "ivate": 2568,
      "converg": 2569,
      "yoneda": 2570,
      "lp": 2571,
      "copy": 2572,
      "put": 2573,
      "isCompact": 2574,
      "olute": 2575,
      "intCast": 2576,
      "dor": 2577,
      "dorff": 2578,
      "ses": 2579,
      "should": 2580,
      "valuation": 2581,
      "ordinal": 2582,
      "Factors": 2583,
      "HomologicalComplex": 2584,
      "icken": 2585,
      "stronglyMeasurable": 2586,
      "integ": 2587,
      "Two": 2588,
      "dam": 2589,
      "private": 2590,
      "construct": 2591,
      "Gamma": 2592,
      "ifi": 2593,
      "Subsemiring": 2594,
      "orsion": 2595,
      "unfold": 2596,
      "thicken": 2597,
      "cokernel": 2598,
      "associated": 2599,
      "ink": 2600,
      "natAbs": 2601,
      "₂₃": 2602,
      "ips": 2603,
      "IsCompact": 2604,
      "Semigroup": 2605,
      "linarith": 2606,
      "minimal": 2607,
      "Chart": 2608,
      "ental": 2609,
      "wards": 2610,
      "toLinearMap": 2611,
      "approx": 2612,
      "correspon": 2613,
      "Over": 2614,
      "Mar": 2615,
      "ll": 2616,
      "ilattice": 2617,
      "Pairwise": 2618,
      "Euclidean": 2619,
      "jOn": 2620,
      "fty": 2621,
      "Pushout": 2622,
      "PartialOrder": 2623,
      "intros": 2624,
      "ℒp": 2625,
      "padic": 2626,
      "fraction": 2627,
      "sphere": 2628,
      "mov": 2629,
      "Interval": 2630,
      "idiagonal": 2631,
      "Imp": 2632,
      "centr": 2633,
      "ead": 2634,
      "ug": 2635,
      "damental": 2636,
      "cs": 2637,
      "duce": 2638,
      "toDual": 2639,
      "hJ": 2640,
      "CommClass": 2641,
      "mvar": 2642,
      "multiplicity": 2643,
      "hε": 2644,
      "metric": 2645,
      "dArrow": 2646,
      "Sets": 2647,
      "ped": 2648,
      "exponent": 2649,
      "Diag": 2650,
      "ning": 2651,
      "scalar": 2652,
      "mptot": 2653,
      "And": 2654,
      "ourier": 2655,
      "hφ": 2656,
      "angent": 2657,
      "hF": 2658,
      "ede": 2659,
      "generated": 2660,
      "eqTo": 2661,
      "our": 2662,
      "htt": 2663,
      "goals": 2664,
      "AlgebraicGeometry": 2665,
      "second": 2666,
      "coprod": 2667,
      "core": 2668,
      "ably": 2669,
      "nonzero": 2670,
      "down": 2671,
      "Fa": 2672,
      "spectrum": 2673,
      "adic": 2674,
      "FDerivWithinAt": 2675,
      "Wh": 2676,
      "main": 2677,
      "independent": 2678,
      "SimpleFunc": 2679,
      "ert": 2680,
      "bijective": 2681,
      "toEquiv": 2682,
      "Founded": 2683,
      "rent": 2684,
      "Subobject": 2685,
      "Shift": 2686,
      "cyclotomic": 2687,
      "IsIntegral": 2688,
      "direct": 2689,
      "rn": 2690,
      "floor": 2691,
      "Cᵒᵖ": 2692,
      "DFinsupp": 2693,
      "att": 2694,
      "Infinite": 2695,
      "stat": 2696,
      "Abelian": 2697,
      "Pseudo": 2698,
      "leadingCoeff": 2699,
      "both": 2700,
      "hA": 2701,
      "NF": 2702,
      "toNNReal": 2703,
      "lope": 2704,
      "diagram": 2705,
      "mptotics": 2706,
      "antitone": 2707,
      "FiniteMeasure": 2708,
      "terms": 2709,
      "04": 2710,
      "Tot": 2711,
      "unc": 2712,
      "stream": 2713,
      "neighbor": 2714,
      "ipschitz": 2715,
      "contains": 2716,
      "isLimit": 2717,
      "unctor": 2718,
      "FirstOrder": 2719,
      "ategor": 2720,
      "pushout": 2721,
      "Spectrum": 2722,
      "repres": 2723,
      "arch": 2724,
      "van": 2725,
      "ping": 2726,
      "zip": 2727,
      "monic": 2728,
      "anti": 2729,
      "gcongr": 2730,
      "fvar": 2731,
      "lcm": 2732,
      "square": 2733,
      "tt": 2734,
      "bit0": 2735,
      "Elab": 2736,
      "ays": 2737,
      "multiplication": 2738,
      "Chain": 2739,
      "null": 2740,
      "language": 2741,
      "Cauchy": 2742,
      "StrictMono": 2743,
      "hK": 2744,
      "circle": 2745,
      "ether": 2746,
      "tmul": 2747,
      "yt": 2748,
      "they": 2749,
      "pie": 2750,
      "less": 2751,
      "irc": 2752,
      "Circle": 2753,
      "afe": 2754,
      "Theor": 2755,
      "different": 2756,
      "toNat": 2757,
      "Theorem": 2758,
      "Completion": 2759,
      "along": 2760,
      "etherian": 2761,
      "roid": 2762,
      "cewise": 2763,
      "https": 2764,
      "DistribMulAction": 2765,
      "12": 2766,
      "bd": 2767,
      "above": 2768,
      "Bundle": 2769,
      "Composition": 2770,
      "fail": 2771,
      "carrier": 2772,
      "cr": 2773,
      "Initial": 2774,
      "nating": 2775,
      "Ty": 2776,
      "DerivWithinAt": 2777,
      "Vec": 2778,
      "allel": 2779,
      "Size": 2780,
      "codable": 2781,
      "hst": 2782,
      "side": 2783,
      "msg": 2784,
      "piecewise": 2785,
      "instead": 2786,
      "thickening": 2787,
      "CompleteLattice": 2788,
      "atern": 2789,
      "restrictScalars": 2790,
      "ometric": 2791,
      "aternion": 2792,
      "odd": 2793,
      "commute": 2794,
      "eni": 2795,
      "ifs": 2796,
      "MetaM": 2797,
      "nf": 2798,
      "αᵒᵈ": 2799,
      "Tru": 2800,
      "Comput": 2801,
      "arison": 2802,
      "canonical": 2803,
      "Monic": 2804,
      "True": 2805,
      "Small": 2806,
      "isBigO": 2807,
      "upwards": 2808,
      "ersion": 2809,
      "bit1": 2810,
      "Constant": 2811,
      "ud": 2812,
      "erMeasure": 2813,
      "ContMDiff": 2814,
      "coord": 2815,
      "uncurry": 2816,
      "monoidal": 2817,
      "doc": 2818,
      "Primrec": 2819,
      "Under": 2820,
      "False": 2821,
      "ifford": 2822,
      "sep": 2823,
      "Invariant": 2824,
      "Pl": 2825,
      "prim": 2826,
      "OfNat": 2827,
      "unital": 2828,
      "ittle": 2829,
      "ₛₗ": 2830,
      "strictMono": 2831,
      "component": 2832,
      "sinh": 2833,
      "explicit": 2834,
      "direction": 2835,
      "ductive": 2836,
      "pointwise": 2837,
      "CommGroup": 2838,
      "AlgEquiv": 2839,
      "limsup": 2840,
      "requi": 2841,
      "chart": 2842,
      "forward": 2843,
      "omorphic": 2844,
      "jaco": 2845,
      "thon": 2846,
      "ok": 2847,
      "Property": 2848,
      "seminorm": 2849,
      "Exact": 2850,
      "Lips": 2851,
      "nnreal": 2852,
      "Lipschitz": 2853,
      "tan": 2854,
      "cfc": 2855,
      "HomClass": 2856,
      "IsometryEquiv": 2857,
      "ormal": 2858,
      "ᵐᵒᵖ": 2859,
      "subalgebra": 2860,
      "ators": 2861,
      "ties": 2862,
      "ENat": 2863,
      "below": 2864,
      "Semilattice": 2865,
      "lying": 2866,
      "normalize": 2867,
      "nodup": 2868,
      "Products": 2869,
      "weighted": 2870,
      "addition": 2871,
      "orderOf": 2872,
      "PartialHomeomorph": 2873,
      "Antitone": 2874,
      "invariant": 2875,
      "roth": 2876,
      "rob": 2877,
      "plicate": 2878,
      "Adjoin": 2879,
      "Index": 2880,
      "try": 2881,
      "throw": 2882,
      "cott": 2883,
      "Base": 2884,
      "Tra": 2885,
      "statem": 2886,
      "thonormal": 2887,
      "elf": 2888,
      "ically": 2889,
      "Dense": 2890,
      "radi": 2891,
      "Tag": 2892,
      "icient": 2893,
      "egment": 2894,
      "compose": 2895,
      "ided": 2896,
      "olv": 2897,
      "Exp": 2898,
      "biprod": 2899,
      "Adjunction": 2900,
      "Walking": 2901,
      "Cochain": 2902,
      "Error": 2903,
      "expression": 2904,
      "Inner": 2905,
      "Car": 2906,
      "Seminormed": 2907,
      "lor": 2908,
      "enum": 2909,
      "Rec": 2910,
      "objects": 2911,
      "DirectSum": 2912,
      "aut": 2913,
      "fiber": 2914,
      "identity": 2915,
      "istic": 2916,
      "hasDerivAt": 2917,
      "variantClass": 2918,
      "licial": 2919,
      "imum": 2920,
      "gl": 2921,
      "gle": 2922,
      "here": 2923,
      "a1": 2924,
      "parts": 2925,
      "tak": 2926,
      "read": 2927,
      "vers": 2928,
      "ytic": 2929,
      "transpose": 2930,
      "lies": 2931,
      "init": 2932,
      "ittleO": 2933,
      "uring": 2934,
      "FractionRing": 2935,
      "lar": 2936,
      "Multiplicative": 2937,
      "OuterMeasure": 2938,
      "Cur": 2939,
      "isS": 2940,
      "OrderIso": 2941,
      "dicate": 2942,
      "rational": 2943,
      "2022": 2944,
      "radius": 2945,
      "half": 2946,
      "diam": 2947,
      "three": 2948,
      "their": 2949,
      "stem": 2950,
      "Quadratic": 2951,
      "Below": 2952,
      "enius": 2953,
      "robenius": 2954,
      "Induc": 2955,
      "Stream": 2956,
      "factorization": 2957,
      "Red": 2958,
      "foldl": 2959,
      "alter": 2960,
      "Valuation": 2961,
      "safe": 2962,
      "discrete": 2963,
      "biproduct": 2964,
      "lementation": 2965,
      "values": 2966,
      "Bilin": 2967,
      "acc": 2968,
      "mut": 2969,
      "abelian": 2970,
      "Bounds": 2971,
      "ov": 2972,
      "singular": 2973,
      "hC": 2974,
      "multilinear": 2975,
      "Short": 2976,
      "setTo": 2977,
      "uIcc": 2978,
      "hol": 2979,
      "ier": 2980,
      "directed": 2981,
      "commutes": 2982,
      "PUnit": 2983,
      "Graded": 2984,
      "Let": 2985,
      "semi": 2986,
      "like": 2987,
      "pp": 2988,
      "atom": 2989,
      "isColimit": 2990,
      "stalk": 2991,
      "RingEquiv": 2992,
      "reate": 2993,
      "corresponding": 2994,
      "cfg": 2995,
      "Summable": 2996,
      "Quiver": 2997,
      "eqToHom": 2998,
      "coeFn": 2999,
      "ZeroDivisors": 3000,
      "Idx": 3001,
      "SL": 3002,
      "SMulCommClass": 3003,
      "bination": 3004,
      "mid": 3005,
      "contra": 3006,
      "Eventually": 3007,
      "hasSum": 3008,
      "Angle": 3009,
      "orn": 3010,
      "06": 3011,
      "isEmpty": 3012,
      "foldr": 3013,
      "met": 3014,
      "exist": 3015,
      "rnDeriv": 3016,
      "general": 3017,
      "bl": 3018,
      "endie": 3019,
      "rothendie": 3020,
      "rothendieck": 3021,
      "hne": 3022,
      "kind": 3023,
      "Decl": 3024,
      "heq": 3025,
      "probability": 3026,
      "TM": 3027,
      "RingTheory": 3028,
      "categor": 3029,
      "defines": 3030,
      "OneClass": 3031,
      "Total": 3032,
      "param": 3033,
      "Separable": 3034,
      "hV": 3035,
      "UpTo": 3036,
      "fourier": 3037,
      "las": 3038,
      "off": 3039,
      "ContinuousAt": 3040,
      "pen": 3041,
      "reindex": 3042,
      "decide": 3043,
      "Homogeneous": 3044,
      "powerset": 3045,
      "Types": 3046,
      "iteratedFDeriv": 3047,
      "Projection": 3048,
      "shiftFunctor": 3049,
      "Subspace": 3050,
      "Scott": 3051,
      "slope": 3052,
      "inductive": 3053,
      "fter": 3054,
      "cauchy": 3055,
      "strong": 3056,
      "Joh": 3057,
      "Mor": 3058,
      "olve": 3059,
      "Nil": 3060,
      "rad": 3061,
      "properties": 3062,
      "Fractional": 3063,
      "ides": 3064,
      "argument": 3065,
      "witt": 3066,
      "Value": 3067,
      "fderivWithin": 3068,
      "rotate": 3069,
      "Preserving": 3070,
      "HasDerivAt": 3071,
      "anal": 3072,
      "Anti": 3073,
      "NN": 3074,
      "Conj": 3075,
      "Faithful": 3076,
      "CD": 3077,
      "asses": 3078,
      "denom": 3079,
      "Witt": 3080,
      "way": 3081,
      "onti": 3082,
      "factorial": 3083,
      "15": 3084,
      "replicate": 3085,
      "Even": 3086,
      "Block": 3087,
      "dif": 3088,
      "Cokernel": 3089,
      "AEMeasurable": 3090,
      "Division": 3091,
      "isBounded": 3092,
      "ontier": 3093,
      "bundled": 3094,
      "multiple": 3095,
      "Fork": 3096,
      "RB": 3097,
      "ulus": 3098,
      "Indic": 3099,
      "Cofork": 3100,
      "Interm": 3101,
      "Intermediate": 3102,
      "rs": 3103,
      "Indicator": 3104,
      "trunc": 3105,
      "continuousWithinAt": 3106,
      "auto": 3107,
      "Partition": 3108,
      "Haar": 3109,
      "expand": 3110,
      "super": 3111,
      "sort": 3112,
      "antidiagonal": 3113,
      "Exists": 3114,
      "contMDiff": 3115,
      "post": 3116,
      "Locus": 3117,
      "fect": 3118,
      "numbers": 3119,
      "IsBounded": 3120,
      "ChartAt": 3121,
      "circ": 3122,
      "ffect": 3123,
      "uniformContinuous": 3124,
      "ves": 3125,
      "Syntax": 3126,
      "Terminal": 3127,
      "Centr": 3128,
      "2023": 3129,
      "ifunctor": 3130,
      "multiplicative": 3131,
      "ification": 3132,
      "NonAssocSemiring": 3133,
      "ga": 3134,
      "Setoid": 3135,
      "DifferentiableAt": 3136,
      "Atom": 3137,
      "flection": 3138,
      "bu": 3139,
      "arting": 3140,
      "ContinuousMultilinearMap": 3141,
      "ël": 3142,
      "isomorphic": 3143,
      "AddHom": 3144,
      "Preadditive": 3145,
      "Same": 3146,
      "aem": 3147,
      "remov": 3148,
      "invertible": 3149,
      "hpq": 3150,
      "terminal": 3151,
      "quasi": 3152,
      "trivialization": 3153,
      "Aesop": 3154,
      "fy": 3155,
      "pb": 3156,
      "extends": 3157,
      "whose": 3158,
      "omorphisms": 3159,
      "torsion": 3160,
      "opposite": 3161,
      "periodic": 3162,
      "castSucc": 3163,
      "key": 3164,
      "abv": 3165,
      "colimits": 3166,
      "Kan": 3167,
      "ndist": 3168,
      "disj": 3169,
      "liminf": 3170,
      "Args": 3171,
      "reates": 3172,
      "AEStronglyMeasurable": 3173,
      "hR": 3174,
      "arc": 3175,
      "tract": 3176,
      "Info": 3177,
      "Nth": 3178,
      "ized": 3179,
      "args": 3180,
      "13": 3181,
      "look": 3182,
      "IsLocal": 3183,
      "lists": 3184,
      "ros": 3185,
      "generateFrom": 3186,
      "EReal": 3187,
      "inductionOn": 3188,
      "splits": 3189,
      "aemeasurable": 3190,
      "groupoid": 3191,
      "trim": 3192,
      "EquivOf": 3193,
      "ofinite": 3194,
      "IntermediateField": 3195,
      "25": 3196,
      "Lem": 3197,
      "idem": 3198,
      "indexed": 3199,
      "Triangle": 3200,
      "la": 3201,
      "nol": 3202,
      "setIntegral": 3203,
      "WithOne": 3204,
      "nolint": 3205,
      "atible": 3206,
      "PresheafedSpace": 3207,
      "atteries": 3208,
      "sUnion": 3209,
      "IsPr": 3210,
      "yting": 3211,
      "PartialEquiv": 3212,
      "2021": 3213,
      "Single": 3214,
      "Borel": 3215,
      "Associates": 3216,
      "ras": 3217,
      "Subsemigroup": 3218,
      "44": 3219,
      "Noetherian": 3220,
      "abel": 3221,
      "Mario": 3222,
      "iro": 3223,
      "neiro": 3224,
      "hrink": 3225,
      "Nodup": 3226,
      "RC": 3227,
      "model": 3228,
      "LieSubmodule": 3229,
      "ext1": 3230,
      "QuadraticForm": 3231,
      "nndist": 3232,
      "Maps": 3233,
      "Points": 3234,
      "following": 3235,
      "game": 3236,
      "info": 3237,
      "orbit": 3238,
      "stop": 3239,
      "ane": 3240,
      "state": 3241,
      "reflects": 3242,
      "16": 3243,
      "Dom": 3244,
      "erc": 3245,
      "GL": 3246,
      "cave": 3247,
      "fn": 3248,
      "Proof": 3249,
      "underlying": 3250,
      "short": 3251,
      "Carneiro": 3252,
      "RCLike": 3253,
      "bs": 3254,
      "anced": 3255,
      "ZeroClass": 3256,
      "NeBot": 3257,
      "Batteries": 3258,
      "cpow": 3259,
      "extChartAt": 3260,
      "Uniformly": 3261,
      "orient": 3262,
      "Simplex": 3263,
      "categories": 3264,
      "Weak": 3265,
      "Singleton": 3266,
      "Pt": 3267,
      "HasBasis": 3268,
      "noalign": 3269,
      "dimensional": 3270,
      "gives": 3271,
      "choi": 3272,
      "quadratic": 3273,
      "verage": 3274,
      "LinearAlgebra": 3275,
      "Condition": 3276,
      "pf": 3277,
      "satisfi": 3278,
      "satisfy": 3279,
      "Element": 3280,
      "many": 3281,
      "ffective": 3282,
      "atter": 3283,
      "hM": 3284,
      "Model": 3285,
      "Bijective": 3286,
      "anif": 3287,
      "homotopy": 3288,
      "variables": 3289,
      "Preconnected": 3290,
      "tac": 3291,
      "Result": 3292,
      "Formula": 3293,
      "isIntegral": 3294,
      "normalized": 3295,
      "permut": 3296,
      "df": 3297,
      "arou": 3298,
      "mapsTo": 3299,
      "aleph0": 3300,
      "aroubi": 3301,
      "cri": 3302,
      "rary": 3303,
      "ank": 3304,
      "formal": 3305,
      "differentiableAt": 3306,
      "FractionalIdeal": 3307,
      "hasFDerivAt": 3308,
      "striction": 3309,
      "Clifford": 3310,
      "hN": 3311,
      "frontier": 3312,
      "Inducing": 3313,
      "ury": 3314,
      "UpperSet": 3315,
      "Morr": 3316,
      "106": 3317,
      "Param": 3318,
      "ified": 3319,
      "lipschitz": 3320,
      "Then": 3321,
      "coefficient": 3322,
      "Groupoid": 3323,
      "cov": 3324,
      "Quasi": 3325,
      "WellFounded": 3326,
      "RingedSpace": 3327,
      "Morrison": 3328,
      "29": 3329,
      "them": 3330,
      "MonCat": 3331,
      "just": 3332,
      "inequality": 3333,
      "frobenius": 3334,
      "ctx": 3335,
      "Filtered": 3336,
      "write": 3337,
      "ProbabilityTheory": 3338,
      "dot": 3339,
      "ently": 3340,
      "transform": 3341,
      "declar": 3342,
      "hG": 3343,
      "≪≫": 3344,
      "inated": 3345,
      "orig": 3346,
      "CompactSpace": 3347,
      "reas": 3348,
      "Reflects": 3349,
      "ceil": 3350,
      "IsL": 3351,
      "Invertible": 3352,
      "trafilter": 3353,
      "Cofan": 3354,
      "continuity": 3355,
      "stx": 3356,
      "HasStrict": 3357,
      "a0": 3358,
      "msgs": 3359,
      "Zeta": 3360,
      "dy": 3361,
      "reduce": 3362,
      "Poly": 3363,
      "CompleteSpace": 3364,
      "ix": 3365,
      "hypo": 3366,
      "tprod": 3367,
      "construction": 3368,
      "Components": 3369,
      "LowerSet": 3370,
      "Implementation": 3371,
      "geb": 3372,
      "HomologyData": 3373,
      "NatIso": 3374,
      "rings": 3375,
      "adjunction": 3376,
      "IntegrableOn": 3377,
      "CliffordAlgebra": 3378,
      "gebras": 3379,
      "inclu": 3380,
      "Trivial": 3381,
      "tag": 3382,
      "hov": 3383,
      "associator": 3384,
      "suc": 3385,
      "Kud": 3386,
      "Yury": 3387,
      "ashov": 3388,
      "ili": 3389,
      "after": 3390,
      "strictly": 3391,
      "ofDual": 3392,
      "SetTheory": 3393,
      "haar": 3394,
      "02": 3395,
      "assert": 3396,
      "AddEquiv": 3397,
      "mvarId": 3398,
      "mediate": 3399,
      "fore": 3400,
      "requently": 3401,
      "centralizer": 3402,
      "himp": 3403,
      "metic": 3404,
      "Projective": 3405,
      "Unitor": 3406,
      "MVarId": 3407,
      "ities": 3408,
      "homeomorph": 3409,
      "nology": 3410,
      "clear": 3411,
      "Nilpotent": 3412,
      "predicate": 3413,
      "ryashov": 3414,
      "convergence": 3415,
      "WittVector": 3416,
      "Kudryashov": 3417,
      "itself": 3418,
      "iling": 3419,
      "topic": 3420,
      "AffineSubspace": 3421,
      "isLittleO": 3422,
      "added": 3423,
      "choice": 3424,
      "homogeneous": 3425,
      "ihil": 3426,
      "Elem": 3427,
      "ener": 3428,
      "88": 3429,
      "ness": 3430,
      "uence": 3431,
      "easur": 3432,
      "Profinite": 3433,
      "ShortComplex": 3434,
      "tach": 3435,
      "Tags": 3436,
      "parallel": 3437,
      "clic": 3438,
      "vectors": 3439,
      "subspace": 3440,
      "NormedField": 3441,
      "Pointwise": 3442,
      "IsEmpty": 3443,
      "ste": 3444,
      "sections": 3445,
      "num1": 3446,
      "would": 3447,
      "olutive": 3448,
      "lice": 3449,
      "ercion": 3450,
      "riz": 3451,
      "iliary": 3452,
      "Time": 3453,
      "sm": 3454,
      "inher": 3455,
      "ild": 3456,
      "MulEquiv": 3457,
      "UB": 3458,
      "now": 3459,
      "syntax": 3460,
      "ases": 3461,
      "ites": 3462,
      "Fix": 3463,
      "affineSpan": 3464,
      "covering": 3465,
      "iq": 3466,
      "oolean": 3467,
      "hle": 3468,
      "func": 3469,
      "realize": 3470,
      "attach": 3471,
      "supr": 3472,
      "mot": 3473,
      "fract": 3474,
      "DifferentiableWithinAt": 3475,
      "igits": 3476,
      "fe": 3477,
      "ref": 3478,
      "divisors": 3479,
      "Central": 3480,
      "OrderHom": 3481,
      "absolute": 3482,
      "ihilator": 3483,
      "Asy": 3484,
      "MorphismProperty": 3485,
      "Ori": 3486,
      "thing": 3487,
      "artingale": 3488,
      "ncard": 3489,
      "inate": 3490,
      "functors": 3491,
      "neighborho": 3492,
      "26": 3493,
      "rac": 3494,
      "MonoidWithZero": 3495,
      "28": 3496,
      "modules": 3497,
      "When": 3498,
      "bor": 3499,
      "algebras": 3500,
      "ump": 3501,
      "LimitsOfShape": 3502,
      "jacobi": 3503,
      "you": 3504,
      "igned": 3505,
      "IsMax": 3506,
      "arguments": 3507,
      "inferInstanceAs": 3508,
      "cript": 3509,
      "23": 3510,
      "Meas": 3511,
      "tangent": 3512,
      "hyp": 3513,
      "Sieve": 3514,
      "fib": 3515,
      "Integ": 3516,
      "vanish": 3517,
      "supported": 3518,
      "ts": 3519,
      "least": 3520,
      "aestronglyMeasurable": 3521,
      "structuredArrow": 3522,
      "arbit": 3523,
      "throwError": 3524,
      "Hull": 3525,
      "sk": 3526,
      "Hausdorff": 3527,
      "make": 3528,
      "bij": 3529,
      "hmn": 3530,
      "whiskerLeft": 3531,
      "ble": 3532,
      "allow": 3533,
      "Imm": 3534,
      "Irreducible": 3535,
      "ending": 3536,
      "Step": 3537,
      "modify": 3538,
      "Context": 3539,
      "apose": 3540,
      "may": 3541,
      "Special": 3542,
      "InnerProduct": 3543,
      "Asymptotics": 3544,
      "IsDomain": 3545,
      "IO": 3546,
      "izer": 3547,
      "faithful": 3548,
      "integrableOn": 3549,
      "Odd": 3550,
      "full": 3551,
      "BilinForm": 3552,
      "motive": 3553,
      "Immersion": 3554,
      "coequalizer": 3555,
      "typeclass": 3556,
      "ersal": 3557,
      "dfinsupp": 3558,
      "h3": 3559,
      "zmod": 3560,
      "ider": 3561,
      "cosh": 3562,
      "Defs": 3563,
      "DecidablePred": 3564,
      "Node": 3565,
      "whiskerRight": 3566,
      "contrapose": 3567,
      "frequently": 3568,
      "14": 3569,
      "bes": 3570,
      "WithC": 3571,
      "distance": 3572,
      "holds": 3573,
      "MonoidAlgebra": 3574,
      "MonoidalCategory": 3575,
      "AdjoinRoot": 3576,
      "LinearIndependent": 3577,
      "basicOpen": 3578,
      "graded": 3579,
      "parent": 3580,
      "powers": 3581,
      "classes": 3582,
      "rename": 3583,
      "rough": 3584,
      "superset": 3585,
      "öl": 3586,
      "2020": 3587,
      "Grothendieck": 3588,
      "encode": 3589,
      "OfSize": 3590,
      "MapsTo": 3591,
      "haus": 3592,
      "vary": 3593,
      "cept": 3594,
      "without": 3595,
      "elds": 3596,
      "Theta": 3597,
      "63": 3598,
      "HasFDerivAt": 3599,
      "bc": 3600,
      "cut": 3601,
      "gue": 3602,
      "Ref": 3603,
      "hxs": 3604,
      "injOn": 3605,
      "NeZero": 3606,
      "radical": 3607,
      "05": 3608,
      "Fl": 3609,
      "rossing": 3610,
      "PNat": 3611,
      "error": 3612,
      "RingCat": 3613,
      "imitiveRoot": 3614,
      "ugate": 3615,
      "opNorm": 3616,
      "reatest": 3617,
      "time": 3618,
      "dim": 3619,
      "complement": 3620,
      "nonrec": 3621,
      "surj": 3622,
      "anifold": 3623,
      "hX": 3624,
      "OrderBot": 3625,
      "groups": 3626,
      "LM": 3627,
      "Univ": 3628,
      "homEquiv": 3629,
      "CommRingCat": 3630,
      "BinaryBi": 3631,
      "segment": 3632,
      "HomologyMap": 3633,
      "awful": 3634,
      "zy": 3635,
      "formula": 3636,
      "alizing": 3637,
      "Aut": 3638,
      "Lindel": 3639,
      "linearIndependent": 3640,
      "imes": 3641,
      "Def": 3642,
      "isMax": 3643,
      "Comparison": 3644,
      "four": 3645,
      "recur": 3646,
      "Karoubi": 3647,
      "lection": 3648,
      "level": 3649,
      "IsBigO": 3650,
      "lineMap": 3651,
      "Gl": 3652,
      "60": 3653,
      "command": 3654,
      "Ordnode": 3655,
      "characteristic": 3656,
      "rade": 3657,
      "strass": 3658,
      "ierstrass": 3659,
      "CovariantClass": 3660,
      "iod": 3661,
      "Any": 3662,
      "transl": 3663,
      "Self": 3664,
      "completion": 3665,
      "Quaternion": 3666,
      "alternating": 3667,
      "Höl": 3668,
      "vars": 3669,
      "removed": 3670,
      "satisfies": 3671,
      "Full": 3672,
      "ither": 3673,
      "2019": 3674,
      "uss": 3675,
      "finprod": 3676,
      "represent": 3677,
      "FVar": 3678,
      "ulift": 3679,
      "fundamental": 3680,
      "CLM": 3681,
      "loc": 3682,
      "BoxIntegral": 3683,
      "Bu": 3684,
      "restriction": 3685,
      "symmetric": 3686,
      "Defin": 3687,
      "shape": 3688,
      "hh": 3689,
      "asy": 3690,
      "Ray": 3691,
      "means": 3692,
      "Bifunctor": 3693,
      "ential": 3694,
      "hasStrict": 3695,
      "FG": 3696,
      "icular": 3697,
      "ContinuousWithinAt": 3698,
      "math": 3699,
      "Do": 3700,
      "zl": 3701,
      "hQ": 3702,
      "measures": 3703,
      "CharP": 3704,
      "rected": 3705,
      "mulSupport": 3706,
      "ges": 3707,
      "Test": 3708,
      "sor": 3709,
      "imorphism": 3710,
      "Code": 3711,
      "success": 3712,
      "cing": 3713,
      "ures": 3714,
      "DifferentiableOn": 3715,
      "10618": 3716,
      "AddCircle": 3717,
      "Decomposition": 3718,
      "Memℒp": 3719,
      "density": 3720,
      "ns": 3721,
      "needed": 3722,
      "neBot": 3723,
      "MulOpposite": 3724,
      "adi": 3725,
      "PartENat": 3726,
      "Side": 3727,
      "pgame": 3728,
      "CompHaus": 3729,
      "Hash": 3730,
      "ik": 3731,
      "ough": 3732,
      "edges": 3733,
      "caveOn": 3734,
      "93": 3735,
      "simpl": 3736,
      "hamm": 3737,
      "modEq": 3738,
      "Relation": 3739,
      "Directed": 3740,
      "System": 3741,
      "intervalIntegral": 3742,
      "75": 3743,
      "Last": 3744,
      "foo": 3745,
      "rees": 3746,
      "particular": 3747,
      "lit": 3748,
      "cones": 3749,
      "CostructuredArrow": 3750,
      "Cyclotomic": 3751,
      "CauSeq": 3752,
      "EMetric": 3753,
      "Symm": 3754,
      "tends": 3755,
      "input": 3756,
      "Cal": 3757,
      "coercion": 3758,
      "opow": 3759,
      "poss": 3760,
      "finitely": 3761,
      "hausdorff": 3762,
      "besgue": 3763,
      "std": 3764,
      "omat": 3765,
      "auge": 3766,
      "Separated": 3767,
      "Ident": 3768,
      "orthogonalProjection": 3769,
      "a2": 3770,
      "imede": 3771,
      "implic": 3772,
      "Fundamental": 3773,
      "2Space": 3774,
      "subring": 3775,
      "imedean": 3776,
      "b0": 3777,
      "nt": 3778,
      "icategory": 3779,
      "original": 3780,
      "ssubset": 3781,
      "implies": 3782,
      "Coproduct": 3783,
      "LieAlgebra": 3784,
      "f8": 3785,
      "intermediate": 3786,
      "HasFinite": 3787,
      "context": 3788,
      "essage": 3789,
      "UniformlyOn": 3790,
      "Shrink": 3791,
      "Concrete": 3792,
      "La": 3793,
      "bilinear": 3794,
      "duction": 3795,
      "weak": 3796,
      "LocallyRingedSpace": 3797,
      "orientation": 3798,
      "infty": 3799,
      "theorems": 3800,
      "polynomials": 3801,
      "Prepartition": 3802,
      "binder": 3803,
      "Bornology": 3804,
      "a5": 3805,
      "gi": 3806,
      "sᶜ": 3807,
      "igen": 3808,
      "congruence": 3809,
      "normSq": 3810,
      "Weight": 3811,
      "determ": 3812,
      "convexHull": 3813,
      "Mat": 3814,
      "apt": 3815,
      "toLin": 3816,
      "IsFiniteMeasure": 3817,
      "resolve": 3818,
      "Multi": 3819,
      "succAbove": 3820,
      "Presieve": 3821,
      "sa": 3822,
      "ways": 3823,
      "uniq": 3824,
      "round": 3825,
      "cket": 3826,
      "mulIndicator": 3827,
      "Refl": 3828,
      "recOn": 3829,
      "useful": 3830,
      "hler": 3831,
      "iled": 3832,
      "ze": 3833,
      "₁₃": 3834,
      "isSheaf": 3835,
      "Continu": 3836,
      "valid": 3837,
      "ContinuousFunction": 3838,
      "Bl": 3839,
      "walk": 3840,
      "ColimitsOfShape": 3841,
      "measur": 3842,
      "enter": 3843,
      "Coprod": 3844,
      "lookup": 3845,
      "LocallyFinite": 3846,
      "statement": 3847,
      "Alter": 3848,
      "Tree": 3849,
      "ivary": 3850,
      "Derivation": 3851,
      "applic": 3852,
      "izes": 3853,
      "hζ": 3854,
      "start": 3855,
      "sublist": 3856,
      "cocompact": 3857,
      "TM2": 3858,
      "Dede": 3859,
      "hasBasis": 3860,
      "There": 3861,
      "circum": 3862,
      "Boolean": 3863,
      "ung": 3864,
      "OrderDual": 3865,
      "generalizing": 3866,
      "Deg": 3867,
      "traction": 3868,
      "Orthonormal": 3869,
      "Sep": 3870,
      "avoid": 3871,
      "via": 3872,
      "arbitrary": 3873,
      "Hy": 3874,
      "eter": 3875,
      "projective": 3876,
      "thes": 3877,
      "PrimeSpectrum": 3878,
      "baseSet": 3879,
      "tf": 3880,
      "Hahn": 3881,
      "Redu": 3882,
      "hτ": 3883,
      "tree": 3884,
      "alizers": 3885,
      "ference": 3886,
      "GLB": 3887,
      "99": 3888,
      "Computation": 3889,
      "Fiber": 3890,
      "Len": 3891,
      "expr": 3892,
      "LieModule": 3893,
      "LocallyConstant": 3894,
      "Edist": 3895,
      "IsOpenImmersion": 3896,
      "Orientation": 3897,
      "euclidean": 3898,
      "Rep": 3899,
      "integer": 3900,
      "Calc": 3901,
      "7c": 3902,
      "tower": 3903,
      "pected": 3904,
      "Compacts": 3905,
      "degener": 3906,
      "neighborhood": 3907,
      "could": 3908,
      "OfPreserves": 3909,
      "EqOn": 3910,
      "₂₁": 3911,
      "rem": 3912,
      "iding": 3913,
      "traverse": 3914,
      "SemilatticeSup": 3915,
      "around": 3916,
      "Hölzl": 3917,
      "loop": 3918,
      "uniformly": 3919,
      "annes": 3920,
      "midpoint": 3921,
      "Johannes": 3922,
      "npow": 3923,
      "necess": 3924,
      "Construct": 3925,
      "MulOneClass": 3926,
      "Partrec": 3927,
      "86": 3928,
      "opens": 3929,
      "home": 3930,
      "derivWithin": 3931,
      "md": 3932,
      "ConvexOn": 3933,
      "symmDiff": 3934,
      "prev": 3935,
      "Sym2": 3936,
      "ready": 3937,
      "sch": 3938,
      "slice": 3939,
      "MeasurePreserving": 3940,
      "ComplexShape": 3941,
      "cofinite": 3942,
      "iom": 3943,
      "etriz": 3944,
      "covBy": 3945,
      "85": 3946,
      "MOD": 3947,
      "noncomm": 3948,
      "invOf": 3949,
      "Localized": 3950,
      "simpNF": 3951,
      "strongly": 3952,
      "AddGroupHom": 3953,
      "Rot": 3954,
      "inates": 3955,
      "Morphisms": 3956,
      "inherit": 3957,
      "erg": 3958,
      "isation": 3959,
      "Germ": 3960,
      "ofComponents": 3961,
      "RatFunc": 3962,
      "blocks": 3963,
      "compatible": 3964,
      "Subgraph": 3965,
      "normalizer": 3966,
      "Splitting": 3967,
      "multiples": 3968,
      "79": 3969,
      "bson": 3970,
      "nal": 3971,
      "inhabited": 3972,
      "satisfying": 3973,
      "infi": 3974,
      "monad": 3975,
      "Fan": 3976,
      "pseudo": 3977,
      "wide": 3978,
      "xy": 3979,
      "imo": 3980,
      "FiniteKernel": 3981,
      "dite": 3982,
      "east": 3983,
      "evaluation": 3984,
      "vious": 3985,
      "ZF": 3986,
      "hα": 3987,
      "meta": 3988,
      "HasDerivWithinAt": 3989,
      "returns": 3990,
      "Curve": 3991,
      "xp": 3992,
      "already": 3993,
      "through": 3994,
      "HasSum": 3995,
      "discr": 3996,
      "hδ": 3997,
      "TransGen": 3998,
      "MVars": 3999,
      "Blocks": 4000,
      "decompose": 4001,
      "iou": 4002,
      "Formal": 4003,
      "Resolution": 4004,
      "tfae": 4005,
      "arcsin": 4006,
      "germ": 4007,
      "ContinuousLinearEquiv": 4008,
      "uses": 4009,
      "uster": 4010,
      "ofFn": 4011,
      "nection": 4012,
      "primitive": 4013,
      "ZeroSMul": 4014,
      "Arrows": 4015,
      "mapRange": 4016,
      "ZeroSMulDivisors": 4017,
      "mas": 4018,
      "specialize": 4019,
      "InnerProductSpace": 4020,
      "Lat": 4021,
      "rTensor": 4022,
      "almost": 4023,
      "Lebesgue": 4024,
      "Simplicial": 4025,
      "bool": 4026,
      "ued": 4027,
      "Functions": 4028,
      "Semiconj": 4029,
      "measurability": 4030,
      "Lim": 4031,
      "ile": 4032,
      "ske": 4033,
      "cale": 4034,
      "Constru": 4035,
      "SigmaFinite": 4036,
      "24": 4037,
      "pmap": 4038,
      "inline": 4039,
      "CC": 4040,
      "fld": 4041,
      "mkApp": 4042,
      "Diagram": 4043,
      "ffectiveEpi": 4044,
      "CountableTopology": 4045,
      "Instances": 4046,
      "bddAbove": 4047,
      "Periodic": 4048,
      "hand": 4049,
      "determin": 4050,
      "andard": 4051,
      "operations": 4052,
      "Lindelof": 4053,
      "mfld": 4054,
      "cardinality": 4055,
      "StructuredArrow": 4056,
      "Calculus": 4057,
      "hasFDerivWithinAt": 4058,
      "Forget": 4059,
      "PosNum": 4060,
      "Roots": 4061,
      "Triv": 4062,
      "BorelSpace": 4063,
      "preserving": 4064,
      "lev": 4065,
      "expected": 4066,
      "OrderTop": 4067,
      "getElem": 4068,
      "equals": 4069,
      "ContDiffOn": 4070,
      "Line": 4071,
      "polar": 4072,
      "IsP": 4073,
      "hlt": 4074,
      "martingale": 4075,
      "csSup": 4076,
      "Extend": 4077,
      "isomorphisms": 4078,
      "rules": 4079,
      "irrefl": 4080,
      "hbc": 4081,
      "provide": 4082,
      "BddAbove": 4083,
      "WSeq": 4084,
      "MulHom": 4085,
      "LocalizedModule": 4086,
      "b3": 4087,
      "Theorems": 4088,
      "ij": 4089,
      "everywhere": 4090,
      "analytic": 4091,
      "Lemmas": 4092,
      "permutations": 4093,
      "11": 4094,
      "cthickening": 4095,
      "reflection": 4096,
      "combination": 4097,
      "ister": 4098,
      "aves": 4099,
      "94": 4100,
      "Moves": 4101,
      "dedup": 4102,
      "Turing": 4103,
      "toRingHom": 4104,
      "consider": 4105,
      "AffineMap": 4106,
      "valued": 4107,
      "casesOn": 4108,
      "Generated": 4109,
      "she": 4110,
      "BoundedFormula": 4111,
      "HasFDerivWithinAt": 4112,
      "deriving": 4113,
      "doesn": 4114,
      "LipschitzWith": 4115,
      "LSeries": 4116,
      "lyOrdered": 4117,
      "subsemiring": 4118,
      "preadditive": 4119,
      "ulli": 4120,
      "noulli": 4121,
      "degenerate": 4122,
      "pret": 4123,
      "Arith": 4124,
      "gauge": 4125,
      "encard": 4126,
      "MultilinearSeries": 4127,
      "zeroLocus": 4128,
      "Different": 4129,
      "Diagonal": 4130,
      "Encodable": 4131,
      "operation": 4132,
      "Dedekind": 4133,
      "iation": 4134,
      "cyclic": 4135,
      "T2Space": 4136,
      "wf": 4137,
      "ba": 4138,
      "les": 4139,
      "igens": 4140,
      "nonZeroDivisors": 4141,
      "SheafedSpace": 4142,
      "rotation": 4143,
      "orners": 4144,
      "igenspace": 4145,
      "env": 4146,
      "exacts": 4147,
      "proofs": 4148,
      "DivisionRing": 4149,
      "Can": 4150,
      "Level": 4151,
      "ProbabilityMeasure": 4152,
      "FPowerSeries": 4153,
      "outer": 4154,
      "transfer": 4155,
      "hasDerivWithinAt": 4156,
      "ood": 4157,
      "differentiableWithinAt": 4158,
      "lied": 4159,
      "Generalized": 4160,
      "HS": 4161,
      "Yoneda": 4162,
      "Derived": 4163,
      "1e": 4164,
      "remove": 4165,
      "IsCompl": 4166,
      "Equi": 4167,
      "homomorphisms": 4168,
      "hμs": 4169,
      "decode": 4170,
      "subsemigroup": 4171,
      "derived": 4172,
      "say": 4173,
      "ctan": 4174,
      "HomEquiv": 4175,
      "eventuallyEq": 4176,
      "PseudoMetricSpace": 4177,
      "7f": 4178,
      "structures": 4179,
      "WithCorners": 4180,
      "Glue": 4181,
      "50": 4182,
      "70": 4183,
      "fields": 4184,
      "OfUn": 4185,
      "Lawful": 4186,
      "convolution": 4187,
      "EventuallyEq": 4188,
      "FormalMultilinearSeries": 4189,
      "sublists": 4190,
      "heyting": 4191,
      "ConcaveOn": 4192,
      "atrices": 4193,
      "IsPrimitiveRoot": 4194,
      "adiction": 4195,
      "sound": 4196,
      "submatrix": 4197,
      "OfLE": 4198,
      "Hu": 4199,
      "Sequence": 4200,
      "Reference": 4201,
      "ambd": 4202,
      "axiom": 4203,
      "imil": 4204,
      "Analytic": 4205,
      "Factorization": 4206,
      "asymptotics": 4207,
      "OfUnity": 4208,
      "toIco": 4209,
      "linearMap": 4210,
      "AddCommGrp": 4211,
      "contained": 4212,
      "imilar": 4213,
      "sInter": 4214,
      "Sur": 4215,
      "Reflect": 4216,
      "NonUnitalNonAssocSemiring": 4217,
      "SemilatticeInf": 4218,
      "ilingDegree": 4219,
      "Word": 4220,
      "called": 4221,
      "generalized": 4222,
      "ling": 4223,
      "toIoc": 4224,
      "simplicial": 4225,
      "IsCoprime": 4226,
      "Equivalent": 4227,
      "mak": 4228,
      "inducing": 4229,
      "Strong": 4230,
      "tration": 4231,
      "HasZero": 4232,
      "ConcreteCategory": 4233,
      "Alternating": 4234,
      "ilter": 4235,
      "arctan": 4236,
      "geometric": 4237,
      "FreeGroup": 4238,
      "iltered": 4239,
      "73": 4240,
      "Oper": 4241,
      "don": 4242,
      "either": 4243,
      "p1": 4244,
      "p2": 4245,
      "fully": 4246,
      "padicVal": 4247,
      "nonnegative": 4248,
      "RightInverse": 4249,
      "upperBounds": 4250,
      "CharZero": 4251,
      "sn": 4252,
      "arily": 4253,
      "mapping": 4254,
      "lobal": 4255,
      "LeftInverse": 4256,
      "arrows": 4257,
      "taking": 4258,
      "Wide": 4259,
      "toMeasurable": 4260,
      "destruct": 4261,
      "Infty": 4262,
      "verts": 4263,
      "StarSubalgebra": 4264,
      "linder": 4265,
      "iteratedFDerivWithin": 4266,
      "ice": 4267,
      "must": 4268,
      "VSub": 4269,
      "erexample": 4270,
      "Unitization": 4271,
      "QuotientGroup": 4272,
      "thesis": 4273,
      "jes": 4274,
      "mer": 4275,
      "ltjes": 4276,
      "provided": 4277,
      "Ya": 4278,
      "LinearIsometryEquiv": 4279,
      "boundary": 4280,
      "AddMonoidAlgebra": 4281,
      "mean": 4282,
      "References": 4283,
      "Che": 4284,
      "zeta": 4285,
      "compare": 4286,
      "ively": 4287,
      "current": 4288,
      "average": 4289,
      "dimension": 4290,
      "zipWith": 4291,
      "Differential": 4292,
      "Ke": 4293,
      "Complement": 4294,
      "keys": 4295,
      "failed": 4296,
      "Arithmetic": 4297,
      "quaternion": 4298,
      "common": 4299,
      "insertNth": 4300,
      "abilizer": 4301,
      "Yaël": 4302,
      "logb": 4303,
      "relations": 4304,
      "algHom": 4305,
      "require": 4306,
      "CDF": 4307,
      "attern": 4308,
      "NormedAddGroupHom": 4309,
      "Weierstrass": 4310,
      "Dill": 4311,
      "m0": 4312,
      "adm": 4313,
      "Dillies": 4314,
      "being": 4315,
      "Valid": 4316,
      "Triang": 4317,
      "43": 4318,
      "numer": 4319,
      "UniformContinuous": 4320,
      "those": 4321,
      "orthonormal": 4322,
      "csInf": 4323,
      "hσ": 4324,
      "applied": 4325,
      "dirac": 4326,
      "contradiction": 4327,
      "SeminormedAddCommGroup": 4328,
      "Rad": 4329,
      "sr": 4330,
      "hav": 4331,
      "Clopen": 4332,
      "commutator": 4333,
      "Log": 4334,
      "says": 4335,
      "induces": 4336,
      "codRestrict": 4337,
      "division": 4338,
      "borel": 4339,
      "b5": 4340,
      "cd": 4341,
      "creates": 4342,
      "ged": 4343,
      "ole": 4344,
      "issu": 4345,
      "toSubmodule": 4346,
      "mulVec": 4347,
      "normalizedFactors": 4348,
      "Names": 4349,
      "digits": 4350,
      "nhdsSet": 4351,
      "ordinate": 4352,
      "Fac": 4353,
      "infin": 4354,
      "imod": 4355,
      "statements": 4356,
      "states": 4357,
      "perfect": 4358,
      "Dep": 4359,
      "vanishing": 4360,
      "ConstSMul": 4361,
      "IsPrime": 4362,
      "sends": 4363,
      "TypeVec": 4364,
      "ichotom": 4365,
      "PullbackCone": 4366,
      "Ba": 4367,
      "grade": 4368,
      "solution": 4369,
      "extract": 4370,
      "dest": 4371,
      "comparison": 4372,
      "Env": 4373,
      "weightSpace": 4374,
      "HasStrictFDerivAt": 4375,
      "ins": 4376,
      "eqOn": 4377,
      "mapDomain": 4378,
      "Insert": 4379,
      "Preimage": 4380,
      "Idem": 4381,
      "olvable": 4382,
      "toFinsupp": 4383,
      "Subfield": 4384,
      "Continued": 4385,
      "HahnSeries": 4386,
      "ail": 4387,
      "gment": 4388,
      "lean4": 4389,
      "LatticeHom": 4390,
      "ablyGenerated": 4391,
      "ussian": 4392,
      "repe": 4393,
      "Config": 4394,
      "close": 4395,
      "balanced": 4396,
      "coefficients": 4397,
      "OnWith": 4398,
      "Cycles": 4399,
      "hfi": 4400,
      "stack": 4401,
      "kh": 4402,
      "lexive": 4403,
      "Factorial": 4404,
      "Acc": 4405,
      "Cases": 4406,
      "EMetricSpace": 4407,
      "Half": 4408,
      "geom": 4409,
      "Combination": 4410,
      "ibil": 4411,
      "contract": 4412,
      "80": 4413,
      "Use": 4414,
      "ech": 4415,
      "ofHom": 4416,
      "spanning": 4417,
      "NonUnitalSubsemiring": 4418,
      "containing": 4419,
      "fd": 4420,
      "emetric": 4421,
      "plus": 4422,
      "reasing": 4423,
      "ZFSet": 4424,
      "7e": 4425,
      "c3": 4426,
      "cker": 4427,
      "83": 4428,
      "Ul": 4429,
      "uncated": 4430,
      "uple": 4431,
      "Cons": 4432,
      "DecidableRel": 4433,
      "wik": 4434,
      "Transpose": 4435,
      "ContinuedFraction": 4436,
      "turing": 4437,
      "codomain": 4438,
      "equi": 4439,
      "colum": 4440,
      "central": 4441,
      "Null": 4442,
      "oot": 4443,
      "rwitz": 4444,
      "fromBlocks": 4445,
      "zpowers": 4446,
      "ctions": 4447,
      "GroupTheory": 4448,
      "NoZeroSMulDivisors": 4449,
      "82": 4450,
      "LIntegral": 4451,
      "another": 4452,
      "bernoulli": 4453,
      "register": 4454,
      "Forall": 4455,
      "Absolute": 4456,
      "GrothendieckTopology": 4457,
      "Torsion": 4458,
      "nadd": 4459,
      "usu": 4460,
      "entries": 4461,
      "sorry": 4462,
      "bf": 4463,
      "obtained": 4464,
      "connectedComponent": 4465,
      "think": 4466,
      "always": 4467,
      "process": 4468,
      "OrderedSemiring": 4469,
      "stein": 4470,
      "CentralSeries": 4471,
      "95": 4472,
      "Bump": 4473,
      "Message": 4474,
      "assume": 4475,
      "whiskering": 4476,
      "call": 4477,
      "idget": 4478,
      "GroupWithZero": 4479,
      "differ": 4480,
      "Applic": 4481,
      "64": 4482,
      "Target": 4483,
      "cro": 4484,
      "transitive": 4485,
      "Notation": 4486,
      "Heap": 4487,
      "failure": 4488,
      "iIndep": 4489,
      "toEnd": 4490,
      "setLIntegral": 4491,
      "LieSubalgebra": 4492,
      "ow": 4493,
      "These": 4494,
      "intersection": 4495,
      "unk": 4496,
      "ico": 4497,
      "Substructure": 4498,
      "aylor": 4499,
      "Row": 4500,
      "large": 4501,
      "setToL1": 4502,
      "65": 4503,
      "GCD": 4504,
      "long": 4505,
      "asc": 4506,
      "opcycles": 4507,
      "ordan": 4508,
      "LimitsOfSize": 4509,
      "Second": 4510,
      "So": 4511,
      "takes": 4512,
      "war": 4513,
      "InjOn": 4514,
      "OfFin": 4515,
      "subsets": 4516,
      "infsep": 4517,
      "annihilator": 4518,
      "Trivialization": 4519,
      "Bimod": 4520,
      "lta": 4521,
      "print": 4522,
      "aehler": 4523,
      "Modular": 4524,
      "Whisker": 4525,
      "Fixed": 4526,
      "HEq": 4527,
      "hig": 4528,
      "Subcategory": 4529,
      "AtFilter": 4530,
      "wellFounded": 4531,
      "components": 4532,
      "tauto": 4533,
      "unitIso": 4534,
      "hypothesis": 4535,
      "PI": 4536,
      "prob": 4537,
      "how": 4538,
      "Stmt": 4539,
      "herence": 4540,
      "SimplicialObject": 4541,
      "lTensor": 4542,
      "toLinearEquiv": 4543,
      "filtered": 4544,
      "binator": 4545,
      "otherwise": 4546,
      "equation": 4547,
      "content": 4548,
      "want": 4549,
      "mulLeft": 4550,
      "search": 4551,
      "homMk": 4552,
      "Plane": 4553,
      "ZNum": 4554,
      "bas": 4555,
      "formul": 4556,
      "compProd": 4557,
      "smulRight": 4558,
      "ArithmeticFunction": 4559,
      "Padic": 4560,
      "versable": 4561,
      "truncate": 4562,
      "implicit": 4563,
      "remum": 4564,
      "HasLimit": 4565,
      "Auxiliary": 4566,
      "fractional": 4567,
      "Ct": 4568,
      "Eval": 4569,
      "Limp": 4570,
      "give": 4571,
      "lyNormedField": 4572,
      "WithLp": 4573,
      "vectorSpan": 4574,
      "ibility": 4575,
      "Limperg": 4576,
      "bel": 4577,
      "kr": 4578,
      "emb": 4579,
      "notes": 4580,
      "equalities": 4581,
      "vil": 4582,
      "remain": 4583,
      "rather": 4584,
      "urent": 4585,
      "countP": 4586,
      "Covering": 4587,
      "automat": 4588,
      "SimplexCategory": 4589,
      "ville": 4590,
      "Me": 4591,
      "gf": 4592,
      "ₗᵢ": 4593,
      "concat": 4594,
      "etail": 4595,
      "conjTranspose": 4596,
      "ContDiffWithinAt": 4597,
      "CyclotomicExtension": 4598,
      "L2": 4599,
      "atives": 4600,
      "subgraph": 4601,
      "Blank": 4602,
      "Jann": 4603,
      "f2": 4604,
      "cobounded": 4605,
      "IsRight": 4606,
      "duces": 4607,
      "flag": 4608,
      "liftOn": 4609,
      "IsSheaf": 4610,
      "lowerBounds": 4611,
      "HomotopyCategory": 4612,
      "Jannis": 4613,
      "lect": 4614,
      "revert": 4615,
      "LocalizationMap": 4616,
      "bounds": 4617,
      "Whi": 4618,
      "reflect": 4619,
      "ilation": 4620,
      "operator": 4621,
      "follows": 4622,
      "isLUB": 4623,
      "projections": 4624,
      "NNRat": 4625,
      "possible": 4626,
      "While": 4627,
      "H1": 4628,
      "ris": 4629,
      "ichain": 4630,
      "been": 4631,
      "Ultrafilter": 4632,
      "belong": 4633,
      "My": 4634,
      "toMeasure": 4635,
      "string": 4636,
      "Perfect": 4637,
      "Ess": 4638,
      "ilt": 4639,
      "summ": 4640,
      "Repres": 4641,
      "Orig": 4642,
      "prec": 4643,
      "WellOrder": 4644,
      "declarations": 4645,
      "Imo": 4646,
      "Match": 4647,
      "hip": 4648,
      "StrictAnti": 4649,
      "Computable": 4650,
      "Riou": 4651,
      "sieve": 4652,
      "Homotopic": 4653,
      "affineCombination": 4654,
      "merge": 4655,
      "03": 4656,
      "mat": 4657,
      "pointed": 4658,
      "Joël": 4659,
      "BddBelow": 4660,
      "EuclideanGeometry": 4661,
      "Params": 4662,
      "Creates": 4663,
      "toLp": 4664,
      "oph": 4665,
      "Modules": 4666,
      "Mass": 4667,
      "tgt": 4668,
      "ym": 4669,
      "lifts": 4670,
      "NormedRing": 4671,
      "distribut": 4672,
      "approxim": 4673,
      "glue": 4674,
      "snoc": 4675,
      "62": 4676,
      "PM": 4677,
      "Signed": 4678,
      "addHaar": 4679,
      "memℒp": 4680,
      "Stone": 4681,
      "insertion": 4682,
      "Act": 4683,
      "ilipschitz": 4684,
      "IsMin": 4685,
      "prefix": 4686,
      "StarAlgHom": 4687,
      "NonAssocRing": 4688,
      "stopped": 4689,
      "zel": 4690,
      "ofList": 4691,
      "isPrime": 4692,
      "entially": 4693,
      "mor": 4694,
      "os": 4695,
      "toMonoidHom": 4696,
      "cylinder": 4697,
      "epimorphism": 4698,
      "bijection": 4699,
      "SignedMeasure": 4700,
      "tl": 4701,
      "stabilizer": 4702,
      "coyoneda": 4703,
      "getD": 4704,
      "ratio": 4705,
      "pushforward": 4706,
      "CancelCommMonoid": 4707,
      "dimH": 4708,
      "Matroid": 4709,
      "bir": 4710,
      "infix": 4711,
      "ats": 4712,
      "hyz": 4713,
      "forgetful": 4714,
      "ContDiffAt": 4715,
      "Cmd": 4716,
      "Mag": 4717,
      "erior": 4718,
      "delete": 4719,
      "integers": 4720,
      "IsLeft": 4721,
      "cannot": 4722,
      "NontriviallyNormedField": 4723,
      "ε0": 4724,
      "IsNilpotent": 4725,
      "ModEq": 4726,
      "boxes": 4727,
      "Magma": 4728,
      "delta": 4729,
      "Approx": 4730,
      "ash": 4731,
      "OrderedRing": 4732,
      "IsSymm": 4733,
      "pairs": 4734,
      "chartAt": 4735,
      "PMF": 4736,
      "Manifold": 4737,
      "Ret": 4738,
      "equip": 4739,
      "universal": 4740,
      "doub": 4741,
      "Parallel": 4742,
      "converges": 4743,
      "works": 4744,
      "dotProduct": 4745,
      "hL": 4746,
      "mi": 4747,
      "SemiRingCat": 4748,
      "padicNorm": 4749,
      "analysis": 4750,
      "sbtw": 4751,
      "reach": 4752,
      "gether": 4753,
      "ilder": 4754,
      "minFac": 4755,
      "ideals": 4756,
      "Character": 4757,
      "contDiffOn": 4758,
      "e4": 4759,
      "IsCyclotomicExtension": 4760,
      "Connection": 4761,
      "Monovary": 4762,
      "Segment": 4763,
      "Conv": 4764,
      "negative": 4765,
      "2018": 4766,
      "separated": 4767,
      "collection": 4768,
      "ished": 4769,
      "Goals": 4770,
      "negSucc": 4771,
      "supremum": 4772,
      "posed": 4773,
      "ordConnected": 4774,
      "centroid": 4775,
      "Parser": 4776,
      "apes": 4777,
      "verg": 4778,
      "Converg": 4779,
      "generalize": 4780,
      "huv": 4781,
      "Eric": 4782,
      "org": 4783,
      "system": 4784,
      "Antivary": 4785,
      "representation": 4786,
      "archimedean": 4787,
      "Des": 4788,
      "arr": 4789,
      "mapIso": 4790,
      "elin": 4791,
      "Ortho": 4792,
      "pliable": 4793,
      "Transform": 4794,
      "VectorMeasure": 4795,
      "Sin": 4796,
      "matrices": 4797,
      "sending": 4798,
      "unused": 4799,
      "stable": 4800,
      "IsNoetherian": 4801,
      "finsum": 4802,
      "Commelin": 4803,
      "congrArg": 4804,
      "HasColimit": 4805,
      "before": 4806,
      "splitting": 4807,
      "StarRing": 4808,
      "initialize": 4809,
      "RBNode": 4810,
      "7b": 4811,
      "Jaco": 4812,
      "times": 4813,
      "cospan": 4814,
      "Orthogonal": 4815,
      "Involutive": 4816,
      "singularPart": 4817,
      "help": 4818,
      "princip": 4819,
      "CompactSupport": 4820,
      "Pointed": 4821,
      "ByMonic": 4822,
      "separating": 4823,
      "bol": 4824,
      "ultrafilter": 4825,
      "Process": 4826,
      "UpToIso": 4827,
      "DF": 4828,
      "coproduct": 4829,
      "subobject": 4830,
      "paren": 4831,
      "charpoly": 4832,
      "weightedVSub": 4833,
      "parallelPair": 4834,
      "01": 4835,
      "Every": 4836,
      "toEmbedding": 4837,
      "tien": 4838,
      "MvPowerSeries": 4839,
      "surd": 4840,
      "balance": 4841,
      "CochainComplex": 4842,
      "Bal": 4843,
      "mop": 4844,
      "inversion": 4845,
      "imm": 4846,
      "appe": 4847,
      "bddBelow": 4848,
      "LinearOrderedField": 4849,
      "ChartedSpace": 4850,
      "elfAdjoint": 4851,
      "GradedObject": 4852,
      "Balanced": 4853,
      "Dvd": 4854,
      "mapBifunctor": 4855,
      "itting": 4856,
      "KernelFork": 4857,
      "nfp": 4858,
      "necessary": 4859,
      "ares": 4860,
      "bar": 4861,
      "lb": 4862,
      "rol": 4863,
      "toAffine": 4864,
      "absurd": 4865,
      "BoundedOrder": 4866,
      "provides": 4867,
      "Push": 4868,
      "difference": 4869,
      "PFunctor": 4870,
      "WF": 4871,
      "toAlgHom": 4872,
      "onecker": 4873,
      "prodMap": 4874,
      "clm": 4875,
      "clusion": 4876,
      "hyper": 4877,
      "differentiableOn": 4878,
      "respects": 4879,
      "DedekindDomain": 4880,
      "Kaehler": 4881,
      "ciSup": 4882,
      "man": 4883,
      "pnat": 4884,
      "Ordering": 4885,
      "maximum": 4886,
      "color": 4887,
      "Gou": 4888,
      "IsSplit": 4889,
      "UniqueDiff": 4890,
      "Associated": 4891,
      "Johan": 4892,
      "mfderiv": 4893,
      "biInter": 4894,
      "theses": 4895,
      "lash": 4896,
      "IsBigOWith": 4897,
      "Ed": 4898,
      "Square": 4899,
      "ground": 4900,
      "mdiff": 4901,
      "ensive": 4902,
      "forms": 4903,
      "variance": 4904,
      "topologicalClosure": 4905,
      "Antidiagonal": 4906,
      "proves": 4907,
      "fvarId": 4908,
      "coordChange": 4909,
      "CokernelCofork": 4910,
      "Elements": 4911,
      "automatically": 4912,
      "inct": 4913,
      "ingu": 4914,
      "Thru": 4915,
      "limitCone": 4916,
      "expressions": 4917,
      "bastien": 4918,
      "Sé": 4919,
      "hH": 4920,
      "pattern": 4921,
      "ëzel": 4922,
      "enough": 4923,
      "standard": 4924,
      "complet": 4925,
      "hba": 4926,
      "ropical": 4927,
      "MonoidalFunctor": 4928,
      "jacobson": 4929,
      "declaration": 4930,
      "Gouëzel": 4931,
      "Sébastien": 4932,
      "Bicategory": 4933,
      "EffectiveEpi": 4934,
      "t2": 4935,
      "hether": 4936,
      "infEdist": 4937,
      "computation": 4938,
      "urns": 4939,
      "NonUnitalSubalgebra": 4940,
      "translation": 4941,
      "Dir": 4942,
      "Jordan": 4943,
      "gram": 4944,
      "IsAdd": 4945,
      "nonUnital": 4946,
      "LiftRel": 4947,
      "baseChange": 4948,
      "Greatest": 4949,
      "VAdd": 4950,
      "together": 4951,
      "involutive": 4952,
      "equalizers": 4953,
      "PowerBasis": 4954,
      "KaehlerDifferential": 4955,
      "decomposition": 4956,
      "Inseparable": 4957,
      "mk0": 4958,
      "mkOf": 4959,
      "NormNum": 4960,
      "nown": 4961,
      "formPerm": 4962,
      "Positive": 4963,
      "setToFun": 4964,
      "binatorics": 4965,
      "Bilinear": 4966,
      "Fil": 4967,
      "eb": 4968,
      "uler": 4969,
      "adapt": 4970,
      "distingu": 4971,
      "absolutely": 4972,
      "jacobiTheta": 4973,
      "89": 4974,
      "QP": 4975,
      "cb": 4976,
      "eigen": 4977,
      "gith": 4978,
      "IsCycle": 4979,
      "sums": 4980,
      "constructed": 4981,
      "DefEq": 4982,
      "skew": 4983,
      "founded": 4984,
      "asIso": 4985,
      "loat": 4986,
      "evalu": 4987,
      "intervals": 4988,
      "ambda": 4989,
      "ency": 4990,
      "HasHomology": 4991,
      "BooleanAlgebra": 4992,
      "github": 4993,
      "Induction": 4994,
      "nilpotent": 4995,
      "sheafify": 4996,
      "Light": 4997,
      "chang": 4998,
      "instanti": 4999,
      "divInt": 5000,
      "Presentation": 5001,
      "Heyting": 5002,
      "hammer": 5003,
      "yle": 5004,
      "ari": 5005,
      "hnm": 5006,
      "NoZeroDivisors": 5007,
      "OrthonormalBasis": 5008,
      "SecondCountableTopology": 5009,
      "Dold": 5010,
      "unsafe": 5011,
      "toSet": 5012,
      "toString": 5013,
      "IsAlgebraic": 5014,
      "IsFractionRing": 5015,
      "sups": 5016,
      "squarefree": 5017,
      "Canonical": 5018,
      "8d": 5019,
      "squ": 5020,
      "als": 5021,
      "cexp": 5022,
      "IsCo": 5023,
      "ress": 5024,
      "related": 5025,
      "Height": 5026,
      "primes": 5027,
      "Origin": 5028,
      "BEq": 5029,
      "bilin": 5030,
      "proposition": 5031,
      "ensed": 5032,
      "isOpenMap": 5033,
      "Elim": 5034,
      "None": 5035,
      "Taylor": 5036,
      "macro": 5037,
      "openEmbedding": 5038,
      "itten": 5039,
      "Sylow": 5040,
      "moveLeft": 5041,
      "IntervalIntegrable": 5042,
      "principle": 5043,
      "Bit": 5044,
      "hts": 5045,
      "SemiconjBy": 5046,
      "GlueData": 5047,
      "84": 5048,
      "while": 5049,
      "unitary": 5050,
      "BoundedContinuousFunction": 5051,
      "constantCoeff": 5052,
      "stdBasis": 5053,
      "oung": 5054,
      "inseparable": 5055,
      "eness": 5056,
      "homologyMap": 5057,
      "written": 5058,
      "elabor": 5059,
      "cfcₙ": 5060,
      "Definition": 5061,
      "Since": 5062,
      "ef": 5063,
      "sp": 5064,
      "mulRight": 5065,
      "preorder": 5066,
      "Body": 5067,
      "smaller": 5068,
      "isSome": 5069,
      "7d": 5070,
      "API": 5071,
      "Ho": 5072,
      "ML": 5073,
      "a4": 5074,
      "ElabM": 5075,
      "Check": 5076,
      "Von": 5077,
      "isimp": 5078,
      "coinc": 5079,
      "plane": 5080,
      "Cluster": 5081,
      "ieser": 5082,
      "CountablyGenerated": 5083,
      "Bundled": 5084,
      "AlternatingMap": 5085,
      "repeat": 5086,
      "isimple": 5087,
      "76": 5088,
      "Wieser": 5089,
      "til": 5090,
      "isPreconnected": 5091,
      "tinian": 5092,
      "blockDiagonal": 5093,
      "kronecker": 5094,
      "similar": 5095,
      "vis": 5096,
      "IsPullback": 5097,
      "posable": 5098,
      "OfModules": 5099,
      "interpret": 5100,
      "functorial": 5101,
      "rame": 5102,
      "Ctx": 5103,
      "74": 5104,
      "Bra": 5105,
      "bUnion": 5106,
      "alt": 5107,
      "isP": 5108,
      "ement": 5109,
      "toSubalgebra": 5110,
      "monoids": 5111,
      "Principal": 5112,
      "factorThru": 5113,
      "GeneralizedContinuedFraction": 5114,
      "crossing": 5115,
      "unless": 5116,
      "Extr": 5117,
      "AddMonoidWithOne": 5118,
      "Conditionally": 5119,
      "Operator": 5120,
      "sense": 5121,
      "Equalizer": 5122,
      "Period": 5123,
      "Irrational": 5124,
      "Place": 5125,
      "rwitzZeta": 5126,
      "Crossing": 5127,
      "PiLp": 5128,
      "Numbers": 5129,
      "Filtration": 5130,
      "distinguished": 5131,
      "MLList": 5132,
      "CrossingTime": 5133,
      "c2": 5134,
      "found": 5135,
      "relev": 5136,
      "LimitCone": 5137,
      "pectral": 5138,
      "AlgebraicTopology": 5139,
      "Rapp": 5140,
      "UInt": 5141,
      "rand": 5142,
      "yn": 5143,
      "IsPreconnected": 5144,
      "Mark": 5145,
      "SepDegree": 5146,
      "isCompl": 5147,
      "depth": 5148,
      "TopologicalAddGroup": 5149,
      "makes": 5150,
      "Den": 5151,
      "whether": 5152,
      "whole": 5153,
      "irrational": 5154,
      "OrderOf": 5155,
      "versions": 5156,
      "MonotoneOn": 5157,
      "hπ": 5158,
      "ListBlank": 5159,
      "syn": 5160,
      "sqrtd": 5161,
      "CauchySeq": 5162,
      "zmultiples": 5163,
      "Reflection": 5164,
      "FreeAbelian": 5165,
      "MemClass": 5166,
      "edgeSet": 5167,
      "scalars": 5168,
      "FreeAbelianGroup": 5169,
      "a3": 5170,
      "xor": 5171,
      "mulSingle": 5172,
      "preconnected": 5173,
      "linearly": 5174,
      "Binder": 5175,
      "hPz": 5176,
      "constants": 5177,
      "specializes": 5178,
      "Lemma": 5179,
      "Rem": 5180,
      "setoid": 5181,
      "corec": 5182,
      "RecOn": 5183,
      "semiconj": 5184,
      "Logic": 5185,
      "MessageData": 5186,
      "hnot": 5187,
      "ire": 5188,
      "user": 5189,
      "bracket": 5190,
      "consist": 5191,
      "Chris": 5192,
      "BinaryFan": 5193,
      "exponential": 5194,
      "differential": 5195,
      "e0": 5196,
      "lable": 5197,
      "had": 5198,
      "exactly": 5199,
      "orderIso": 5200,
      "bicone": 5201,
      "tensorHom": 5202,
      "collinear": 5203,
      "Nhds": 5204,
      "ulated": 5205,
      "notion": 5206,
      "ContinuousConstSMul": 5207,
      "wever": 5208,
      "ml": 5209,
      "ofAdd": 5210,
      "Nonneg": 5211,
      "Cofiltered": 5212,
      "directly": 5213,
      "required": 5214,
      "TrailingDegree": 5215,
      "AList": 5216,
      "ifies": 5217,
      "pell": 5218,
      "Coalgebra": 5219,
      "denot": 5220,
      "Curry": 5221,
      "include": 5222,
      "toIcoMod": 5223,
      "issues": 5224,
      "nm": 5225,
      "leftUnitor": 5226,
      "natTrailingDegree": 5227,
      "OfEq": 5228,
      "artes": 5229,
      "hasFinite": 5230,
      "MonoOver": 5231,
      "Biproduct": 5232,
      "fixedPoints": 5233,
      "ChainComplex": 5234,
      "existing": 5235,
      "toIocMod": 5236,
      "relevant": 5237,
      "herent": 5238,
      "unbounded": 5239,
      "concrete": 5240,
      "gest": 5241,
      "codisjoint": 5242,
      "Coset": 5243,
      "Arch": 5244,
      "GaloisConnection": 5245,
      "additional": 5246,
      "artesian": 5247,
      "rightUnitor": 5248,
      "Cospan": 5249,
      "assumptions": 5250,
      "Exponent": 5251,
      "Lit": 5252,
      "bb": 5253,
      "clog": 5254,
      "lax": 5255,
      "₁₁": 5256,
      "enne": 5257,
      "itali": 5258,
      "ark": 5259,
      "ofIso": 5260,
      "toAddMonoidHom": 5261,
      "toContinuousMap": 5262,
      "IsLocally": 5263,
      "braiding": 5264,
      "mkQ": 5265,
      "made": 5266,
      "ratCast": 5267,
      "auxiliary": 5268,
      "lowerCentralSeries": 5269,
      "TF": 5270,
      "detail": 5271,
      "Atlas": 5272,
      "InvOn": 5273,
      "hypotheses": 5274,
      "hasStrictDerivAt": 5275,
      "1Space": 5276,
      "Ids": 5277,
      "c0": 5278,
      "isNilpotent": 5279,
      "IsSeparable": 5280,
      "hoose": 5281,
      "Adic": 5282,
      "NullMeasurableSet": 5283,
      "mass": 5284,
      "s1": 5285,
      "Coequalizer": 5286,
      "Clique": 5287,
      "mathlib4": 5288,
      "BoolAlg": 5289,
      "GradedMonoid": 5290,
      "fourierIntegral": 5291,
      "IsInitial": 5292,
      "OnFun": 5293,
      "curve": 5294,
      "FreeMonoid": 5295,
      "complexes": 5296,
      "coroot": 5297,
      "Primcodable": 5298,
      "galois": 5299,
      "wart": 5300,
      "typein": 5301,
      "MeasurableEquiv": 5302,
      "bert": 5303,
      "LieIdeal": 5304,
      "Cmp": 5305,
      "greatest": 5306,
      "pSide": 5307,
      "s2": 5308,
      "tom": 5309,
      "⋃₀": 5310,
      "isGLB": 5311,
      "toAddSubmonoid": 5312,
      "toOuterMeasure": 5313,
      "sec": 5314,
      "trichotom": 5315,
      "etry": 5316,
      "finiteDimensional": 5317,
      "OppSide": 5318,
      "distinct": 5319,
      "LeftInvariant": 5320,
      "DistribLattice": 5321,
      "PseudoEMetricSpace": 5322,
      "BaseChange": 5323,
      "GCDMonoid": 5324,
      "wartz": 5325,
      "toAdd": 5326,
      "period": 5327,
      "QuotientAddGroup": 5328,
      "injEq": 5329,
      "sym2": 5330,
      "WeierstrassCurve": 5331,
      "Poc": 5332,
      "Rank": 5333,
      "Tangent": 5334,
      "hhammer": 5335,
      "wbtw": 5336,
      "tices": 5337,
      "PreservesFinite": 5338,
      "nthLe": 5339,
      "counitIso": 5340,
      "EuclideanSpace": 5341,
      "AbsoluteValue": 5342,
      "Pochhammer": 5343,
      "69": 5344,
      "PMap": 5345,
      "Script": 5346,
      "itian": 5347,
      "ermitian": 5348,
      "FilterBasis": 5349,
      "Universal": 5350,
      "Applicative": 5351,
      "global": 5352,
      "xn": 5353,
      "ords": 5354,
      "FinMeas": 5355,
      "assuming": 5356,
      "NumberField": 5357,
      "shiftFunctorAdd": 5358,
      "TFAE": 5359,
      "H2": 5360,
      "implement": 5361,
      "Coproducts": 5362,
      "Shapes": 5363,
      "Rules": 5364,
      "contDiffAt": 5365,
      "BinaryBiproduct": 5366,
      "Radical": 5367,
      "53": 5368,
      "my": 5369,
      "ycle": 5370,
      "rewrite": 5371,
      "IsZero": 5372,
      "EquivLike": 5373,
      "inferType": 5374,
      "ellin": 5375,
      "MaxOrder": 5376,
      "Cocycle": 5377,
      "gaussian": 5378,
      "KanExtension": 5379,
      "appear": 5380,
      "QPF": 5381,
      "cope": 5382,
      "HasPullback": 5383,
      "Prefix": 5384,
      "2017": 5385,
      "condKernel": 5386,
      "parency": 5387,
      "Ore": 5388,
      "big": 5389,
      "emy": 5390,
      "ofMul": 5391,
      "HasStrictDerivAt": 5392,
      "warning": 5393,
      "instantiate": 5394,
      "42": 5395,
      "na": 5396,
      "sl": 5397,
      "itch": 5398,
      "toPartialEquiv": 5399,
      "hp0": 5400,
      "declare": 5401,
      "SemiNormed": 5402,
      "minimalPeriod": 5403,
      "cauchySeq": 5404,
      "LHS": 5405,
      "eremy": 5406,
      "isLocal": 5407,
      "oft": 5408,
      "fork": 5409,
      "ansion": 5410,
      "relindex": 5411,
      "NonUnitalSubring": 5412,
      "ScalarTower": 5413,
      "triang": 5414,
      "BinaryCofan": 5415,
      "1d": 5416,
      "Float": 5417,
      "Jeremy": 5418,
      "bsup": 5419,
      "ofunctor": 5420,
      "toti": 5421,
      "hfs": 5422,
      "UniqueUpToIso": 5423,
      "hasStrictFDerivAt": 5424,
      "equipped": 5425,
      "Av": 5426,
      "Cob": 5427,
      "hat": 5428,
      "porting": 5429,
      "noetherian": 5430,
      "equivalences": 5431,
      "PointUniqueUpToIso": 5432,
      "body": 5433,
      "steps": 5434,
      "SplittingField": 5435,
      "totient": 5436,
      "Hol": 5437,
      "emann": 5438,
      "RuleSet": 5439,
      "ubic": 5440,
      "transformation": 5441,
      "DoldKan": 5442,
      "AC": 5443,
      "scale": 5444,
      "IsFiltered": 5445,
      "hac": 5446,
      "AddZeroClass": 5447,
      "Ann": 5448,
      "shows": 5449,
      "face": 5450,
      "explicitly": 5451,
      "FPowerSeriesOn": 5452,
      "posableArrows": 5453,
      "Pat": 5454,
      "TC": 5455,
      "eqv": 5456,
      "IsPushout": 5457,
      "ortion": 5458,
      "MapObj": 5459,
      "BigOper": 5460,
      "PDF": 5461,
      "Command": 5462,
      "piCongr": 5463,
      "filterMap": 5464,
      "RelPrime": 5465,
      "Join": 5466,
      "continued": 5467,
      "NumberTheory": 5468,
      "AntitoneOn": 5469,
      "blsub": 5470,
      "arccos": 5471,
      "ModelWithCorners": 5472,
      "VonN": 5473,
      "BigOperators": 5474,
      "done": 5475,
      "ented": 5476,
      "utf8": 5477,
      "topping": 5478,
      "Content": 5479,
      "declName": 5480,
      "potents": 5481,
      "cmd": 5482,
      "FilteredColimits": 5483,
      "Flag": 5484,
      "homeomorphism": 5485,
      "2d": 5486,
      "Try": 5487,
      "e3": 5488,
      "hint": 5489,
      "₂₂": 5490,
      "→⋆": 5491,
      "isMin": 5492,
      "isScalarTower": 5493,
      "simplex": 5494,
      "Compatible": 5495,
      "Splits": 5496,
      "VonNBounded": 5497,
      "Fres": 5498,
      "gre": 5499,
      "thm": 5500,
      "pol": 5501,
      "cochain": 5502,
      "Contra": 5503,
      "clifford": 5504,
      "correct": 5505,
      "ParallelPair": 5506,
      "Annihilator": 5507,
      "Sign": 5508,
      "igad": 5509,
      "array": 5510,
      "ilimit": 5511,
      "OfIso": 5512,
      "infs": 5513,
      "LocalRing": 5514,
      "src": 5515,
      "gmented": 5516,
      "FPowerSeriesOnBall": 5517,
      "Center": 5518,
      "P1": 5519,
      "IsMul": 5520,
      "Comma": 5521,
      "Std": 5522,
      "PiSystem": 5523,
      "Implicit": 5524,
      "vecMul": 5525,
      "vanishingIdeal": 5526,
      "rest": 5527,
      "actually": 5528,
      "IsTerminal": 5529,
      "prepartition": 5530,
      "Sups": 5531,
      "ordnode": 5532,
      "injection": 5533,
      "compactSpace": 5534,
      "Triple": 5535,
      "sequences": 5536,
      "convergent": 5537,
      "si": 5538,
      "hta": 5539,
      "amil": 5540,
      "LeftHomologyData": 5541,
      "output": 5542,
      "Semicontinuous": 5543,
      "SameSide": 5544,
      "HomologyMapData": 5545,
      "Cot": 5546,
      "Lax": 5547,
      "lsub": 5548,
      "ylor": 5549,
      "derive": 5550,
      "Repr": 5551,
      "rootSet": 5552,
      "taylor": 5553,
      "arger": 5554,
      "Cofix": 5555,
      "Trace": 5556,
      "reason": 5557,
      "Fourier": 5558,
      "toAlgebra": 5559,
      "endre": 5560,
      "clique": 5561,
      "adjugate": 5562,
      "IsLUB": 5563,
      "Pushforward": 5564,
      "Mac": 5565,
      "eps": 5566,
      "Colex": 5567,
      "countably": 5568,
      "totally": 5569,
      "nontriviality": 5570,
      "toppingTime": 5571,
      "amilies": 5572,
      "mrange": 5573,
      "emod": 5574,
      "final": 5575,
      "hcd": 5576,
      "stract": 5577,
      "PushoutCocone": 5578,
      "requires": 5579,
      "0Space": 5580,
      "ader": 5581,
      "b4": 5582,
      "f4": 5583,
      "mis": 5584,
      "word": 5585,
      "xx": 5586,
      "entence": 5587,
      "vertices": 5588,
      "openSegment": 5589,
      "linearEquiv": 5590,
      "odory": 5591,
      "WalkingPair": 5592,
      "isMaximal": 5593,
      "HashMap": 5594,
      "infinity": 5595,
      "belongs": 5596,
      "Ep": 5597,
      "infimum": 5598,
      "strictAnti": 5599,
      "orsor": 5600,
      "IsSelfAdjoint": 5601,
      "associates": 5602,
      "suffix": 5603,
      "Avigad": 5604,
      "Sphere": 5605,
      "manifold": 5606,
      "yet": 5607,
      "IsWellOrder": 5608,
      "bihimp": 5609,
      "files": 5610,
      "minimum": 5611,
      "Internal": 5612,
      "Entry": 5613,
      "DirectLimit": 5614,
      "midt": 5615,
      "sorted": 5616,
      "Weights": 5617,
      "pass": 5618,
      "toFinite": 5619,
      "Finmap": 5620,
      "Fract": 5621,
      "LieRing": 5622,
      "completed": 5623,
      "Pol": 5624,
      "encodable": 5625,
      "subfield": 5626,
      "project": 5627,
      "raw": 5628,
      "hash": 5629,
      "UniformOnFun": 5630,
      "intervalIntegrable": 5631,
      "decEq": 5632,
      "build": 5633,
      "osen": 5634,
      "FractPair": 5635,
      "comul": 5636,
      "chosen": 5637,
      "ereal": 5638,
      "LinearPMap": 5639,
      "defining": 5640,
      "Antichain": 5641,
      "proved": 5642,
      "Trunc": 5643,
      "allows": 5644,
      "changed": 5645,
      "Iter": 5646,
      "grothendieck": 5647,
      "asIdeal": 5648,
      "ofBijective": 5649,
      "subtraction": 5650,
      "Unop": 5651,
      "ccs": 5652,
      "isoWhisker": 5653,
      "homological": 5654,
      "arithmetic": 5655,
      "iteratedDeriv": 5656,
      "alternat": 5657,
      "Eigenspace": 5658,
      "Widget": 5659,
      "ea": 5660,
      "script": 5661,
      "toMul": 5662,
      "localized": 5663,
      "AEEq": 5664,
      "submodules": 5665,
      "seminormed": 5666,
      "admits": 5667,
      "μs": 5668,
      "reme": 5669,
      "itary": 5670,
      "ilbert": 5671,
      "NonUnitalRingHom": 5672,
      "ramified": 5673,
      "algEquiv": 5674,
      "Multiplicity": 5675,
      "Weakly": 5676,
      "recurs": 5677,
      "Away": 5678,
      "Find": 5679,
      "previous": 5680,
      "place": 5681,
      "partrec": 5682,
      "NonemptyInterval": 5683,
      "Sheafify": 5684,
      "Laurent": 5685,
      "ONote": 5686,
      "Solution": 5687,
      "zag": 5688,
      "suff": 5689,
      "Isomorphisms": 5690,
      "Comon": 5691,
      "spanSingleton": 5692,
      "NormedAlgebra": 5693,
      "separate": 5694,
      "Bicone": 5695,
      "cycleType": 5696,
      "degrees": 5697,
      "Integer": 5698,
      "good": 5699,
      "isAtom": 5700,
      "toSubmonoid": 5701,
      "still": 5702,
      "OrderEmbedding": 5703,
      "MinOrder": 5704,
      "Lists": 5705,
      "⊗≫": 5706,
      "IsFiniteKernel": 5707,
      "quiver": 5708,
      "child": 5709,
      "derivation": 5710,
      "sigmaFinite": 5711,
      "Reduced": 5712,
      "q2": 5713,
      "isCo": 5714,
      "what": 5715,
      "generator": 5716,
      "OrdConnected": 5717,
      "lines": 5718,
      "CondIndep": 5719,
      "Mehta": 5720,
      "IM": 5721,
      "Tropical": 5722,
      "cg": 5723,
      "idue": 5724,
      "Init": 5725,
      "havi": 5726,
      "hp1": 5727,
      "export": 5728,
      "TopologicalBasis": 5729,
      "conjugate": 5730,
      "moveRight": 5731,
      "FundamentalDomain": 5732,
      "Bhavi": 5733,
      "e9": 5734,
      "IsH": 5735,
      "nonsingular": 5736,
      "antor": 5737,
      "Opcycles": 5738,
      "derivatives": 5739,
      "bodd": 5740,
      "respectively": 5741,
      "hamming": 5742,
      "Multipliable": 5743,
      "khoff": 5744,
      "summand": 5745,
      "double": 5746,
      "Bhavik": 5747,
      "hasProd": 5748,
      "OneHom": 5749,
      "RestrictScalars": 5750,
      "glued": 5751,
      "SingleObj": 5752,
      "jacobiSym": 5753,
      "Depth": 5754,
      "Tape": 5755,
      "Van": 5756,
      "c4": 5757,
      "f0": 5758,
      "iting": 5759,
      "toLex": 5760,
      "actions": 5761,
      "calculus": 5762,
      "powersetCard": 5763,
      "IsMaximal": 5764,
      "etrizable": 5765,
      "Source": 5766,
      "AEEqFun": 5767,
      "78": 5768,
      "Least": 5769,
      "eon": 5770,
      "f1": 5771,
      "mark": 5772,
      "igeon": 5773,
      "andid": 5774,
      "Liou": 5775,
      "MonoidWithZeroHom": 5776,
      "Symmetric": 5777,
      "usual": 5778,
      "Liouville": 5779,
      "hY": 5780,
      "sα": 5781,
      "ComposableArrows": 5782,
      "nondegenerate": 5783,
      "pher": 5784,
      "Variation": 5785,
      "embeddings": 5786,
      "Factorisation": 5787,
      "Doorn": 5788,
      "Cfg": 5789,
      "Math": 5790,
      "pdf": 5791,
      "aries": 5792,
      "IsAtom": 5793,
      "heaves": 5794,
      "LinearGroup": 5795,
      "preΨ": 5796,
      "induce": 5797,
      "definitional": 5798,
      "Apply": 5799,
      "CancelMul": 5800,
      "6d": 5801,
      "Seg": 5802,
      "bump": 5803,
      "ativity": 5804,
      "IsAlg": 5805,
      "IsDedekindDomain": 5806,
      "velo": 5807,
      "LinearIsometry": 5808,
      "HasBinary": 5809,
      "ZeroExt": 5810,
      "TopHom": 5811,
      "extended": 5812,
      "dominated": 5813,
      "SqZeroExt": 5814,
      "TrivSqZeroExt": 5815,
      "ements": 5816,
      "infDist": 5817,
      "CompleteLinearOrder": 5818,
      "PreservesLimit": 5819,
      "Separation": 5820,
      "Separating": 5821,
      "application": 5822,
      "Flor": 5823,
      "Ixx": 5824,
      "blimsup": 5825,
      "f3": 5826,
      "xL": 5827,
      "xR": 5828,
      "unpair": 5829,
      "triv": 5830,
      "Inclusion": 5831,
      "OfElements": 5832,
      "getLast": 5833,
      "disc": 5834,
      "Diffeomorph": 5835,
      "Stable": 5836,
      "fails": 5837,
      "WeakDual": 5838,
      "Floris": 5839,
      "e5": 5840,
      "ever": 5841,
      "sha": 5842,
      "isNoetherian": 5843,
      "ofEquiv": 5844,
      "sect": 5845,
      "IsGLB": 5846,
      "Comap": 5847,
      "RightHomology": 5848,
      "PosSMul": 5849,
      "Generate": 5850,
      "condexpInd": 5851,
      "circumcenter": 5852,
      "ariate": 5853,
      "Digits": 5854,
      "ED": 5855,
      "Kind": 5856,
      "Linter": 5857,
      "Many": 5858,
      "PSet": 5859,
      "b2": 5860,
      "homothe": 5861,
      "TotalSpace": 5862,
      "IsLittleO": 5863,
      "However": 5864,
      "FinMeasAdditive": 5865,
      "Rˣ": 5866,
      "Young": 5867,
      "upcrossing": 5868,
      "equivFun": 5869,
      "bottom": 5870,
      "structured": 5871,
      "allest": 5872,
      "StrictMonoOn": 5873,
      "ContMDiffWithinAt": 5874,
      "law": 5875,
      "βᵒᵈ": 5876,
      "erable": 5877,
      "edu": 5878,
      "coherence": 5879,
      "ContinuousSMul": 5880,
      "HasImage": 5881,
      "modeq": 5882,
      "ieltjes": 5883,
      "dualAnnihilator": 5884,
      "elling": 5885,
      "Stonean": 5886,
      "cer": 5887,
      "f5": 5888,
      "ura": 5889,
      "stieltjes": 5890,
      "coinduced": 5891,
      "mapCone": 5892,
      "coeSubmodule": 5893,
      "Realize": 5894,
      "Supp": 5895,
      "TermElabM": 5896,
      "covers": 5897,
      "ghes": 5898,
      "Hughes": 5899,
      "Cor": 5900,
      "Rᵐᵒᵖ": 5901,
      "ube": 5902,
      "CommSq": 5903,
      "Predicate": 5904,
      "parse": 5905,
      "semicontinuous": 5906,
      "FiberBundle": 5907,
      "GH": 5908,
      "ia": 5909,
      "though": 5910,
      "rep": 5911,
      "Emb": 5912,
      "BotHom": 5913,
      "decreasing": 5914,
      "normalClosure": 5915,
      "Expand": 5916,
      "idempotent": 5917,
      "padicValNat": 5918,
      "Fst": 5919,
      "beta": 5920,
      "anach": 5921,
      "IsConnected": 5922,
      "absor": 5923,
      "ContMDiffOn": 5924,
      "simplify": 5925,
      "FactorizationMonoid": 5926,
      "insic": 5927,
      "Torsor": 5928,
      "c1": 5929,
      "tsupport": 5930,
      "ination": 5931,
      "compat": 5932,
      "consists": 5933,
      "rootMultiplicity": 5934,
      "rows": 5935,
      "upperClosure": 5936,
      "reduced": 5937,
      "DiscreteTopology": 5938,
      "expressed": 5939,
      "contDiffWithinAt": 5940,
      "CentralScalar": 5941,
      "Metrizable": 5942,
      "acent": 5943,
      "turn": 5944,
      "mapM": 5945,
      "IsRegular": 5946,
      "IsEquivalence": 5947,
      "defeq": 5948,
      "mkFres": 5949,
      "IntFractPair": 5950,
      "internal": 5951,
      "expSeries": 5952,
      "RightHomologyData": 5953,
      "SemiringAction": 5954,
      "Pairing": 5955,
      "conven": 5956,
      "quasiIso": 5957,
      "HasZeroMorphisms": 5958,
      "Convergence": 5959,
      "pigeon": 5960,
      "rich": 5961,
      "abelling": 5962,
      "hfc": 5963,
      "ContinuousMul": 5964,
      "monadic": 5965,
      "FreeAlgebra": 5966,
      "lowerClosure": 5967,
      "Counterexample": 5968,
      "needs": 5969,
      "ContMDiffAt": 5970,
      "QuasiIso": 5971,
      "Get": 5972,
      "WO": 5973,
      "kg": 5974,
      "later": 5975,
      "ₙₐ": 5976,
      "Combinatorics": 5977,
      "ants": 5978,
      "Artinian": 5979,
      "conts": 5980,
      "NonUnitalAlgHom": 5981,
      "immersion": 5982,
      "families": 5983,
      "toProd": 5984,
      "intr": 5985,
      "File": 5986,
      "FiniteType": 5987,
      "FintypeCat": 5988,
      "modByMonic": 5989,
      "dedu": 5990,
      "PairwiseDisjoint": 5991,
      "isBigOWith": 5992,
      "RBSet": 5993,
      "reflexive": 5994,
      "mble": 5995,
      "εpos": 5996,
      "𝓝ˢ": 5997,
      "CompIso": 5998,
      "introduce": 5999,
      "getApp": 6000,
      "ContinuousAdd": 6001,
      "ringHom": 6002,
      "terminates": 6003,
      "sameRay": 6004,
      "neighborSet": 6005,
      "mutually": 6006,
      "denomin": 6007,
      "LebesgueDecomposition": 6008,
      "convenient": 6009,
      "bicategory": 6010,
      "atlas": 6011,
      "lyClosed": 6012,
      "applies": 6013,
      "hfx": 6014,
      "DenselyOrdered": 6015,
      "kstar": 6016,
      "ler": 6017,
      "t1": 6018,
      "colim": 6019,
      "MeasurableEmbedding": 6020,
      "control": 6021,
      "Singular": 6022,
      "InfinitePlace": 6023,
      "stacks": 6024,
      "intrinsic": 6025,
      "Gδ": 6026,
      "orov": 6027,
      "arsinh": 6028,
      "hfm": 6029,
      "AtLeast": 6030,
      "untrop": 6031,
      "supports": 6032,
      "fault": 6033,
      "adjacent": 6034,
      "conditions": 6035,
      "Schmidt": 6036,
      "CancelMonoid": 6037,
      "Lazy": 6038,
      "9d": 6039,
      "PInfty": 6040,
      "hre": 6041,
      "ls": 6042,
      "were": 6043,
      "ifp": 6044,
      "coherent": 6045,
      "Codisjoint": 6046,
      "Default": 6047,
      "RelIso": 6048,
      "away": 6049,
      "eqToIso": 6050,
      "BinaryBicone": 6051,
      "Fq": 6052,
      "einfsep": 6053,
      "falso": 6054,
      "gp": 6055,
      "restr": 6056,
      "iman": 6057,
      "IsUpperSet": 6058,
      "OrderTopology": 6059,
      "Semisimple": 6060,
      "reserve": 6061,
      "Stalk": 6062,
      "Section": 6063,
      "Antisymm": 6064,
      "essentially": 6065,
      "repla": 6066,
      "PEmpty": 6067,
      "known": 6068,
      "punit": 6069,
      "isLocally": 6070,
      "IsLowerSet": 6071,
      "substructure": 6072,
      "Commut": 6073,
      "variation": 6074,
      "duced": 6075,
      "entry": 6076,
      "convergents": 6077,
      "offDiag": 6078,
      "Builder": 6079,
      "Hyper": 6080,
      "Dou": 6081,
      "Eigen": 6082,
      "Opt": 6083,
      "pc": 6084,
      "von": 6085,
      "xeter": 6086,
      "αᵐᵒᵖ": 6087,
      "ofInjective": 6088,
      "hgf": 6089,
      "tendstoUniformlyOn": 6090,
      "isoMk": 6091,
      "rence": 6092,
      "bership": 6093,
      "SameRay": 6094,
      "2644": 6095,
      "homothety": 6096,
      "c5": 6097,
      "fast": 6098,
      "mir": 6099,
      "solve": 6100,
      "beth": 6101,
      "maximals": 6102,
      "SpecialFunctions": 6103,
      "nim": 6104,
      "nstein": 6105,
      "isAlgebraic": 6106,
      "truncated": 6107,
      "assign": 6108,
      "HasCompactSupport": 6109,
      "ConvexCone": 6110,
      "sheafification": 6111,
      "ColimitsOfSize": 6112,
      "edgeDensity": 6113,
      "FullSubcategory": 6114,
      "equicontinuous": 6115,
      "athe": 6116,
      "mix": 6117,
      "IsImage": 6118,
      "compute": 6119,
      "MulSemiringAction": 6120,
      "whnf": 6121,
      "equivOf": 6122,
      "atheodory": 6123,
      "ofι": 6124,
      "ddle": 6125,
      "monovary": 6126,
      "RelEmbedding": 6127,
      "definitionally": 6128,
      "Totally": 6129,
      "smallest": 6130,
      "PFun": 6131,
      "lctx": 6132,
      "preserve": 6133,
      "host": 6134,
      "Normalization": 6135,
      "integrals": 6136,
      "specific": 6137,
      "IsOpenMap": 6138,
      "lpMeas": 6139,
      "SeminormedRing": 6140,
      "smeval": 6141,
      "PLift": 6142,
      "nmul": 6143,
      "inside": 6144,
      "omet": 6145,
      "ibly": 6146,
      "CommSemigroup": 6147,
      "TopologicalGroup": 6148,
      "ichlet": 6149,
      "simpleFunc": 6150,
      "fvars": 6151,
      "absolutelyContinuous": 6152,
      "32": 6153,
      "dart": 6154,
      "shrink": 6155,
      "isSeparable": 6156,
      "leftInverse": 6157,
      "smulCommClass": 6158,
      "measurePreserving": 6159,
      "indent": 6160,
      "ieb": 6161,
      "primeFactors": 6162,
      "UniformFun": 6163,
      "NoMaxOrder": 6164,
      "ported": 6165,
      "IsIntegralClosure": 6166,
      "black": 6167,
      "coincide": 6168,
      "AtLeastTwo": 6169,
      "xr": 6170,
      "reiman": 6171,
      "extra": 6172,
      "neLocus": 6173,
      "chieb": 6174,
      "obvious": 6175,
      "HasProd": 6176,
      "SMulPos": 6177,
      "balls": 6178,
      "PosMul": 6179,
      "WidePullback": 6180,
      "ailable": 6181,
      "chiebung": 6182,
      "Mic": 6183,
      "c6": 6184,
      "natTrans": 6185,
      "iew": 6186,
      "colimitCocone": 6187,
      "subgroups": 6188,
      "edia": 6189,
      "surjOn": 6190,
      "HomogeneousLocalization": 6191,
      "LocallyFiniteOrder": 6192,
      "setToL1S": 6193,
      "EDS": 6194,
      "leg": 6195,
      "too": 6196,
      "toModule": 6197,
      "IsNormal": 6198,
      "ightly": 6199,
      "Finpartition": 6200,
      "vertex": 6201,
      "terminated": 6202,
      "cycleOf": 6203,
      "UniqueFactorizationMonoid": 6204,
      "available": 6205,
      "Cancellable": 6206,
      "cofan": 6207,
      "Epimorphism": 6208,
      "More": 6209,
      "ake": 6210,
      "candid": 6211,
      "igzag": 6212,
      "applying": 6213,
      "involv": 6214,
      "Prefunctor": 6215,
      "ipedia": 6216,
      "specify": 6217,
      "New": 6218,
      "indicatorConst": 6219,
      "General": 6220,
      "stoppedValue": 6221,
      "Archimedean": 6222,
      "Polish": 6223,
      "72": 6224,
      "90": 6225,
      "Tac": 6226,
      "va": 6227,
      "toHomeomorph": 6228,
      "Equal": 6229,
      "posing": 6230,
      "Coxeter": 6231,
      "urther": 6232,
      "WalkingParallelPair": 6233,
      "Constructions": 6234,
      "wiki": 6235,
      "mirror": 6236,
      "112": 6237,
      "Good": 6238,
      "bad": 6239,
      "eigenspace": 6240,
      "fu": 6241,
      "ωSup": 6242,
      "ones": 6243,
      "adding": 6244,
      "Cones": 6245,
      "unitor": 6246,
      "disjointed": 6247,
      "OfFinOrder": 6248,
      "gramSchmidt": 6249,
      "create": 6250,
      "gal": 6251,
      "hE": 6252,
      "hitting": 6253,
      "rick": 6254,
      "te": 6255,
      "exfalso": 6256,
      "AddTorsor": 6257,
      "CommGrp": 6258,
      "urely": 6259,
      "IsStoppingTime": 6260,
      "Tagged": 6261,
      "existence": 6262,
      "Patrick": 6263,
      "Vert": 6264,
      "ghost": 6265,
      "AddAction": 6266,
      "tie": 6267,
      "getEnv": 6268,
      "HaarMeasure": 6269,
      "FVars": 6270,
      "PadicInt": 6271,
      "reachable": 6272,
      "aa": 6273,
      "hD": 6274,
      "hence": 6275,
      "isometric": 6276,
      "seem": 6277,
      "Unramified": 6278,
      "counterexample": 6279,
      "illing": 6280,
      "skip": 6281,
      "contextual": 6282,
      "ReflTransGen": 6283,
      "mkFresh": 6284,
      "Det": 6285,
      "Ske": 6286,
      "uIoc": 6287,
      "isZero": 6288,
      "toExpr": 6289,
      "finSucc": 6290,
      "interedges": 6291,
      "equivShrink": 6292,
      "Lead": 6293,
      "Simps": 6294,
      "LECancellable": 6295,
      "Cyclic": 6296,
      "Idempotent": 6297,
      "longer": 6298,
      "SemiNormedGrp": 6299,
      "urelyInseparable": 6300,
      "34": 6301,
      "Dav": 6302,
      "Tuple": 6303,
      "ein": 6304,
      "trop": 6305,
      "incid": 6306,
      "iving": 6307,
      "ediv": 6308,
      "icov": 6309,
      "ather": 6310,
      "asispectrum": 6311,
      "agree": 6312,
      "closedEmbedding": 6313,
      "icovitch": 6314,
      "XIso": 6315,
      "hpos": 6316,
      "sequ": 6317,
      "ird": 6318,
      "dow": 6319,
      "Dec": 6320,
      "better": 6321,
      "whenever": 6322,
      "DistLat": 6323,
      "Constants": 6324,
      "TM1": 6325,
      "Integers": 6326,
      "greater": 6327,
      "inde": 6328,
      "toAddSubgroup": 6329,
      "addOrderOf": 6330,
      "IsRelPrime": 6331,
      "exterior": 6332,
      "ZeroMorphisms": 6333,
      "SMulRegular": 6334,
      "OpenEmbedding": 6335,
      "symbol": 6336,
      "HasZeroObject": 6337,
      "Key": 6338,
      "Complemented": 6339,
      "StableUnder": 6340,
      "MetrizableSpace": 6341,
      "96": 6342,
      "Here": 6343,
      "Lau": 6344,
      "fb": 6345,
      "oadd": 6346,
      "isim": 6347,
      "isConnected": 6348,
      "embed": 6349,
      "ofDigits": 6350,
      "toContinuousLinearMap": 6351,
      "toPartialHomeomorph": 6352,
      "resolution": 6353,
      "posPart": 6354,
      "Post": 6355,
      "existsUnique": 6356,
      "Disconnected": 6357,
      "ColimitCocone": 6358,
      "potency": 6359,
      "Rotation": 6360,
      "Keys": 6361,
      "Returns": 6362,
      "El": 6363,
      "mdifferentiable": 6364,
      "spectral": 6365,
      "isNat": 6366,
      "come": 6367,
      "essSup": 6368,
      "mapCocone": 6369,
      "liftProp": 6370,
      "LeftFraction": 6371,
      "options": 6372,
      "LieHom": 6373,
      "fixing": 6374,
      "mathlib3": 6375,
      "hjk": 6376,
      "PresheafOfModules": 6377,
      "ifield": 6378,
      "primrec": 6379,
      "verschiebung": 6380,
      "itesimal": 6381,
      "Bial": 6382,
      "Cent": 6383,
      "Kenn": 6384,
      "LHom": 6385,
      "xl": 6386,
      "orth": 6387,
      "isCoprime": 6388,
      "AddSubsemigroup": 6389,
      "semilattice": 6390,
      "conditionally": 6391,
      "OfNatIso": 6392,
      "UniqueDiffWithinAt": 6393,
      "Kenny": 6394,
      "Bilimit": 6395,
      "Stie": 6396,
      "Wbtw": 6397,
      "sx": 6398,
      "covariant": 6399,
      "Fin2": 6400,
      "EquivProd": 6401,
      "artan": 6402,
      "lifted": 6403,
      "Define": 6404,
      "kernelSubobject": 6405,
      "ConnectedSpace": 6406,
      "cofork": 6407,
      "contMDiffWithinAt": 6408,
      "embDomain": 6409,
      "Braided": 6410,
      "details": 6411,
      "Stieltjes": 6412,
      "pat": 6413,
      "implementation": 6414,
      "IsAffine": 6415,
      "behav": 6416,
      "Three": 6417,
      "bia": 6418,
      "presieve": 6419,
      "NonUnitalNonAssocRing": 6420,
      "associative": 6421,
      "Condensed": 6422,
      "QuaternionAlgebra": 6423,
      "noncommProd": 6424,
      "columbia": 6425,
      "birkhoff": 6426,
      "consisting": 6427,
      "solvable": 6428,
      "near": 6429,
      "ression": 6430,
      "PartOrd": 6431,
      "IsSFiniteKernel": 6432,
      "TensorAlgebra": 6433,
      "uniqueDiff": 6434,
      "atisfi": 6435,
      "a6": 6436,
      "ciInf": 6437,
      "ℓp": 6438,
      "err": 6439,
      "rew": 6440,
      "exchange": 6441,
      "Attr": 6442,
      "isoOf": 6443,
      "homotopic": 6444,
      "Transl": 6445,
      "Variable": 6446,
      "CoeFun": 6447,
      "convexOn": 6448,
      "CommMonoidWithZero": 6449,
      "rootsOfUnity": 6450,
      "IsLocalMax": 6451,
      "qpf": 6452,
      "aper": 6453,
      "ofπ": 6454,
      "toSubring": 6455,
      "coproducts": 6456,
      "IsAdjoinRoot": 6457,
      "IsClopen": 6458,
      "Cocones": 6459,
      "divides": 6460,
      "starRing": 6461,
      "NonUnitalSemiring": 6462,
      "PreservesLimits": 6463,
      "godic": 6464,
      "fractions": 6465,
      "ReflectLT": 6466,
      "HalfPlane": 6467,
      "instantiateMVars": 6468,
      "Centroid": 6469,
      "Dilation": 6470,
      "anen": 6471,
      "IsConj": 6472,
      "IsProbabilityMeasure": 6473,
      "problem": 6474,
      "Frobenius": 6475,
      "You": 6476,
      "d5": 6477,
      "lap": 6478,
      "might": 6479,
      "isLeft": 6480,
      "IsTorsion": 6481,
      "ermat": 6482,
      "matches": 6483,
      "UpperHalfPlane": 6484,
      "Traversable": 6485,
      "ConjAct": 6486,
      "IsPrincipal": 6487,
      "tsze": 6488,
      "ilipschitzWith": 6489,
      "Dirichlet": 6490,
      "VariationOn": 6491,
      "Ca": 6492,
      "toArray": 6493,
      "mapMatrix": 6494,
      "Isometric": 6495,
      "uration": 6496,
      "Colum": 6497,
      "nilpotency": 6498,
      "DivInv": 6499,
      "Format": 6500,
      "ustom": 6501,
      "WalkingCospan": 6502,
      "trichotomy": 6503,
      "1Lift": 6504,
      "98": 6505,
      "Cech": 6506,
      "Fold": 6507,
      "ldecl": 6508,
      "nb": 6509,
      "words": 6510,
      "hahn": 6511,
      "hole": 6512,
      "Eqv": 6513,
      "upperCrossingTime": 6514,
      "Valued": 6515,
      "Positivity": 6516,
      "Restricts": 6517,
      "CircleDeg": 6518,
      "permutation": 6519,
      "determinant": 6520,
      "mappingCone": 6521,
      "CircleDeg1Lift": 6522,
      "XY": 6523,
      "b1": 6524,
      "nz": 6525,
      "rightInverse": 6526,
      "Subordinate": 6527,
      "nonym": 6528,
      "continuousLinearMap": 6529,
      "Cov": 6530,
      "ringChar": 6531,
      "biSup": 6532,
      "forgetTo": 6533,
      "Formally": 6534,
      "QuotEquiv": 6535,
      "Seminorms": 6536,
      "ediam": 6537,
      "SpanSingleton": 6538,
      "seud": 6539,
      "parameter": 6540,
      "finSuccEquiv": 6541,
      "BC": 6542,
      "tᶜ": 6543,
      "produces": 6544,
      "Equalizers": 6545,
      "measurableSpace": 6546,
      "monomorphism": 6547,
      "indexing": 6548,
      "AffineEquiv": 6549,
      "BijOn": 6550,
      "arrowCongr": 6551,
      "Representation": 6552,
      "JordanDecomposition": 6553,
      "Mˣ": 6554,
      "Tail": 6555,
      "d0": 6556,
      "negation": 6557,
      "homOfLE": 6558,
      "erest": 6559,
      "antivary": 6560,
      "dioph": 6561,
      "genEigenspace": 6562,
      "OpenCover": 6563,
      "various": 6564,
      "LocallyCompactSpace": 6565,
      "changeOrigin": 6566,
      "CancelSemigroup": 6567,
      "tracting": 6568,
      "sheaves": 6569,
      "Equicontinuous": 6570,
      "wikipedia": 6571,
      "27": 6572,
      "Sites": 6573,
      "lsmul": 6574,
      "ont": 6575,
      "idx": 6576,
      "endomorphism": 6577,
      "Equation": 6578,
      "Anne": 6579,
      "pects": 6580,
      "Numer": 6581,
      "PreservesColimit": 6582,
      "partially": 6583,
      "totalDegree": 6584,
      "Head": 6585,
      "Primes": 6586,
      "cyclesMap": 6587,
      "PartitionOfUnity": 6588,
      "Baanen": 6589,
      "SeparationQuotient": 6590,
      "Alex": 6591,
      "Sbtw": 6592,
      "ired": 6593,
      "rb": 6594,
      "rid": 6595,
      "sOf": 6596,
      "ivariate": 6597,
      "comes": 6598,
      "endow": 6599,
      "precomp": 6600,
      "Fré": 6601,
      "OnePow": 6602,
      "estim": 6603,
      "writing": 6604,
      "pherical": 6605,
      "CovBy": 6606,
      "Yang": 6607,
      "isClopen": 6608,
      "vection": 6609,
      "ampen": 6610,
      "negY": 6611,
      "orders": 6612,
      "outParam": 6613,
      "trailing": 6614,
      "OnePoint": 6615,
      "SemicontinuousWithinAt": 6616,
      "fixedBy": 6617,
      "maximalIdeal": 6618,
      "minimals": 6619,
      "moves": 6620,
      "oriented": 6621,
      "FVarId": 6622,
      "sufficient": 6623,
      "Mathport": 6624,
      "c8": 6625,
      "lmul": 6626,
      "liter": 6627,
      "uing": 6628,
      "toHom": 6629,
      "AddChar": 6630,
      "natSepDegree": 6631,
      "Coheyting": 6632,
      "bijOn": 6633,
      "pointReflection": 6634,
      "specified": 6635,
      "properDivisors": 6636,
      "HomologyIso": 6637,
      "separableClosure": 6638,
      "EuclideanDomain": 6639,
      "atomic": 6640,
      "contMDiffOn": 6641,
      "torsionBy": 6642,
      "tagged": 6643,
      "FPowerSeriesAt": 6644,
      "precise": 6645,
      "47": 6646,
      "517": 6647,
      "Rₘ": 6648,
      "Wr": 6649,
      "hψ": 6650,
      "hsub": 6651,
      "sc": 6652,
      "isRight": 6653,
      "ensure": 6654,
      "prog": 6655,
      "coeIdeal": 6656,
      "fill": 6657,
      "cluster": 6658,
      "HasLeft": 6659,
      "castRingHom": 6660,
      "MonoidHomClass": 6661,
      "subgroupOf": 6662,
      "circleMap": 6663,
      "Plus": 6664,
      "locus": 6665,
      "mkAppM": 6666,
      "Desc": 6667,
      "random": 6668,
      "Cotangent": 6669,
      "92": 6670,
      "Hel": 6671,
      "TR": 6672,
      "hι": 6673,
      "wseq": 6674,
      "prodComm": 6675,
      "Moore": 6676,
      "functional": 6677,
      "hp2": 6678,
      "bernstein": 6679,
      "preservesLimit": 6680,
      "graphic": 6681,
      "delab": 6682,
      "Truncated": 6683,
      "OpensMeasurableSpace": 6684,
      "smallSets": 6685,
      "Andrew": 6686,
      "contMDiffAt": 6687,
      "IsBoundedUnder": 6688,
      "ski": 6689,
      "binders": 6690,
      "PeriodicPt": 6691,
      "Using": 6692,
      "dold": 6693,
      "iability": 6694,
      "kan": 6695,
      "ods": 6696,
      "yL": 6697,
      "isDefEq": 6698,
      "itable": 6699,
      "ulo": 6700,
      "IsSimple": 6701,
      "IsLocalizedModule": 6702,
      "ormation": 6703,
      "images": 6704,
      "dslope": 6705,
      "rootSpace": 6706,
      "relabel": 6707,
      "NFA": 6708,
      "coordinate": 6709,
      "SameCycle": 6710,
      "ProjectiveSpectrum": 6711,
      "SurjOn": 6712,
      "opcyclesMap": 6713,
      "AdicCompletion": 6714,
      "David": 6715,
      "35": 6716,
      "68": 6717,
      "Om": 6718,
      "T0Space": 6719,
      "based": 6720,
      "tuple": 6721,
      "mming": 6722,
      "Reach": 6723,
      "chine": 6724,
      "smulₛₗ": 6725,
      "mkConst": 6726,
      "hasLimit": 6727,
      "HasLimitsOfShape": 6728,
      "descFactorial": 6729,
      "restricted": 6730,
      "conjug": 6731,
      "powerBasis": 6732,
      "versals": 6733,
      "includes": 6734,
      "hausdorffEdist": 6735,
      "AnalyticOn": 6736,
      "higher": 6737,
      "Massot": 6738,
      "utf8Len": 6739,
      "incidence": 6740,
      "Sₘ": 6741,
      "hold": 6742,
      "pm": 6743,
      "orith": 6744,
      "trip": 6745,
      "piFinset": 6746,
      "elementwise": 6747,
      "Options": 6748,
      "ExprMVar": 6749,
      "CompletePartialOrder": 6750,
      "Induced": 6751,
      "constructions": 6752,
      "MonovaryOn": 6753,
      "triangulated": 6754,
      "IsAlgClosed": 6755,
      "Opl": 6756,
      "Some": 6757,
      "Vitali": 6758,
      "ucas": 6759,
      "→₁": 6760,
      "funProp": 6761,
      "negOnePow": 6762,
      "format": 6763,
      "uniformEmbedding": 6764,
      "NoMinOrder": 6765,
      "synth": 6766,
      "hurwitzZeta": 6767,
      "factored": 6768,
      "InvPair": 6769,
      "SuccLimit": 6770,
      "SmallCategory": 6771,
      "middle": 6772,
      "AntivaryOn": 6773,
      "Oplax": 6774,
      "Ht": 6775,
      "Hilbert": 6776,
      "a9": 6777,
      "did": 6778,
      "ks": 6779,
      "reduction": 6780,
      "toTopologicalSpace": 6781,
      "coding": 6782,
      "IsRoot": 6783,
      "extreme": 6784,
      "play": 6785,
      "HasM": 6786,
      "InfHom": 6787,
      "vertical": 6788,
      "RingHomInvPair": 6789,
      "StrictConvex": 6790,
      "homologyFunctor": 6791,
      "NNNorm": 6792,
      "trivializationAt": 6793,
      "derivedSeries": 6794,
      "fection": 6795,
      "h4": 6796,
      "once": 6797,
      "isLocalization": 6798,
      "fil": 6799,
      "MulChar": 6800,
      "TendstoUniformlyOn": 6801,
      "preservesFinite": 6802,
      "StructureGroupoid": 6803,
      "Insertion": 6804,
      "spanningSets": 6805,
      "skewAdjoint": 6806,
      "legendre": 6807,
      "Next": 6808,
      "mabs": 6809,
      "nmem": 6810,
      "ΓSpec": 6811,
      "acts": 6812,
      "rangeRestrict": 6813,
      "SupHom": 6814,
      "agrange": 6815,
      "distTriang": 6816,
      "relative": 6817,
      "Envel": 6818,
      "vecCons": 6819,
      "Down": 6820,
      "possibly": 6821,
      "Rotate": 6822,
      "Markov": 6823,
      "upcrossings": 6824,
      "EnvelGroup": 6825,
      "hW": 6826,
      "ied": 6827,
      "IsTrans": 6828,
      "due": 6829,
      "occur": 6830,
      "RingQuot": 6831,
      "traceForm": 6832,
      "LipschitzOnWith": 6833,
      "ValuationSubring": 6834,
      "setToSimpleFunc": 6835,
      "Surj": 6836,
      "LazyList": 6837,
      "replaced": 6838,
      "IB": 6839,
      "Pell": 6840,
      "Show": 6841,
      "az": 6842,
      "ners": 6843,
      "yR": 6844,
      "emat": 6845,
      "ceed": 6846,
      "hel": 6847,
      "htein": 6848,
      "veral": 6849,
      "MulZeroClass": 6850,
      "enshtein": 6851,
      "Classes": 6852,
      "NonUnitalRing": 6853,
      "monotoneOn": 6854,
      "corners": 6855,
      "algam": 6856,
      "Assum": 6857,
      "IsLocalMin": 6858,
      "CanonicallyOrdered": 6859,
      "indicatorConstLp": 6860,
      "55": 6861,
      "Mi": 6862,
      "Zsqrtd": 6863,
      "effective": 6864,
      "except": 6865,
      "IsNat": 6866,
      "IsHomogeneous": 6867,
      "withTop": 6868,
      "MulPos": 6869,
      "lfp": 6870,
      "elementary": 6871,
      "NonUnitalStarSubalgebra": 6872,
      "Bipointed": 6873,
      "hQz": 6874,
      "necessarily": 6875,
      "Jacobson": 6876,
      "LightProfinite": 6877,
      "TaylorSeries": 6878,
      "Definitions": 6879,
      "OreLocalization": 6880,
      "66": 6881,
      "FTaylorSeries": 6882,
      "mΩ": 6883,
      "concave": 6884,
      "IsOrtho": 6885,
      "IsCofiltered": 6886,
      "ries": 6887,
      "Nonsingular": 6888,
      "ring1": 6889,
      "Discr": 6890,
      "domDom": 6891,
      "often": 6892,
      "FTaylorSeriesUpTo": 6893,
      "Banach": 6894,
      "Grade": 6895,
      "db": 6896,
      "e1": 6897,
      "iqu": 6898,
      "view": 6899,
      "ully": 6900,
      "coimage": 6901,
      "compHom": 6902,
      "eraseLead": 6903,
      "completeSpace": 6904,
      "weights": 6905,
      "recursive": 6906,
      "Floor": 6907,
      "Fully": 6908,
      "Sz": 6909,
      "hγ": 6910,
      "toMultiset": 6911,
      "IsCentralScalar": 6912,
      "leftHomologyMap": 6913,
      "mkContinuous": 6914,
      "CommMon": 6915,
      "HasLimits": 6916,
      "ZeroHom": 6917,
      "absNorm": 6918,
      "quotientMap": 6919,
      "Schwartz": 6920,
      "hausdorffDist": 6921,
      "ascPochhammer": 6922,
      "remainder": 6923,
      "ometimes": 6924,
      "Skeleton": 6925,
      "II": 6926,
      "bug": 6927,
      "custom": 6928,
      "mkMetric": 6929,
      "counted": 6930,
      "PiTensorProduct": 6931,
      "dependence": 6932,
      "Now": 6933,
      "StarModule": 6934,
      "access": 6935,
      "GaloisInsertion": 6936,
      "ExpChar": 6937,
      "quadraticChar": 6938,
      "having": 6939,
      "Cobounded": 6940,
      "Frame": 6941,
      "Ol": 6942,
      "member": 6943,
      "mag": 6944,
      "Semifield": 6945,
      "hmer": 6946,
      "Respects": 6947,
      "atoms": 6948,
      "stopping": 6949,
      "ReflectsIsomorphisms": 6950,
      "ProjectiveResolution": 6951,
      "Integration": 6952,
      "Flat": 6953,
      "BilinearMap": 6954,
      "TSyntax": 6955,
      "mann": 6956,
      "pull": 6957,
      "pkg": 6958,
      "isAdd": 6959,
      "etc": 6960,
      "mulAction": 6961,
      "hxz": 6962,
      "paralle": 6963,
      "Search": 6964,
      "InterFilter": 6965,
      "AddGroupSeminorm": 6966,
      "maximalAtlas": 6967,
      "radient": 6968,
      "levels": 6969,
      "considered": 6970,
      "Omega": 6971,
      "Json": 6972,
      "Kle": 6973,
      "aim": 6974,
      "ggest": 6975,
      "pfunctor": 6976,
      "third": 6977,
      "ised": 6978,
      "gel": 6979,
      "Recur": 6980,
      "Attribute": 6981,
      "Nondegenerate": 6982,
      "Color": 6983,
      "generates": 6984,
      "increasing": 6985,
      "Charpoly": 6986,
      "Before": 6987,
      "ircum": 6988,
      "HomogeneousIdeal": 6989,
      "AnalyticAt": 6990,
      "high": 6991,
      "Squarefree": 6992,
      "orithm": 6993,
      "40": 6994,
      "euler": 6995,
      "Σi": 6996,
      "IsRefl": 6997,
      "imageSubobject": 6998,
      "OnCl": 6999,
      "library": 7000,
      "FinitePresentation": 7001,
      "distortion": 7002,
      "ContOnCl": 7003,
      "presentation": 7004,
      "autoImplicit": 7005,
      "ircumcenter": 7006,
      "87": 7007,
      "Util": 7008,
      "sides": 7009,
      "yi": 7010,
      "MapClass": 7011,
      "nonunits": 7012,
      "AddLECancellable": 7013,
      "Semilinear": 7014,
      "liftRel": 7015,
      "OneSpectrum": 7016,
      "Transparency": 7017,
      "Extensive": 7018,
      "predAbove": 7019,
      "Results": 7020,
      "omatic": 7021,
      "DivInvMonoid": 7022,
      "110": 7023,
      "Raw": 7024,
      "Slash": 7025,
      "isen": 7026,
      "reorder": 7027,
      "flat": 7028,
      "Coyoneda": 7029,
      "Lev": 7030,
      "biInf": 7031,
      "IndepFun": 7032,
      "Length": 7033,
      "FullyFaithful": 7034,
      "Evaluation": 7035,
      "ℝⁿ": 7036,
      "unmop": 7037,
      "AddCon": 7038,
      "OfPoint": 7039,
      "yscr": 7040,
      "InjectiveResolution": 7041,
      "AffineIndependent": 7042,
      "partialSups": 7043,
      "FamilyOfElements": 7044,
      "LinearOrderedRing": 7045,
      "differentiability": 7046,
      "strictMonoOn": 7047,
      "Reduc": 7048,
      "weightedVSubOfPoint": 7049,
      "hyperreal": 7050,
      "ContravariantClass": 7051,
      "Double": 7052,
      "CentroidHom": 7053,
      "yscraper": 7054,
      "Am": 7055,
      "T1Space": 7056,
      "d4": 7057,
      "lof": 7058,
      "text": 7059,
      "toIdeal": 7060,
      "IsAntichain": 7061,
      "amed": 7062,
      "chet": 7063,
      "Prove": 7064,
      "CommMonCat": 7065,
      "selfAdjoint": 7066,
      "Except": 7067,
      "Pretrivialization": 7068,
      "Collection": 7069,
      "termination": 7070,
      "OrderedCommSemiring": 7071,
      "proving": 7072,
      "Jacobi": 7073,
      "Qq": 7074,
      "Rob": 7075,
      "ude": 7076,
      "inomial": 7077,
      "mapEquiv": 7078,
      "IsPath": 7079,
      "subcategory": 7080,
      "height": 7081,
      "rightHomologyMap": 7082,
      "CompTriple": 7083,
      "LeftMoves": 7084,
      "Arity": 7085,
      "SMulZeroClass": 7086,
      "eves": 7087,
      "pullbacks": 7088,
      "multic": 7089,
      "MvQPF": 7090,
      "extendDomain": 7091,
      "takeWhile": 7092,
      "removing": 7093,
      "modifyNth": 7094,
      "Definable": 7095,
      "hω": 7096,
      "slash": 7097,
      "several": 7098,
      "mkRat": 7099,
      "affineIndependent": 7100,
      "Dioph": 7101,
      "VectorBundle": 7102,
      "thickened": 7103,
      "Dominated": 7104,
      "squares": 7105,
      "OmegaCompletePartialOrder": 7106,
      "isenstein": 7107,
      "Enum": 7108,
      "his": 7109,
      "zzy": 7110,
      "enat": 7111,
      "ensu": 7112,
      "ofLE": 7113,
      "ulant": 7114,
      "esymm": 7115,
      "actual": 7116,
      "castPred": 7117,
      "bitwise": 7118,
      "BoundedSMul": 7119,
      "present": 7120,
      "ratfunc": 7121,
      "boundaries": 7122,
      "sizeOf": 7123,
      "assumes": 7124,
      "centerMass": 7125,
      "quote": 7126,
      "signed": 7127,
      "Linarith": 7128,
      "stronger": 7129,
      "applications": 7130,
      "SignType": 7131,
      "gy": 7132,
      "toMap": 7133,
      "artial": 7134,
      "divp": 7135,
      "MeasurableRat": 7136,
      "kernels": 7137,
      "Adapt": 7138,
      "PreservesLimitsOfSize": 7139,
      "chainHeight": 7140,
      "continuum": 7141,
      "nullMeasurableSet": 7142,
      "09": 7143,
      "Bes": 7144,
      "Ré": 7145,
      "hmem": 7146,
      "thd": 7147,
      "toSignedMeasure": 7148,
      "icategor": 7149,
      "Sublist": 7150,
      "sumCongr": 7151,
      "Cohomology": 7152,
      "HasKernel": 7153,
      "objs": 7154,
      "localTriv": 7155,
      "AntilipschitzWith": 7156,
      "StructureSheaf": 7157,
      "circulant": 7158,
      "orbitRel": 7159,
      "BumpCovering": 7160,
      "Approxim": 7161,
      "functoriality": 7162,
      "LaxMonoidalFunctor": 7163,
      "Widgets": 7164,
      "effectiveEpi": 7165,
      "zs": 7166,
      "imon": 7167,
      "asFn": 7168,
      "IsGalois": 7169,
      "IsTopologicalBasis": 7170,
      "produce": 7171,
      "riate": 7172,
      "negPart": 7173,
      "weierstrass": 7174,
      "ClassGroup": 7175,
      "hns": 7176,
      "propriate": 7177,
      "shiftIso": 7178,
      "lattices": 7179,
      "CoprodI": 7180,
      "Idempotents": 7181,
      "Denom": 7182,
      "After": 7183,
      "Global": 7184,
      "Sized": 7185,
      "sible": 7186,
      "xgcd": 7187,
      "isRat": 7188,
      "isRoot": 7189,
      "isRegular": 7190,
      "analo": 7191,
      "ulip": 7192,
      "ception": 7193,
      "abstract": 7194,
      "tries": 7195,
      "Finitary": 7196,
      "quasispectrum": 7197,
      "chr": 7198,
      "Only": 7199,
      "preNorm": 7200,
      "AlgebraCat": 7201,
      "indi": 7202,
      "Normalized": 7203,
      "filters": 7204,
      "convexBody": 7205,
      "separation": 7206,
      "notation3": 7207,
      "ifier": 7208,
      "etrization": 7209,
      "adapted": 7210,
      "synthe": 7211,
      "domDomCongr": 7212,
      "41": 7213,
      "bases": 7214,
      "f6": 7215,
      "fp": 7216,
      "unsym": 7217,
      "appropriate": 7218,
      "addMonoidHom": 7219,
      "compression": 7220,
      "irling": 7221,
      "hasM": 7222,
      "antilipschitz": 7223,
      "openCover": 7224,
      "decls": 7225,
      "withDensityᵥ": 7226,
      "Import": 7227,
      "AngleRotation": 7228,
      "LSeriesSummable": 7229,
      "Foo": 7230,
      "Gal": 7231,
      "dbl": 7232,
      "har": 7233,
      "mn": 7234,
      "toColex": 7235,
      "instFunLike": 7236,
      "Prokh": 7237,
      "hsc": 7238,
      "kerase": 7239,
      "agon": 7240,
      "bius": 7241,
      "depends": 7242,
      "tactics": 7243,
      "continuants": 7244,
      "ppSpace": 7245,
      "ProofWidgets": 7246,
      "HasFiniteIntegral": 7247,
      "saying": 7248,
      "ReflectLE": 7249,
      "children": 7250,
      "Reducible": 7251,
      "Prokhorov": 7252,
      "Fib": 7253,
      "e2": 7254,
      "lambda": 7255,
      "message": 7256,
      "mellin": 7257,
      "expect": 7258,
      "develo": 7259,
      "subperm": 7260,
      "Rev": 7261,
      "umr": 7262,
      "imports": 7263,
      "angements": 7264,
      "InfSet": 7265,
      "nod": 7266,
      "synonym": 7267,
      "conditional": 7268,
      "HomotopyEquiv": 7269,
      "InnerRegular": 7270,
      "Antiperiodic": 7271,
      "covby": 7272,
      "vanishes": 7273,
      "padicValRat": 7274,
      "implemented": 7275,
      "scaleRoots": 7276,
      "Nash": 7277,
      "Slice": 7278,
      "Conformal": 7279,
      "MapComap": 7280,
      "lifting": 7281,
      "HasCokernel": 7282,
      "unitization": 7283,
      "aeSeq": 7284,
      "Closeds": 7285,
      "tensorObj": 7286,
      "LocalDecl": 7287,
      "CoreM": 7288,
      "sepDegree": 7289,
      "WithCircumcenter": 7290,
      "weakly": 7291,
      "circumsphere": 7292,
      "ConditionallyCompleteLinearOrder": 7293,
      "chromatic": 7294,
      "Choose": 7295,
      "Euler": 7296,
      "Kampen": 7297,
      "sz": 7298,
      "onto": 7299,
      "isPr": 7300,
      "ToKernel": 7301,
      "AtPrime": 7302,
      "div2": 7303,
      "Suppose": 7304,
      "modulo": 7305,
      "Relations": 7306,
      "BoundedLatticeHom": 7307,
      "extensions": 7308,
      "metriz": 7309,
      "EssSup": 7310,
      "infixl": 7311,
      "thday": 7312,
      "Average": 7313,
      "BFamily": 7314,
      "hmul": 7315,
      "toUniformSpace": 7316,
      "ention": 7317,
      "Subfamily": 7318,
      "plied": 7319,
      "Mode": 7320,
      "clopen": 7321,
      "piped": 7322,
      "Augmented": 7323,
      "modular": 7324,
      "UniformInducing": 7325,
      "Biproducts": 7326,
      "SemicontinuousAt": 7327,
      "condexpL1": 7328,
      "toIcoDiv": 7329,
      "FixedPt": 7330,
      "shadow": 7331,
      "ahler": 7332,
      "cartesian": 7333,
      "hex": 7334,
      "hull": 7335,
      "mu": 7336,
      "p3": 7337,
      "scan": 7338,
      "ignore": 7339,
      "IsPre": 7340,
      "HasColimitsOfShape": 7341,
      "Relabelling": 7342,
      "Lifting": 7343,
      "ramer": 7344,
      "domains": 7345,
      "snormEssSup": 7346,
      "CancelAddCommMonoid": 7347,
      "Irred": 7348,
      "discrim": 7349,
      "WidePushout": 7350,
      "Hyperreal": 7351,
      "Oliver": 7352,
      "77": 7353,
      "Dyn": 7354,
      "Other": 7355,
      "Snd": 7356,
      "sometimes": 7357,
      "isOrtho": 7358,
      "toSubsemiring": 7359,
      "haust": 7360,
      "SubMulAction": 7361,
      "artbe": 7362,
      "GroupAction": 7363,
      "hbdd": 7364,
      "That": 7365,
      "conePointUniqueUpToIso": 7366,
      "hmeas": 7367,
      "trailingDegree": 7368,
      "IndepSets": 7369,
      "testBit": 7370,
      "corresponds": 7371,
      "Flip": 7372,
      "ckets": 7373,
      "toIocDiv": 7374,
      "HeightOneSpectrum": 7375,
      "ClusterPt": 7376,
      "visit": 7377,
      "YoungDiagram": 7378,
      "11215": 7379,
      "GE": 7380,
      "SFinite": 7381,
      "Sentence": 7382,
      "bisim": 7383,
      "know": 7384,
      "ton": 7385,
      "unfol": 7386,
      "IsVonNBounded": 7387,
      "compr": 7388,
      "involute": 7389,
      "Coord": 7390,
      "claim": 7391,
      "expansion": 7392,
      "presheaves": 7393,
      "eraseIdx": 7394,
      "Have": 7395,
      "edgeFinset": 7396,
      "Fail": 7397,
      "SpecialLinearGroup": 7398,
      "emannZeta": 7399,
      "missing": 7400,
      "WeaklyRegular": 7401,
      "endowed": 7402,
      "indices": 7403,
      "πi": 7404,
      "ature": 7405,
      "ote": 7406,
      "IsRat": 7407,
      "peed": 7408,
      "assigned": 7409,
      "hx0": 7410,
      "ardo": 7411,
      "prefer": 7412,
      "intersect": 7413,
      "tilt": 7414,
      "LocallyUniformlyOn": 7415,
      "Hamming": 7416,
      "BoolRing": 7417,
      "resulting": 7418,
      "acro": 7419,
      "0000": 7420,
      "mvars": 7421,
      "few": 7422,
      "translate": 7423,
      "walking": 7424,
      "Constructor": 7425,
      "usually": 7426,
      "ji": 7427,
      "lc": 7428,
      "rexp": 7429,
      "IsCountablyGenerated": 7430,
      "leftInv": 7431,
      "powHalf": 7432,
      "ToTypes": 7433,
      "information": 7434,
      "ordering": 7435,
      "comapDomain": 7436,
      "generally": 7437,
      "ClosedEmbedding": 7438,
      "FreeCommRing": 7439,
      "essImage": 7440,
      "params": 7441,
      "SingletonClass": 7442,
      "EquicontinuousOn": 7443,
      "Accumr": 7444,
      "StrictAntiOn": 7445,
      "81": 7446,
      "aker": 7447,
      "b6": 7448,
      "e6": 7449,
      "further": 7450,
      "hang": 7451,
      "ihom": 7452,
      "kahler": 7453,
      "imI": 7454,
      "imJ": 7455,
      "imK": 7456,
      "emer": 7457,
      "ifork": 7458,
      "byshe": 7459,
      "opEquiv": 7460,
      "Reinterpret": 7461,
      "ermite": 7462,
      "cofiltered": 7463,
      "InstancesCommute": 7464,
      "kroneckerMap": 7465,
      "IsHermitian": 7466,
      "Decay": 7467,
      "Html": 7468,
      "iqueness": 7469,
      "DominatedFinMeasAdditive": 7470,
      "byshev": 7471,
      "21": 7472,
      "Alt": 7473,
      "Gu": 7474,
      "MCtx": 7475,
      "c9": 7476,
      "composing": 7477,
      "interest": 7478,
      "IsPoly": 7479,
      "pack": 7480,
      "Final": 7481,
      "withContext": 7482,
      "ereo": 7483,
      "equivMap": 7484,
      "area": 7485,
      "optimal": 7486,
      "basisFun": 7487,
      "107": 7488,
      "preservesColimit": 7489,
      "PreservesLimitsOfShape": 7490,
      "Absor": 7491,
      "Spanning": 7492,
      "RBMap": 7493,
      "infinitesimal": 7494,
      "column": 7495,
      "whiskeringLeft": 7496,
      "epimorphisms": 7497,
      "birthday": 7498,
      "PEquiv": 7499,
      "RHS": 7500,
      "pderiv": 7501,
      "solv": 7502,
      "umul": 7503,
      "vb": 7504,
      "ispan": 7505,
      "isComplete": 7506,
      "ofFractionRing": 7507,
      "connection": 7508,
      "mapHomologicalComplex": 7509,
      "addEquiv": 7510,
      "Prob": 7511,
      "hx1": 7512,
      "IsoLimit": 7513,
      "facts": 7514,
      "uniformSpace": 7515,
      "operators": 7516,
      "built": 7517,
      "lazy": 7518,
      "tangentMap": 7519,
      "hausdorffMeasure": 7520,
      "permutationsAux": 7521,
      "candidates": 7522,
      "TaggedPrepartition": 7523,
      "pmf": 7524,
      "Lambda": 7525,
      "cre": 7526,
      "pB": 7527,
      "pick": 7528,
      "srange": 7529,
      "toInt": 7530,
      "cell": 7531,
      "sel": 7532,
      "Compose": 7533,
      "FunProp": 7534,
      "nonsing": 7535,
      "ranch": 7536,
      "RingCon": 7537,
      "hyx": 7538,
      "disch": 7539,
      "biproducts": 7540,
      "hcb": 7541,
      "TopologicalRing": 7542,
      "ih1": 7543,
      "Exterior": 7544,
      "AlgebraicClosure": 7545,
      "contravariant": 7546,
      "Besicovitch": 7547,
      "catch": 7548,
      "cubic": 7549,
      "h𝒜": 7550,
      "onic": 7551,
      "orus": 7552,
      "isEquivalence": 7553,
      "ofENat": 7554,
      "ivization": 7555,
      "Sublattice": 7556,
      "Project": 7557,
      "FieldTheory": 7558,
      "StarAlgebra": 7559,
      "updateRow": 7560,
      "lieSpan": 7561,
      "ContDiffBump": 7562,
      "represents": 7563,
      "wittStructure": 7564,
      "Reflexive": 7565,
      "alternative": 7566,
      "synthInstance": 7567,
      "RespectsIso": 7568,
      "nodal": 7569,
      "metrizable": 7570,
      "H0": 7571,
      "Ri": 7572,
      "isMul": 7573,
      "ofFun": 7574,
      "stated": 7575,
      "IsSMulRegular": 7576,
      "Restriction": 7577,
      "residue": 7578,
      "Addition": 7579,
      "Coherence": 7580,
      "introduced": 7581,
      "NonUnitalStarAlgHom": 7582,
      "TacticM": 7583,
      "isClosedMap": 7584,
      "LinearOrderedAddCommGroup": 7585,
      "BddDistLat": 7586,
      "DirectedOn": 7587,
      "Commutative": 7588,
      "5171": 7589,
      "magma": 7590,
      "Dup": 7591,
      "qsmul": 7592,
      "isn": 7593,
      "ofRestrict": 7594,
      "stereo": 7595,
      "funMap": 7596,
      "mapAccumr": 7597,
      "Super": 7598,
      "Subgroupoid": 7599,
      "Submartingale": 7600,
      "hasPullback": 7601,
      "integralClosure": 7602,
      "again": 7603,
      "finsets": 7604,
      "generic": 7605,
      "singleObj": 7606,
      "indexOf": 7607,
      "OrderedAddCommMonoid": 7608,
      "StarAddMonoid": 7609,
      "ifying": 7610,
      "wittPolynomial": 7611,
      "asserts": 7612,
      "StrongEpi": 7613,
      "mutuallySingular": 7614,
      "08": 7615,
      "Version": 7616,
      "gra": 7617,
      "lsum": 7618,
      "toKaroubi": 7619,
      "setting": 7620,
      "easier": 7621,
      "leftAdjoint": 7622,
      "nonarchimedean": 7623,
      "plift": 7624,
      "Moura": 7625,
      "hyps": 7626,
      "polynomialDecay": 7627,
      "Interior": 7628,
      "MonoFactorisation": 7629,
      "dualMap": 7630,
      "hIJ": 7631,
      "imo19": 7632,
      "making": 7633,
      "Cache": 7634,
      "Gradient": 7635,
      "Mill": 7636,
      "Roth": 7637,
      "hκ": 7638,
      "lected": 7639,
      "lepiped": 7640,
      "ofEq": 7641,
      "addCommGroup": 7642,
      "IsDirected": 7643,
      "memPartition": 7644,
      "resolv": 7645,
      "HasPushout": 7646,
      "MeasurableSingletonClass": 7647,
      "RightMoves": 7648,
      "ersenne": 7649,
      "dede": 7650,
      "iterateFrobenius": 7651,
      "Centralizer": 7652,
      "disjUnion": 7653,
      "matroid": 7654,
      "ManifoldWithCorners": 7655,
      "translationNumber": 7656,
      "parallelepiped": 7657,
      "Cartan": 7658,
      "Es": 7659,
      "hsum": 7660,
      "nex": 7661,
      "rα": 7662,
      "sat": 7663,
      "slit": 7664,
      "inverts": 7665,
      "onardo": 7666,
      "toFunctor": 7667,
      "conformal": 7668,
      "otonic": 7669,
      "quad": 7670,
      "rightAngleRotation": 7671,
      "constr": 7672,
      "Leonardo": 7673,
      "getType": 7674,
      "Multico": 7675,
      "IsSquare": 7676,
      "cospherical": 7677,
      "charP": 7678,
      "pairwiseDisjoint": 7679,
      "remaining": 7680,
      "Imo19": 7681,
      "Edges": 7682,
      "adaptation": 7683,
      "denoted": 7684,
      "compatibility": 7685,
      "deduce": 7686,
      "Measur": 7687,
      "cramer": 7688,
      "dlookup": 7689,
      "sol": 7690,
      "widget": 7691,
      "toRingEquiv": 7692,
      "ended": 7693,
      "mkPi": 7694,
      "MulDistribMulAction": 7695,
      "hasse": 7696,
      "ringEquiv": 7697,
      "SMulWithZero": 7698,
      "outside": 7699,
      "RuleTac": 7700,
      "paths": 7701,
      "hμν": 7702,
      "approxOn": 7703,
      "holder": 7704,
      "disjSum": 7705,
      "Symmetry": 7706,
      "IsSymmetric": 7707,
      "factorThruImage": 7708,
      "Helper": 7709,
      "legendreSym": 7710,
      "dedekind": 7711,
      "LCtx": 7712,
      "Simon": 7713,
      "e8": 7714,
      "lawful": 7715,
      "preserved": 7716,
      "refin": 7717,
      "combin": 7718,
      "decomp": 7719,
      "OrEmpty": 7720,
      "OfSet": 7721,
      "hasColimit": 7722,
      "castLE": 7723,
      "Stx": 7724,
      "Transfer": 7725,
      "binomial": 7726,
      "convexJoin": 7727,
      "udon": 7728,
      "densityProcess": 7729,
      "HashSet": 7730,
      "ascFactorial": 7731,
      "iteratedDerivWithin": 7732,
      "fuzzy": 7733,
      "filtration": 7734,
      "artbeats": 7735,
      "karoubi": 7736,
      "niz": 7737,
      "tk": 7738,
      "wcovBy": 7739,
      "toTop": 7740,
      "IsSemisimple": 7741,
      "utter": 7742,
      "MapCircle": 7743,
      "continuousMultilinear": 7744,
      "interpol": 7745,
      "liftHom": 7746,
      "Example": 7747,
      "expMapCircle": 7748,
      "coeffs": 7749,
      "TensorHom": 7750,
      "proven": 7751,
      "Impl": 7752,
      "SuccOrder": 7753,
      "completely": 7754,
      "condexpL2": 7755,
      "InvariantForm": 7756,
      "foldlM": 7757,
      "ValuationRing": 7758,
      "bornology": 7759,
      "expectedType": 7760,
      "iIndepFun": 7761,
      "Edge": 7762,
      "CauchySeqOn": 7763,
      "indeed": 7764,
      "Pan": 7765,
      "PFree": 7766,
      "ZMOD": 7767,
      "ebius": 7768,
      "sw": 7769,
      "x2": 7770,
      "inant": 7771,
      "mapRingHom": 7772,
      "subseq": 7773,
      "Inductive": 7774,
      "SetSemiring": 7775,
      "Unsafe": 7776,
      "symmetry": 7777,
      "ptic": 7778,
      "AddUnits": 7779,
      "getId": 7780,
      "hik": 7781,
      "eraseP": 7782,
      "CongrRight": 7783,
      "universes": 7784,
      "AdjointPair": 7785,
      "twice": 7786,
      "FGModuleCat": 7787,
      "Degenne": 7788,
      "owski": 7789,
      "Comonad": 7790,
      "Rémy": 7791,
      "aces": 7792,
      "hal": 7793,
      "pseud": 7794,
      "undef": 7795,
      "igr": 7796,
      "toBasis": 7797,
      "OfLeft": 7798,
      "descri": 7799,
      "generalization": 7800,
      "Apps": 7801,
      "SemicontinuousOn": 7802,
      "moved": 7803,
      "InnerProductGeometry": 7804,
      "mathemat": 7805,
      "metavariables": 7806,
      "EffectiveEpiFamily": 7807,
      "ExtrOn": 7808,
      "mkFreshExprMVar": 7809,
      "icategorical": 7810,
      "scanl": 7811,
      "across": 7812,
      "Aga": 7813,
      "Freiman": 7814,
      "Fermat": 7815,
      "Hudon": 7816,
      "giving": 7817,
      "him": 7818,
      "kin": 7819,
      "lr": 7820,
      "scal": 7821,
      "wis": 7822,
      "toIs": 7823,
      "tock": 7824,
      "instNN": 7825,
      "CommShift": 7826,
      "CommSemiRingCat": 7827,
      "enstock": 7828,
      "Expres": 7829,
      "agin": 7830,
      "something": 7831,
      "examples": 7832,
      "StrictConvexOn": 7833,
      "PreservesZeroMorphisms": 7834,
      "countablePartition": 7835,
      "VectorSpace": 7836,
      "everything": 7837,
      "MVarCluster": 7838,
      "testAga": 7839,
      "blockDiag": 7840,
      "diamon": 7841,
      "ModularForm": 7842,
      "CancelCommMonoidWithZero": 7843,
      "ConditionallyCompleteLattice": 7844,
      "Holor": 7845,
      "tilted": 7846,
      "testAgainstNN": 7847,
      "Sc": 7848,
      "WType": 7849,
      "boolean": 7850,
      "larger": 7851,
      "rfind": 7852,
      "vs": 7853,
      "yr": 7854,
      "alCalculus": 7855,
      "immediate": 7856,
      "toMultilinearMap": 7857,
      "IsIn": 7858,
      "idth": 7859,
      "finRange": 7860,
      "ha0": 7861,
      "rightOp": 7862,
      "withBot": 7863,
      "irr": 7864,
      "hasForget": 7865,
      "UnitAddCircle": 7866,
      "UnionFind": 7867,
      "FreeAddMonoid": 7868,
      "StarConvex": 7869,
      "AddGroupWithOne": 7870,
      "linfty": 7871,
      "Loop": 7872,
      "ordinals": 7873,
      "isBoundedUnder": 7874,
      "neighborhoods": 7875,
      "isPWO": 7876,
      "precisely": 7877,
      "elem": 7878,
      "fData": 7879,
      "frac": 7880,
      "ken": 7881,
      "ln": 7882,
      "yl": 7883,
      "yProkhorov": 7884,
      "asymm": 7885,
      "ofArrows": 7886,
      "toDFinsupp": 7887,
      "converse": 7888,
      "heap": 7889,
      "compLeft": 7890,
      "opNNNorm": 7891,
      "leftLim": 7892,
      "norms": 7893,
      "OfEquiv": 7894,
      "HasFPowerSeriesOnBall": 7895,
      "reals": 7896,
      "LiftHom": 7897,
      "naturally": 7898,
      "constructors": 7899,
      "CoverDense": 7900,
      "Gaussian": 7901,
      "correspond": 7902,
      "declared": 7903,
      "VanKampen": 7904,
      "certain": 7905,
      "algamation": 7906,
      "preNormEDS": 7907,
      "ExteriorAlgebra": 7908,
      "slitPlane": 7909,
      "ee": 7910,
      "hMul": 7911,
      "ihn": 7912,
      "inequalities": 7913,
      "finish": 7914,
      "pairing": 7915,
      "hsm": 7916,
      "typeclasses": 7917,
      "Thin": 7918,
      "MvPFunctor": 7919,
      "hvw": 7920,
      "Parsed": 7921,
      "Heather": 7922,
      "BddLat": 7923,
      "Theorems100": 7924,
      "Macbeth": 7925,
      "description": 7926,
      "DT": 7927,
      "GT": 7928,
      "ZPow": 7929,
      "bent": 7930,
      "cantor": 7931,
      "da": 7932,
      "fpower": 7933,
      "suggest": 7934,
      "toFilter": 7935,
      "starting": 7936,
      "stirling": 7937,
      "NatCast": 7938,
      "commRing": 7939,
      "ToPresheaf": 7940,
      "distribMulAction": 7941,
      "AlgebraicIndependent": 7942,
      "aki": 7943,
      "coordinates": 7944,
      "thickenedIndicator": 7945,
      "Each": 7946,
      "Similar": 7947,
      "happ": 7948,
      "hermite": 7949,
      "liou": 7950,
      "ni": 7951,
      "por": 7952,
      "αˣ": 7953,
      "⋂₀": 7954,
      "toPGame": 7955,
      "sted": 7956,
      "stmt": 7957,
      "simply": 7958,
      "IsFundamentalDomain": 7959,
      "idual": 7960,
      "measurableEmbedding": 7961,
      "semilinear": 7962,
      "condDistrib": 7963,
      "ih2": 7964,
      "AECover": 7965,
      "evenOdd": 7966,
      "caratheodory": 7967,
      "gamma": 7968,
      "IsLeast": 7969,
      "Oriented": 7970,
      "isoWhiskerRight": 7971,
      "liouville": 7972,
      "beq": 7973,
      "entClosure": 7974,
      "FinStronglyMeasurable": 7975,
      "notations": 7976,
      "moebius": 7977,
      "mkRaw": 7978,
      "keep": 7979,
      "diffeomorph": 7980,
      "Stats": 7981,
      "FreeAddGroup": 7982,
      "matching": 7983,
      "headI": 7984,
      "decidableEq": 7985,
      "nullHomotopic": 7986,
      "said": 7987,
      "Hyp": 7988,
      "Triangular": 7989,
      "numeric": 7990,
      "destutter": 7991,
      "hasFiniteIntegral": 7992,
      "slightly": 7993,
      "Miller": 7994,
      "acy": 7995,
      "rith": 7996,
      "zulip": 7997,
      "to1": 7998,
      "duplicate": 7999,
      "quant": 8000,
      "ibniz": 8001,
      "OfMono": 8002,
      "transition": 8003,
      "urb": 8004,
      "ause": 8005,
      "OpenNhds": 8006,
      "structureSheaf": 8007,
      "subtypeDomain": 8008,
      "OrderedSMul": 8009,
      "aux2": 8010,
      "incre": 8011,
      "adjust": 8012,
      "propext": 8013,
      "smoothSheaf": 8014,
      "Enrich": 8015,
      "rng": 8016,
      "DenseRange": 8017,
      "EventuallyLE": 8018,
      "QuasiMeasurePreserving": 8019,
      "recursion": 8020,
      "echn": 8021,
      "Consider": 8022,
      "distributive": 8023,
      "UniqueDiffOn": 8024,
      "elaborator": 8025,
      "darts": 8026,
      "Epimorphisms": 8027,
      "Numeric": 8028,
      "IntegrationParams": 8029,
      "multichoose": 8030,
      "HaveLebesgueDecomposition": 8031,
      "Kyle": 8032,
      "UV": 8033,
      "Zigzag": 8034,
      "lub": 8035,
      "isCycle": 8036,
      "toNNRat": 8037,
      "IsOfFinOrder": 8038,
      "finpartition": 8039,
      "hf0": 8040,
      "ToLp": 8041,
      "Realizer": 8042,
      "Coinsertion": 8043,
      "ZeroOneClass": 8044,
      "ampleable": 8045,
      "typ": 8046,
      "UniformAddGroup": 8047,
      "Transversals": 8048,
      "Vars": 8049,
      "chainTop": 8050,
      "metho": 8051,
      "denseRange": 8052,
      "neighbour": 8053,
      "Gammaℝ": 8054,
      "truncation": 8055,
      "Construction": 8056,
      "7b9": 8057,
      "manually": 8058,
      "LiouvilleWith": 8059,
      "DiscrTree": 8060,
      "SlashInvariantForm": 8061,
      "Cubic": 8062,
      "Dᵒᵖ": 8063,
      "gref": 8064,
      "mdifferentiableAt": 8065,
      "onment": 8066,
      "toOrderHom": 8067,
      "Suf": 8068,
      "ilon": 8069,
      "hxt": 8070,
      "ironment": 8071,
      "Coequalizers": 8072,
      "Lewis": 8073,
      "HasForget": 8074,
      "SupSet": 8075,
      "Que": 8076,
      "showing": 8077,
      "chooseBasis": 8078,
      "lineDeriv": 8079,
      "hUV": 8080,
      "fixedPoint": 8081,
      "SmoothOn": 8082,
      "QuasiSeparated": 8083,
      "skyscraper": 8084,
      "scheme": 8085,
      "seems": 8086,
      "resolvent": 8087,
      "67": 8088,
      "8f": 8089,
      "cdf": 8090,
      "gs": 8091,
      "hft": 8092,
      "hAdd": 8093,
      "scope": 8094,
      "ℤˣ": 8095,
      "cohomology": 8096,
      "addLeft": 8097,
      "submartingale": 8098,
      "never": 8099,
      "braided": 8100,
      "noteq": 8101,
      "rant": 8102,
      "WithSeminorms": 8103,
      "typevec": 8104,
      "liftAux": 8105,
      "DiffContOnCl": 8106,
      "ersally": 8107,
      "monge": 8108,
      "aux1": 8109,
      "StarOrderedRing": 8110,
      "nthRoots": 8111,
      "smoothing": 8112,
      "Supported": 8113,
      "isLeast": 8114,
      "ShiftIso": 8115,
      "InvariantProp": 8116,
      "fiberwise": 8117,
      "isSquare": 8118,
      "expanding": 8119,
      "builder": 8120,
      "represented": 8121,
      "IsPGroup": 8122,
      "issue": 8123,
      "coordChangeL": 8124,
      "getAppFn": 8125,
      "uniqueDiffOn": 8126,
      "urbaki": 8127,
      "Pare": 8128,
      "Safe": 8129,
      "Satisfi": 8130,
      "gm": 8131,
      "mersenne": 8132,
      "ley": 8133,
      "ises": 8134,
      "isDomain": 8135,
      "really": 8136,
      "addMonoid": 8137,
      "IsGreatest": 8138,
      "Compa": 8139,
      "endomorphisms": 8140,
      "imageToKernel": 8141,
      "natIso": 8142,
      "associativity": 8143,
      "SeminormFamily": 8144,
      "EpiOf": 8145,
      "LinearOrderedAddCommMonoid": 8146,
      "integration": 8147,
      "DivisionMonoid": 8148,
      "Elementary": 8149,
      "origin": 8150,
      "ambdas": 8151,
      "Imo2019": 8152,
      "TangentSpace": 8153,
      "helper": 8154,
      "52": 8155,
      "Mᵐᵒᵖ": 8156,
      "PSigma": 8157,
      "i0": 8158,
      "oom": 8159,
      "sb": 8160,
      "sf": 8161,
      "inits": 8162,
      "independence": 8163,
      "aphs": 8164,
      "ofSet": 8165,
      "hax": 8166,
      "leftOp": 8167,
      "EquivQuotient": 8168,
      "OfIntegers": 8169,
      "Coannihilator": 8170,
      "weaker": 8171,
      "evalTactic": 8172,
      "condCount": 8173,
      "Forward": 8174,
      "StrictConcaveOn": 8175,
      "Biheyting": 8176,
      "cycleFactors": 8177,
      "ConvexSpace": 8178,
      "Membership": 8179,
      "Generators": 8180,
      "mvPolynomial": 8181,
      "GaloisCoinsertion": 8182,
      "enumerable": 8183,
      "transformations": 8184,
      "IsMaxOn": 8185,
      "Specializes": 8186,
      "FTaylorSeriesUpToOn": 8187,
      "b9": 8188,
      "branch": 8189,
      "hΦ": 8190,
      "hsu": 8191,
      "hinj": 8192,
      "unify": 8193,
      "eters": 8194,
      "rightInv": 8195,
      "Reader": 8196,
      "ilat": 8197,
      "why": 8198,
      "hxb": 8199,
      "ToExpr": 8200,
      "artition": 8201,
      "precompose": 8202,
      "plan": 8203,
      "HasBinaryBiproduct": 8204,
      "agrees": 8205,
      "bits": 8206,
      "Biprod": 8207,
      "cache": 8208,
      "Multiplication": 8209,
      "neighborFinset": 8210,
      "Expansion": 8211,
      "stalkMap": 8212,
      "159": 8213,
      "imo2019": 8214,
      "LawfulMonad": 8215,
      "HurwitzZeta": 8216,
      "erve": 8217,
      "toZ": 8218,
      "cocones": 8219,
      "abled": 8220,
      "addRight": 8221,
      "addCommMonoid": 8222,
      "subordinate": 8223,
      "verify": 8224,
      "mode": 8225,
      "homs": 8226,
      "sumAddHom": 8227,
      "perform": 8228,
      "divided": 8229,
      "LeftExtension": 8230,
      "clean": 8231,
      "shown": 8232,
      "TransCmp": 8233,
      "multivariate": 8234,
      "FreeMagma": 8235,
      "StarNormal": 8236,
      "charge": 8237,
      "polyCharpoly": 8238,
      "UniqueMDiff": 8239,
      "multip": 8240,
      "isEmptyElim": 8241,
      "laurent": 8242,
      "recurrence": 8243,
      "analyticAt": 8244,
      "Represent": 8245,
      "Holder": 8246,
      "piCongrLeft": 8247,
      "isoWhiskerLeft": 8248,
      "PolishSpace": 8249,
      "Column": 8250,
      "Fréchet": 8251,
      "DTExpr": 8252,
      "Ber": 8253,
      "FE": 8254,
      "Face": 8255,
      "Turn": 8256,
      "d3": 8257,
      "manif": 8258,
      "zz": 8259,
      "enc": 8260,
      "covariantClass": 8261,
      "trinomial": 8262,
      "Convert": 8263,
      "valMin": 8264,
      "OfArity": 8265,
      "functorCategory": 8266,
      "QuotientMap": 8267,
      "PreservesColimitsOfShape": 8268,
      "findIdx": 8269,
      "aking": 8270,
      "quotQuotEquiv": 8271,
      "SmoothManifoldWithCorners": 8272,
      "antiperiodic": 8273,
      "numerator": 8274,
      "println": 8275,
      "PreservesFiniteLimits": 8276,
      "TotallyDisconnected": 8277,
      "involving": 8278,
      "factoredNumbers": 8279,
      "synthesize": 8280,
      "valMinAbs": 8281,
      "37": 8282,
      "cube": 8283,
      "fc": 8284,
      "sg": 8285,
      "toGerm": 8286,
      "abl": 8287,
      "simpTheorems": 8288,
      "peel": 8289,
      "olds": 8290,
      "Also": 8291,
      "hsf": 8292,
      "hasCoe": 8293,
      "HasFPowerSeriesAt": 8294,
      "locale": 8295,
      "OrderedAddCommGroup": 8296,
      "sSupHom": 8297,
      "polyrith": 8298,
      "Binom": 8299,
      "coconePointUniqueUpToIso": 8300,
      "regularity": 8301,
      "laverage": 8302,
      "complemented": 8303,
      "IsPurelyInseparable": 8304,
      "Eigenvalue": 8305,
      "mixed": 8306,
      "StieltjesFunction": 8307,
      "TruncatedWittVector": 8308,
      "Miu": 8309,
      "Levenshtein": 8310,
      "a7f": 8311,
      "dir": 8312,
      "hfin": 8313,
      "iCycles": 8314,
      "zα": 8315,
      "isNormal": 8316,
      "toBilin": 8317,
      "desired": 8318,
      "FunctorCategory": 8319,
      "NonemptyCompacts": 8320,
      "subtypeEquiv": 8321,
      "OrderedCommRing": 8322,
      "pullbackCone": 8323,
      "separator": 8324,
      "CardEq": 8325,
      "proxy": 8326,
      "seminorms": 8327,
      "WalkingSpan": 8328,
      "gluing": 8329,
      "axioms": 8330,
      "limitConeIsLimit": 8331,
      "Translate": 8332,
      "900": 8333,
      "Denumerable": 8334,
      "Kev": 8335,
      "Law": 8336,
      "a8": 8337,
      "hZ": 8338,
      "narrow": 8339,
      "nice": 8340,
      "isTheta": 8341,
      "condu": 8342,
      "icard": 8343,
      "mapIdx": 8344,
      "chat": 8345,
      "machine": 8346,
      "hys": 8347,
      "dualBasis": 8348,
      "projIcc": 8349,
      "hji": 8350,
      "identifies": 8351,
      "Sorted": 8352,
      "CondKernel": 8353,
      "configuration": 8354,
      "antitoneOn": 8355,
      "Decls": 8356,
      "HasFDerivAtFilter": 8357,
      "imitiveRoots": 8358,
      "LieModuleHom": 8359,
      "homeo": 8360,
      "CCM": 8361,
      "triple": 8362,
      "emeredi": 8363,
      "Kevin": 8364,
      "conductor": 8365,
      "Cho": 8366,
      "Sk": 8367,
      "aₙ": 8368,
      "hor": 8369,
      "suitable": 8370,
      "ecting": 8371,
      "normalization": 8372,
      "FiniteField": 8373,
      "primeCompl": 8374,
      "quotients": 8375,
      "MvFunctor": 8376,
      "AEDisjoint": 8377,
      "replac": 8378,
      "mvqpf": 8379,
      "glb": 8380,
      "isSymm": 8381,
      "lipschitzWith": 8382,
      "including": 8383,
      "currently": 8384,
      "nilpotencyClass": 8385,
      "estimate": 8386,
      "SchwartzMap": 8387,
      "zulipchat": 8388,
      "Ury": 8389,
      "bifunctor": 8390,
      "bliminf": 8391,
      "hν": 8392,
      "nhd": 8393,
      "tm": 8394,
      "torus": 8395,
      "mapComp": 8396,
      "IsArtinian": 8397,
      "IsPeriodicPt": 8398,
      "compLp": 8399,
      "homOf": 8400,
      "cli": 8401,
      "until": 8402,
      "nothing": 8403,
      "limsSup": 8404,
      "LocallyBounded": 8405,
      "tensorLeft": 8406,
      "tails": 8407,
      "Argum": 8408,
      "IsIntegrallyClosed": 8409,
      "weightedSMul": 8410,
      "postcompose": 8411,
      "invertibleOf": 8412,
      "timeout": 8413,
      "representative": 8414,
      "metavariable": 8415,
      "deterministic": 8416,
      "PerfectClosure": 8417,
      "Adapted": 8418,
      "continuousMultilinearCurry": 8419,
      "neighbourho": 8420,
      "Uryso": 8421,
      "Ei": 8422,
      "Lagrange": 8423,
      "bt": 8424,
      "d9": 8425,
      "pq": 8426,
      "pα": 8427,
      "rarily": 8428,
      "slow": 8429,
      "thin": 8430,
      "isVonNBounded": 8431,
      "ofLex": 8432,
      "todo": 8433,
      "IsUniform": 8434,
      "OfHom": 8435,
      "MeasureSpace": 8436,
      "serv": 8437,
      "InfTopHom": 8438,
      "design": 8439,
      "condensed": 8440,
      "sInfHom": 8441,
      "CongrLeft": 8442,
      "convention": 8443,
      "Regularity": 8444,
      "smoothNumbers": 8445,
      "working": 8446,
      "directedOn": 8447,
      "DivisionSemiring": 8448,
      "succeed": 8449,
      "ContinuousFunctionalCalculus": 8450,
      "centralBinom": 8451,
      "orthoc": 8452,
      "Henstock": 8453,
      "Make": 8454,
      "P2": 8455,
      "Ph": 8456,
      "boo": 8457,
      "mβ": 8458,
      "rcli": 8459,
      "toJordanDecomposition": 8460,
      "style": 8461,
      "IsLindelof": 8462,
      "Summ": 8463,
      "fler": 8464,
      "HomLift": 8465,
      "normUnit": 8466,
      "pretrivialization": 8467,
      "hasCompactSupport": 8468,
      "IsoProd": 8469,
      "ranges": 8470,
      "HasOrthogonal": 8471,
      "monomorphisms": 8472,
      "verted": 8473,
      "Sections": 8474,
      "TopologicalSemiring": 8475,
      "RelSeries": 8476,
      "splitOn": 8477,
      "ramification": 8478,
      "Trim": 8479,
      "Powers": 8480,
      "dropWhile": 8481,
      "ProperMap": 8482,
      "CompleteLatticeHom": 8483,
      "arbitrarily": 8484,
      "eigenvector": 8485,
      "piCongrRight": 8486,
      "MarkovKernel": 8487,
      "chromaticNumber": 8488,
      "Queue": 8489,
      "rclike": 8490,
      "Aar": 8491,
      "EDist": 8492,
      "MDifferentiable": 8493,
      "Ren": 8494,
      "Sor": 8495,
      "b23": 8496,
      "ihx": 8497,
      "iCondIndep": 8498,
      "lam": 8499,
      "nlinarith": 8500,
      "x0": 8501,
      "ask": 8502,
      "igid": 8503,
      "toSpanSingleton": 8504,
      "concaveOn": 8505,
      "ids": 8506,
      "derson": 8507,
      "chunk": 8508,
      "hff": 8509,
      "NatLit": 8510,
      "graphs": 8511,
      "finiteCoproduct": 8512,
      "Anderson": 8513,
      "Standard": 8514,
      "uniformInducing": 8515,
      "Congruence": 8516,
      "collap": 8517,
      "newton": 8518,
      "deg1": 8519,
      "Trail": 8520,
      "categorical": 8521,
      "parameters": 8522,
      "Lindelö": 8523,
      "RankCondition": 8524,
      "hasForgetTo": 8525,
      "Aaron": 8526,
      "Cantor": 8527,
      "zoom": 8528,
      "toQuadraticForm": 8529,
      "addGroup": 8530,
      "IsReduced": 8531,
      "finSepDegree": 8532,
      "MulAut": 8533,
      "hx2": 8534,
      "commShiftIso": 8535,
      "antichain": 8536,
      "BoundedOrderHom": 8537,
      "Ratio": 8538,
      "adjMatrix": 8539,
      "Permut": 8540,
      "partialOrder": 8541,
      "MainGoal": 8542,
      "LinOrd": 8543,
      "Ergodic": 8544,
      "StateT": 8545,
      "invariants": 8546,
      "versal": 8547,
      "HasDerivAtFilter": 8548,
      "icographic": 8549,
      "distribution": 8550,
      "deleteEdges": 8551,
      "sieves": 8552,
      "denominators": 8553,
      "otonicity": 8554,
      "Lindelöf": 8555,
      "Dimension": 8556,
      "latter": 8557,
      "m1": 8558,
      "x1": 8559,
      "omov": 8560,
      "isli": 8561,
      "isSuccLimit": 8562,
      "retraction": 8563,
      "stating": 8564,
      "subgoals": 8565,
      "proach": 8566,
      "Finally": 8567,
      "uture": 8568,
      "prodMk": 8569,
      "augment": 8570,
      "SMulRight": 8571,
      "topologies": 8572,
      "continue": 8573,
      "Perfection": 8574,
      "goto": 8575,
      "circumradius": 8576,
      "Micha": 8577,
      "Variables": 8578,
      "Robert": 8579,
      "expectation": 8580,
      "cycleFactorsFinset": 8581,
      "FTC": 8582,
      "pent": 8583,
      "tem": 8584,
      "ortho": 8585,
      "approach": 8586,
      "ital": 8587,
      "seen": 8588,
      "IsEquivalent": 8589,
      "IsMarkovKernel": 8590,
      "entire": 8591,
      "duplic": 8592,
      "Along": 8593,
      "invApp": 8594,
      "HasShift": 8595,
      "augmented": 8596,
      "cancell": 8597,
      "IsSolvable": 8598,
      "sylow": 8599,
      "inverses": 8600,
      "aved": 8601,
      "NormalWord": 8602,
      "ProperSpace": 8603,
      "PredLimit": 8604,
      "blocksFun": 8605,
      "hammingDist": 8606,
      "jacobiSymNat": 8607,
      "denominator": 8608,
      "Bialg": 8609,
      "accessible": 8610,
      "interpolate": 8611,
      "manifolds": 8612,
      "CondKernelCDF": 8613,
      "horiz": 8614,
      "pentagon": 8615,
      "46": 8616,
      "CstarRing": 8617,
      "Thom": 8618,
      "ey": 8619,
      "eVariationOn": 8620,
      "l2": 8621,
      "lan": 8622,
      "pn": 8623,
      "tic": 8624,
      "arran": 8625,
      "aroot": 8626,
      "edral": 8627,
      "toSimpleFunc": 8628,
      "impro": 8629,
      "simpro": 8630,
      "esM": 8631,
      "oplax": 8632,
      "derangements": 8633,
      "tinomial": 8634,
      "transvection": 8635,
      "Semilat": 8636,
      "Print": 8637,
      "angled": 8638,
      "Adam": 8639,
      "Gromov": 8640,
      "lowerCrossingTime": 8641,
      "AssocList": 8642,
      "factorisation": 8643,
      "sheafToPresheaf": 8644,
      "Supports": 8645,
      "nextCoeff": 8646,
      "enumOrd": 8647,
      "lake": 8648,
      "IsCoatom": 8649,
      "fixingSubgroup": 8650,
      "quadrant": 8651,
      "aroots": 8652,
      "But": 8653,
      "Hs": 8654,
      "Zhang": 8655,
      "c78": 8656,
      "gold": 8657,
      "hadd": 8658,
      "hcont": 8659,
      "ihy": 8660,
      "lcs": 8661,
      "slim": 8662,
      "ongest": 8663,
      "leibniz": 8664,
      "isApp": 8665,
      "isFalse": 8666,
      "isTerminal": 8667,
      "ofFinsupp": 8668,
      "exhaust": 8669,
      "coalgebra": 8670,
      "intended": 8671,
      "IsKernel": 8672,
      "subfamily": 8673,
      "easy": 8674,
      "They": 8675,
      "Until": 8676,
      "mkIdent": 8677,
      "umerable": 8678,
      "OfMax": 8679,
      "SupClosed": 8680,
      "ZeroIso": 8681,
      "Strip": 8682,
      "rootD": 8683,
      "generating": 8684,
      "upperBound": 8685,
      "Uniformity": 8686,
      "NonUnitalCommRing": 8687,
      "denumerable": 8688,
      "DistribNeg": 8689,
      "homologyπ": 8690,
      "domRestrict": 8691,
      "elabTerm": 8692,
      "Declar": 8693,
      "quasiMeasurePreserving": 8694,
      "schwartz": 8695,
      "squash": 8696,
      "Michael": 8697,
      "713": 8698,
      "Eisenstein": 8699,
      "SNum": 8700,
      "gb": 8701,
      "halt": 8702,
      "mb": 8703,
      "yth": 8704,
      "lems": 8705,
      "refer": 8706,
      "toRat": 8707,
      "toENat": 8708,
      "combo": 8709,
      "composed": 8710,
      "debug": 8711,
      "IsInt": 8712,
      "Input": 8713,
      "Uniq": 8714,
      "AddOpposite": 8715,
      "commMonoid": 8716,
      "transparency": 8717,
      "angles": 8718,
      "NormedCommRing": 8719,
      "AffineIsometryEquiv": 8720,
      "updateColumn": 8721,
      "express": 8722,
      "Properties": 8723,
      "truncateFun": 8724,
      "ilton": 8725,
      "PositiveCompacts": 8726,
      "absorbs": 8727,
      "areaForm": 8728,
      "ythag": 8729,
      "22": 8730,
      "8e": 8731,
      "Matrices": 8732,
      "SSet": 8733,
      "iot": 8734,
      "lot": 8735,
      "pens": 8736,
      "q1": 8737,
      "trees": 8738,
      "uv": 8739,
      "isFiniteMeasure": 8740,
      "itness": 8741,
      "toComplex": 8742,
      "toL1": 8743,
      "toPoly": 8744,
      "IsTheta": 8745,
      "instSMul": 8746,
      "OfSurjective": 8747,
      "SupBotHom": 8748,
      "Explicit": 8749,
      "ZeroObject": 8750,
      "Topaz": 8751,
      "orean": 8752,
      "Control": 8753,
      "LocallyIntegrable": 8754,
      "CoeTC": 8755,
      "SheafCondition": 8756,
      "establ": 8757,
      "shiftLeft": 8758,
      "ExactFunctor": 8759,
      "enumer": 8760,
      "postcomp": 8761,
      "Multiequalizer": 8762,
      "85f": 8763,
      "hrend": 8764,
      "progress": 8765,
      "ythagorean": 8766,
      "36": 8767,
      "Cut": 8768,
      "Fu": 8769,
      "MDifferentiableAt": 8770,
      "Q2": 8771,
      "hpi": 8772,
      "sentence": 8773,
      "techn": 8774,
      "vitali": 8775,
      "ₗc": 8776,
      "isConj": 8777,
      "multinomial": 8778,
      "coeq": 8779,
      "subcover": 8780,
      "subspaces": 8781,
      "ht1": 8782,
      "extensive": 8783,
      "important": 8784,
      "antically": 8785,
      "restrictPreimage": 8786,
      "reflTransGen": 8787,
      "RingHomCompTriple": 8788,
      "UniformEmbedding": 8789,
      "inference": 8790,
      "OrderedCommGroup": 8791,
      "FreeSemigroup": 8792,
      "hkm": 8793,
      "writes": 8794,
      "divisible": 8795,
      "PseudoMetrizableSpace": 8796,
      "IsPrimitive": 8797,
      "satisfied": 8798,
      "Chebyshev": 8799,
      "Convergent": 8800,
      "Remain": 8801,
      "LieRingModule": 8802,
      "colimMap": 8803,
      "WidePullbackShape": 8804,
      "MooreComplex": 8805,
      "incidenceSet": 8806,
      "smoothingFn": 8807,
      "Arguments": 8808,
      "1100": 8809,
      "39": 8810,
      "Cartesian": 8811,
      "Himm": 8812,
      "c7": 8813,
      "hχ": 8814,
      "rr": 8815,
      "φH": 8816,
      "isUpperSet": 8817,
      "unary": 8818,
      "ofUnits": 8819,
      "IsDiag": 8820,
      "IsFixedPt": 8821,
      "compile": 8822,
      "coeTo": 8823,
      "riemannZeta": 8824,
      "Uncurry": 8825,
      "hfa": 8826,
      "MulZeroOneClass": 8827,
      "Intro": 8828,
      "OfIdeal": 8829,
      "Coercion": 8830,
      "LinearOn": 8831,
      "alizes": 8832,
      "hca": 8833,
      "reci": 8834,
      "ClosedTopology": 8835,
      "LiftProp": 8836,
      "atesLinearOn": 8837,
      "OrderedOn": 8838,
      "StrictOrderedSemiring": 8839,
      "purely": 8840,
      "flector": 8841,
      "triangles": 8842,
      "WellOrderedOn": 8843,
      "circleIntegral": 8844,
      "shiftFunctorZero": 8845,
      "idempotents": 8846,
      "Proofs": 8847,
      "Markus": 8848,
      "Cocycles": 8849,
      "indentD": 8850,
      "Himmel": 8851,
      "hderiv": 8852,
      "marg": 8853,
      "mctx": 8854,
      "xi": 8855,
      "oment": 8856,
      "isPiSystem": 8857,
      "ofFinset": 8858,
      "ofLeftInverse": 8859,
      "toSheafify": 8860,
      "load": 8861,
      "addX": 8862,
      "subgroupoid": 8863,
      "compContinuousLinearMap": 8864,
      "endofunctor": 8865,
      "rightAdjoint": 8866,
      "OfRightInverse": 8867,
      "undant": 8868,
      "topEquiv": 8869,
      "Extra": 8870,
      "FiniteProducts": 8871,
      "filterAt": 8872,
      "PreEnvelGroup": 8873,
      "Collinear": 8874,
      "bitra": 8875,
      "SheafOfModules": 8876,
      "Vector3": 8877,
      "SmoothAt": 8878,
      "primPart": 8879,
      "inherits": 8880,
      "93e": 8881,
      "Else": 8882,
      "much": 8883,
      "Run": 8884,
      "zsqrtd": 8885,
      "μH": 8886,
      "isPath": 8887,
      "isTorsion": 8888,
      "unif": 8889,
      "cocomplex": 8890,
      "IsInternal": 8891,
      "FinCategory": 8892,
      "Substring": 8893,
      "MapComplex": 8894,
      "nonuniform": 8895,
      "AddConst": 8896,
      "Cos": 8897,
      "universally": 8898,
      "ured": 8899,
      "Monomorphisms": 8900,
      "dualCoannihilator": 8901,
      "lowerBound": 8902,
      "Neighb": 8903,
      "AffineLocally": 8904,
      "extendScalars": 8905,
      "MulActionWithZero": 8906,
      "calcul": 8907,
      "tensorRight": 8908,
      "provable": 8909,
      "17e": 8910,
      "binaryProduct": 8911,
      "explicitCokernel": 8912,
      "CommGroupWithZero": 8913,
      "GradedAlgebra": 8914,
      "UnivLE": 8915,
      "IdentDistrib": 8916,
      "fullyFaithful": 8917,
      "userName": 8918,
      "Macro": 8919,
      "liftPropWithinAt": 8920,
      "behavior": 8921,
      "EqvGen": 8922,
      "vertedBy": 8923,
      "recipro": 8924,
      "Aᵐᵒᵖ": 8925,
      "CNF": 8926,
      "bre": 8927,
      "bro": 8928,
      "games": 8929,
      "kson": 8930,
      "pw": 8931,
      "unbot": 8932,
      "ings": 8933,
      "IsChain": 8934,
      "IsMultiplicative": 8935,
      "utes": 8936,
      "ially": 8937,
      "hfd": 8938,
      "oll": 8939,
      "HasBiproduct": 8940,
      "integralSum": 8941,
      "aga": 8942,
      "FunctorToTypes": 8943,
      "dickson": 8944,
      "label": 8945,
      "idirect": 8946,
      "Irrefl": 8947,
      "adicCompletion": 8948,
[...]
