{
  "version": "1.0",
  "truncation": null,
  "padding": null,
  "added_tokens": [
    {
      "id": 0,
      "content": "[UNK]",
      "single_word": false,
      "lstrip": false,
      "rstrip": false,
      "normalized": false,
      "special": true
    },
    {
      "id": 1,
      "content": "[PAD]",
      "single_word": false,
      "lstrip": false,
      "rstrip": false,
      "normalized": false,
      "special": true
    },
    {
      "id": 2,
      "content": "[EOS]",
      "single_word": false,
      "lstrip": false,
      "rstrip": false,
      "normalized": false,
      "special": true
    },
    {
      "id": 3,
      "content": "[PROOFSTATE]",
      "single_word": false,
      "lstrip": false,
      "rstrip": false,
      "normalized": false,
      "special": true
    },
    {
      "id": 4,
      "content": "[PROOFSTEP]",
      "single_word": false,
      "lstrip": false,
      "rstrip": false,
      "normalized": false,
      "special": true
    },
    {
      "id": 5,
      "content": "[TACTICS]",
      "single_word": false,
      "lstrip": false,
      "rstrip": false,
      "normalized": false,
      "special": true
    }
  ],
  "normalizer": null,
  "pre_tokenizer": {
    "type": "Sequence",
    "pretokenizers": [
      {
        "type": "Punctuation",
        "behavior": "Isolated"
      },
      {
        "type": "Whitespace"
      }
    ]
  },
  "post_processor": null,
  "decoder": null,
  "model": {
    "type": "BPE",
    "dropout": null,
    "unk_token": "[UNK]",
    "continuing_subword_prefix": null,
    "end_of_word_suffix": null,
    "fuse_unk": false,
    "byte_fallback": false,
    "ignore_merges": false,
    "vocab": {
      "[UNK]": 0,
      "[PAD]": 1,
      "[EOS]": 2,
      "[PROOFSTATE]": 3,
      "[PROOFSTEP]": 4,
      "[TACTICS]": 5,
      "!": 6,
      "\"": 7,
      "#": 8,
      "$": 9,
      "%": 10,
      "&": 11,
      "'": 12,
      "(": 13,
      ")": 14,
      "*": 15,
      "+": 16,
      ",": 17,
      "-": 18,
      ".": 19,
      "/": 20,
      "0": 21,
      "1": 22,
      "2": 23,
      "3": 24,
      "4": 25,
      "5": 26,
      "6": 27,
      "7": 28,
      "8": 29,
      "9": 30,
      ":": 31,
      ";": 32,
      "<": 33,
      "=": 34,
      ">": 35,
      "?": 36,
      "@": 37,
      "A": 38,
      "B": 39,
      "C": 40,
      "D": 41,
      "E": 42,
      "F": 43,
      "G": 44,
      "H": 45,
      "I": 46,
      "J": 47,
      "K": 48,
      "L": 49,
      "M": 50,
      "N": 51,
      "O": 52,
      "P": 53,
      "Q": 54,
      "R": 55,
      "S": 56,
      "T": 57,
      "U": 58,
      "V": 59,
      "W": 60,
      "X": 61,
      "Y": 62,
      "Z": 63,
      "[": 64,
      "\\": 65,
      "]": 66,
      "^": 67,
      "_": 68,
      "`": 69,
      "a": 70,
      "b": 71,
      "c": 72,
      "d": 73,
      "e": 74,
      "f": 75,
      "g": 76,
      "h": 77,
      "i": 78,
      "j": 79,
      "k": 80,
      "l": 81,
      "m": 82,
      "n": 83,
      "o": 84,
      "p": 85,
      "q": 86,
      "r": 87,
      "s": 88,
      "t": 89,
      "u": 90,
      "v": 91,
      "w": 92,
      "x": 93,
      "y": 94,
      "z": 95,
      "{": 96,
      "|": 97,
      "}": 98,
      "~": 99,
      "¥": 100,
      "§": 101,
      "«": 102,
      "¬": 103,
      "°": 104,
      "±": 105,
      "²": 106,
      "³": 107,
      "´": 108,
      "µ": 109,
      "·": 110,
      "¹": 111,
      "»": 112,
      "½": 113,
      "Á": 114,
      "É": 115,
      "×": 116,
      "ß": 117,
      "à": 118,
      "á": 119,
      "ä": 120,
      "æ": 121,
      "ç": 122,
      "è": 123,
      "é": 124,
      "ê": 125,
      "ë": 126,
      "ì": 127,
      "í": 128,
      "ï": 129,
      "ò": 130,
      "ó": 131,
      "ô": 132,
      "ö": 133,
      "ø": 134,
      "ü": 135,
      "ý": 136,
      "ă": 137,
      "ć": 138,
      "Č": 139,
      "č": 140,
      "ĝ": 141,
      "Ł": 142,
      "ł": 143,
      "ń": 144,
      "ō": 145,
      "ő": 146,
      "ř": 147,
      "ś": 148,
      "Š": 149,
      "š": 150,
      "Ž": 151,
      "ɢ": 152,
      "ɪ": 153,
      "ɴ": 154,
      "ʀ": 155,
      "ʏ": 156,
      "ʙ": 157,
      "ʜ": 158,
      "ʟ": 159,
      "ʰ": 160,
      "ʲ": 161,
      "ʳ": 162,
      "ʷ": 163,
      "ʸ": 164,
      "ˡ": 165,
      "ˢ": 166,
      "ˣ": 167,
      "̀": 168,
      "̂": 169,
      "Β": 170,
      "Γ": 171,
      "Δ": 172,
      "Θ": 173,
      "Ι": 174,
      "Λ": 175,
      "Π": 176,
      "Σ": 177,
      "Φ": 178,
      "Ψ": 179,
      "Ω": 180,
      "α": 181,
      "β": 182,
      "γ": 183,
      "δ": 184,
      "ε": 185,
      "ζ": 186,
      "η": 187,
      "θ": 188,
      "ι": 189,
      "κ": 190,
      "λ": 191,
      "μ": 192,
      "ν": 193,
      "ξ": 194,
      "π": 195,
      "ρ": 196,
      "σ": 197,
      "τ": 198,
      "υ": 199,
      "φ": 200,
      "χ": 201,
      "ψ": 202,
      "ω": 203,
      "ϕ": 204,
      "ϖ": 205,
      "И": 206,
      "а": 207,
      "в": 208,
      "и": 209,
      "н": 210,
      "о": 211,
      "ч": 212,
      "ᗮ": 213,
      "ᘁ": 214,
      "ᴀ": 215,
      "ᴄ": 216,
      "ᴅ": 217,
      "ᴇ": 218,
      "ᴊ": 219,
      "ᴋ": 220,
      "ᴍ": 221,
      "ᴏ": 222,
      "ᴘ": 223,
      "ᴛ": 224,
      "ᴜ": 225,
      "ᴠ": 226,
      "ᴡ": 227,
      "ᴢ": 228,
      "ᴬ": 229,
      "ᴮ": 230,
      "ᴰ": 231,
      "ᴱ": 232,
      "ᴳ": 233,
      "ᴴ": 234,
      "ᴵ": 235,
      "ᴶ": 236,
      "ᴷ": 237,
      "ᴸ": 238,
      "ᴹ": 239,
      "ᴺ": 240,
      "ᴼ": 241,
      "ᴾ": 242,
      "ᴿ": 243,
      "ᵀ": 244,
      "ᵁ": 245,
      "ᵂ": 246,
      "ᵃ": 247,
      "ᵇ": 248,
      "ᵈ": 249,
      "ᵉ": 250,
      "ᵋ": 251,
      "ᵍ": 252,
      "ᵏ": 253,
      "ᵐ": 254,
      "ᵒ": 255,
      "ᵖ": 256,
      "ᵗ": 257,
      "ᵘ": 258,
      "ᵛ": 259,
      "ᵝ": 260,
      "ᵞ": 261,
      "ᵟ": 262,
      "ᵠ": 263,
      "ᵡ": 264,
      "ᵢ": 265,
      "ᵣ": 266,
      "ᵤ": 267,
      "ᵥ": 268,
      "ᵦ": 269,
      "ᵧ": 270,
      "ᵨ": 271,
      "ᵩ": 272,
      "ᵪ": 273,
      "ᶜ": 274,
      "ᶠ": 275,
      "ᶥ": 276,
      "ᶹ": 277,
      "ᶻ": 278,
      "ᶿ": 279,
      "ầ": 280,
      "ỳ": 281,
      "​": 282,
      "‌": 283,
      "–": 284,
      "—": 285,
      "‖": 286,
      "’": 287,
      "“": 288,
      "”": 289,
      "†": 290,
      "•": 291,
      "…": 292,
      "′": 293,
      "‹": 294,
      "›": 295,
      "‼": 296,
      "⁄": 297,
      "⁅": 298,
      "⁆": 299,
      "⁰": 300,
      "ⁱ": 301,
      "⁴": 302,
      "⁵": 303,
      "⁶": 304,
      "⁷": 305,
      "⁸": 306,
      "⁹": 307,
      "⁺": 308,
      "⁻": 309,
      "⁼": 310,
      "⁽": 311,
      "⁾": 312,
      "ⁿ": 313,
      "₀": 314,
      "₁": 315,
      "₂": 316,
      "₃": 317,
      "₄": 318,
      "₅": 319,
      "₆": 320,
      "₇": 321,
      "₈": 322,
      "₉": 323,
      "₊": 324,
      "₋": 325,
      "₌": 326,
      "₍": 327,
      "₎": 328,
      "ₐ": 329,
      "ₑ": 330,
      "ₒ": 331,
      "ₓ": 332,
      "ₕ": 333,
      "ₖ": 334,
      "ₗ": 335,
      "ₘ": 336,
      "ₙ": 337,
      "ₚ": 338,
      "ₛ": 339,
      "ₜ": 340,
      "ℂ": 341,
      "ℋ": 342,
      "ℍ": 343,
      "ℐ": 344,
      "ℑ": 345,
      "ℒ": 346,
      "ℓ": 347,
      "ℕ": 348,
      "№": 349,
      "ℙ": 350,
      "ℚ": 351,
      "ℜ": 352,
      "ℝ": 353,
      "™": 354,
      "ℤ": 355,
      "ℬ": 356,
      "ℰ": 357,
      "ℱ": 358,
      "ℳ": 359,
      "ℵ": 360,
      "⅓": 361,
      "⅟": 362,
      "←": 363,
      "↑": 364,
      "→": 365,
      "↓": 366,
      "↔": 367,
      "↗": 368,
      "↘": 369,
      "↟": 370,
      "↠": 371,
      "↥": 372,
      "↦": 373,
      "↪": 374,
      "↭": 375,
      "↻": 376,
      "↾": 377,
      "↿": 378,
      "⇉": 379,
      "⇑": 380,
      "⇒": 381,
      "⇔": 382,
      "⇘": 383,
      "⇨": 384,
      "∀": 385,
      "∂": 386,
      "∃": 387,
      "∅": 388,
      "∆": 389,
      "∇": 390,
      "∈": 391,
      "∉": 392,
      "∋": 393,
      "∏": 394,
      "∐": 395,
      "∑": 396,
      "−": 397,
      "∖": 398,
      "∗": 399,
      "∘": 400,
      "∙": 401,
      "√": 402,
      "∞": 403,
      "∠": 404,
      "∡": 405,
      "∣": 406,
      "∤": 407,
      "∥": 408,
      "∧": 409,
      "∨": 410,
      "∩": 411,
      "∪": 412,
      "∫": 413,
      "∮": 414,
      "∯": 415,
      "∼": 416,
      "≃": 417,
      "≅": 418,
      "≈": 419,
      "≌": 420,
      "≟": 421,
      "≠": 422,
      "≡": 423,
      "≣": 424,
      "≤": 425,
      "≥": 426,
      "≪": 427,
      "≫": 428,
      "≰": 429,
      "≱": 430,
      "≺": 431,
      "≼": 432,
      "⊂": 433,
      "⊃": 434,
      "⊆": 435,
      "⊇": 436,
      "⊈": 437,
      "⊓": 438,
      "⊔": 439,
      "⊕": 440,
      "⊗": 441,
      "⊙": 442,
      "⊚": 443,
      "⊛": 444,
      "⊞": 445,
      "⊢": 446,
      "⊣": 447,
      "⊤": 448,
      "⊥": 449,
      "⊨": 450,
      "⊸": 451,
      "⊻": 452,
      "⊼": 453,
      "⋀": 454,
      "⋁": 455,
      "⋂": 456,
      "⋃": 457,
      "⋆": 458,
      "⋈": 459,
      "⋊": 460,
      "⋖": 461,
      "⋙": 462,
      "⋮": 463,
      "⋯": 464,
      "⌈": 465,
      "⌉": 466,
      "⌊": 467,
      "⌋": 468,
      "⌟": 469,
      "⍟": 470,
      "⏩": 471,
      "⏳": 472,
      "─": 473,
      "│": 474,
      "┌": 475,
      "├": 476,
      "□": 477,
      "△": 478,
      "▷": 479,
      "▸": 480,
      "▼": 481,
      "▽": 482,
      "◁": 483,
      "◃": 484,
      "○": 485,
      "◢": 486,
      "◥": 487,
      "◫": 488,
      "◹": 489,
      "◾": 490,
      "◿": 491,
      "♩": 492,
      "♯": 493,
      "⚠": 494,
      "⚬": 495,
      "✝": 496,
      "✶": 497,
      "❓": 498,
      "⟂": 499,
      "⟋": 500,
      "⟍": 501,
      "⟦": 502,
      "⟧": 503,
      "⟨": 504,
      "⟩": 505,
      "⟪": 506,
      "⟫": 507,
      "⟮": 508,
      "⟯": 509,
      "⟵": 510,
      "⟶": 511,
      "⟹": 512,
      "⤳": 513,
      "⥤": 514,
      "⥥": 515,
      "⦃": 516,
      "⦄": 517,
      "⧏": 518,
      "⧸": 519,
      "⨁": 520,
      "⨂": 521,
      "⨅": 522,
      "⨆": 523,
      "⨍": 524,
      "⨯": 525,
      "⨳": 526,
      "⨿": 527,
      "⩿": 528,
      "⬝": 529,
      "ⱼ": 530,
      "ⱽ": 531,
      "꙳": 532,
      "ꜰ": 533,
      "ꜱ": 534,
      "ꞯ": 535,
      "ꟴ": 536,
      "️": 537,
      "－": 538,
      "／": 539,
      "＼": 540,
      "￢": 541,
      "𐞥": 542,
      "𝐒": 543,
      "𝐓": 544,
      "𝐞": 545,
      "𝑳": 546,
      "𝑹": 547,
      "𝒄": 548,
      "𝒅": 549,
      "𝒜": 550,
      "𝒞": 551,
      "𝒟": 552,
      "𝒢": 553,
      "𝒥": 554,
      "𝒪": 555,
      "𝒫": 556,
      "𝒮": 557,
      "𝒯": 558,
      "𝒰": 559,
      "𝒱": 560,
      "𝒳": 561,
      "𝒴": 562,
      "𝒵": 563,
      "𝓐": 564,
      "𝓑": 565,
      "𝓒": 566,
      "𝓓": 567,
      "𝓕": 568,
      "𝓖": 569,
      "𝓘": 570,
      "𝓚": 571,
      "𝓜": 572,
      "𝓝": 573,
      "𝓞": 574,
      "𝓟": 575,
      "𝓡": 576,
      "𝓢": 577,
      "𝓣": 578,
      "𝓤": 579,
      "𝓥": 580,
      "𝓦": 581,
      "𝔇": 582,
      "𝔖": 583,
      "𝔗": 584,
      "𝔠": 585,
      "𝔣": 586,
      "𝔭": 587,
      "𝔮": 588,
      "𝔸": 589,
      "𝔹": 590,
      "𝔻": 591,
      "𝔼": 592,
      "𝔽": 593,
      "𝕀": 594,
      "𝕂": 595,
      "𝕄": 596,
      "𝕆": 597,
      "𝕊": 598,
      "𝕋": 599,
      "𝕌": 600,
      "𝕎": 601,
      "𝕜": 602,
      "𝕝": 603,
      "𝖣": 604,
      "𝟙": 605,
      "𝟭": 606,
      "🆕": 607,
      "🎉": 608,
      "🏁": 609,
      "🐙": 610,
      "💡": 611,
      "🔍": 612,
      "in": 613,
      "on": 614,
      "al": 615,
      "or": 616,
      "er": 617,
      "le": 618,
      "th": 619,
      "at": 620,
      "om": 621,
      "is": 622,
      "re": 623,
      "ct": 624,
      "im": 625,
      "en": 626,
      "un": 627,
      "as": 628,
      "an": 629,
      "em": 630,
      "ap": 631,
      "the": 632,
      "it": 633,
      "ig": 634,
      "ar": 635,
      "et": 636,
      "of": 637,
      "iv": 638,
      "ul": 639,
      "ro": 640,
      "ion": 641,
      "su": 642,
      "if": 643,
      "ed": 644,
      "to": 645,
      "eq": 646,
      "imp": 647,
      "ing": 648,
      "ly": 649,
      "ign": 650,
      "st": 651,
      "align": 652,
      "ce": 653,
      "ex": 654,
      "ab": 655,
      "mul": 656,
      "by": 657,
      "theor": 658,
      "eg": 659,
      "con": 660,
      "dd": 661,
      "simp": 662,
      "fun": 663,
      "com": 664,
      "theorem": 665,
      "de": 666,
      "ge": 667,
      "ic": 668,
      "po": 669,
      "co": 670,
      "iff": 671,
      "int": 672,
      "able": 673,
      "se": 674,
      "ot": 675,
      "es": 676,
      "map": 677,
      "set": 678,
      "lo": 679,
      "act": 680,
      "add": 681,
      "tr": 682,
      "Is": 683,
      "id": 684,
      "sub": 685,
      "ero": 686,
      "ent": 687,
      "us": 688,
      "In": 689,
      "pe": 690,
      "he": 691,
      "pro": 692,
      "fin": 693,
      "rw": 694,
      "orm": 695,
      "du": 696,
      "Su": 697,
      "comp": 698,
      "ith": 699,
      "ht": 700,
      "eas": 701,
      "mm": 702,
      "ory": 703,
      "lt": 704,
      "app": 705,
      "ive": 706,
      "ist": 707,
      "mem": 708,
      "op": 709,
      "zero": 710,
      "pa": 711,
      "ction": 712,
      "easu": 713,
      "Set": 714,
      "one": 715,
      "der": 716,
      "ight": 717,
      "ype": 718,
      "Com": 719,
      "ne": 720,
      "Fin": 721,
      "qu": 722,
      "ra": 723,
      "fl": 724,
      "ha": 725,
      "end": 726,
      "ono": 727,
      "up": 728,
      "ve": 729,
      "ft": 730,
      "apply": 731,
      "The": 732,
      "ib": 733,
      "pace": 734,
      "coe": 735,
      "ort": 736,
      "right": 737,
      "ect": 738,
      "Re": 739,
      "ation": 740,
      "am": 741,
      "rfl": 742,
      "Hom": 743,
      "ver": 744,
      "Sub": 745,
      "ut": 746,
      "Con": 747,
      "ine": 748,
      "ous": 749,
      "ial": 750,
      "tin": 751,
      "oc": 752,
      "let": 753,
      "tinu": 754,
      "and": 755,
      "exact": 756,
      "with": 757,
      "ri": 758,
      "ance": 759,
      "ateg": 760,
      "bra": 761,
      "gebra": 762,
      "tinuous": 763,
      "left": 764,
      "ategory": 765,
      "Fun": 766,
      "inear": 767,
      "ass": 768,
      "fi": 769,
      "ymm": 770,
      "cas": 771,
      "var": 772,
      "ch": 773,
      "Map": 774,
      "Un": 775,
      "roup": 776,
      "imit": 777,
      "for": 778,
      "smul": 779,
      "def": 780,
      "not": 781,
      "easure": 782,
      "ext": 783,
      "il": 784,
      "hf": 785,
      "ite": 786,
      "res": 787,
      "iable": 788,
      "el": 789,
      "neg": 790,
      "ject": 791,
      "rable": 792,
      "inst": 793,
      "age": 794,
      "onoid": 795,
      "mo": 796,
      "norm": 797,
      "symm": 798,
      "pt": 799,
      "Nat": 800,
      "non": 801,
      "Equ": 802,
      "ol": 803,
      "Add": 804,
      "mk": 805,
      "pow": 806,
      "Al": 807,
      "Mul": 808,
      "inv": 809,
      "log": 810,
      "wh": 811,
      "sup": 812,
      "iz": 813,
      "Equiv": 814,
      "equ": 815,
      "pos": 816,
      "Pro": 817,
      "Or": 818,
      "hx": 819,
      "val": 820,
      "Type": 821,
      "hom": 822,
      "ran": 823,
      "dule": 824,
      "ard": 825,
      "cc": 826,
      "have": 827,
      "only": 828,
      "ir": 829,
      "ity": 830,
      "Comp": 831,
      "all": 832,
      "variable": 833,
      "Space": 834,
      "prod": 835,
      "jective": 836,
      "fine": 837,
      "ath": 838,
      "comm": 839,
      "image": 840,
      "Theory": 841,
      "sum": 842,
      "Int": 843,
      "ctor": 844,
      "easurable": 845,
      "instance": 846,
      "nat": 847,
      "To": 848,
      "pr": 849,
      "ift": 850,
      "At": 851,
      "Comm": 852,
      "On": 853,
      "um": 854,
      "ere": 855,
      "Ring": 856,
      "ob": 857,
      "ad": 858,
      "Real": 859,
      "ral": 860,
      "ans": 861,
      "lter": 862,
      "With": 863,
      "Category": 864,
      "gr": 865,
      "lib": 866,
      "import": 867,
      "Of": 868,
      "athlib": 869,
      "Finset": 870,
      "trans": 871,
      "ate": 872,
      "art": 873,
      "pty": 874,
      "hs": 875,
      "und": 876,
      "ph": 877,
      "sing": 878,
      "continuous": 879,
      "Co": 880,
      "Linear": 881,
      "lemm": 882,
      "ain": 883,
      "pre": 884,
      "inter": 885,
      "Po": 886,
      "ens": 887,
      "Monoid": 888,
      "this": 889,
      "subset": 890,
      "intro": 891,
      "const": 892,
      "cl": 893,
      "per": 894,
      "ical": 895,
      "has": 896,
      "Algebra": 897,
      "div": 898,
      "Order": 899,
      "pl": 900,
      "ists": 901,
      "ree": 902,
      "empty": 903,
      "card": 904,
      "lemma": 905,
      "Measure": 906,
      "Mo": 907,
      "top": 908,
      "itive": 909,
      "Mathlib": 910,
      "that": 911,
      "ti": 912,
      "ma": 913,
      "cal": 914,
      "type": 915,
      "egral": 916,
      "ends": 917,
      "ur": 918,
      "equiv": 919,
      "Le": 920,
      "fr": 921,
      "algebra": 922,
      "ound": 923,
      "Iso": 924,
      "orph": 925,
      "lf": 926,
      "Fi": 927,
      "range": 928,
      "jo": 929,
      "Group": 930,
      "where": 931,
      "exists": 932,
      "List": 933,
      "clo": 934,
      "polog": 935,
      "omial": 936,
      "ru": 937,
      "cases": 938,
      "inf": 939,
      "self": 940,
      "get": 941,
      "congr": 942,
      "refine": 943,
      "ition": 944,
      "assoc": 945,
      "Continuous": 946,
      "theory": 947,
      "we": 948,
      "ck": 949,
      "succ": 950,
      "Sem": 951,
      "ant": 952,
      "supp": 953,
      "endsto": 954,
      "lift": 955,
      "measure": 956,
      "module": 957,
      "aliz": 958,
      "etr": 959,
      "pi": 960,
      "af": 961,
      "Has": 962,
      "duct": 963,
      "stri": 964,
      "Unit": 965,
      "group": 966,
      "Measurable": 967,
      "additive": 968,
      "from": 969,
      "nomial": 970,
      "lynomial": 971,
      "Non": 972,
      "ind": 973,
      "ff": 974,
      "imits": 975,
      "ds": 976,
      "erm": 977,
      "univ": 978,
      "open": 979,
      "lex": 980,
      "atri": 981,
      "leton": 982,
      "CategoryTheory": 983,
      "be": 984,
      "strict": 985,
      "ors": 986,
      "Sup": 987,
      "category": 988,
      "reser": 989,
      "order": 990,
      "ker": 991,
      "atrix": 992,
      "Cl": 993,
      "wo": 994,
      "ang": 995,
      "ies": 996,
      "sure": 997,
      "cast": 998,
      "finite": 999,
      "reserv": 1000,
      "sed": 1001,
      "ient": 1002,
      "ame": 1003,
      "ism": 1004,
      "ure": 1005,
      "are": 1006,
      "asis": 1007,
      "ho": 1008,
      "orphism": 1009,
      "Qu": 1010,
      "section": 1011,
      "Op": 1012,
      "then": 1013,
      "singleton": 1014,
      "ime": 1015,
      "ally": 1016,
      "ence": 1017,
      "using": 1018,
      "Ex": 1019,
      "hb": 1020,
      "deal": 1021,
      "Module": 1022,
      "mono": 1023,
      "nd": 1024,
      "hy": 1025,
      "Finite": 1026,
      "Norm": 1027,
      "ring": 1028,
      "function": 1029,
      "integral": 1030,
      "Loc": 1031,
      "joint": 1032,
      "dis": 1033,
      "ke": 1034,
      "Der": 1035,
      "injective": 1036,
      "diff": 1037,
      "ag": 1038,
      "Deriv": 1039,
      "monoid": 1040,
      "ment": 1041,
      "ull": 1042,
      "deriv": 1043,
      "do": 1044,
      "hp": 1045,
      "ue": 1046,
      "Zero": 1047,
      "ated": 1048,
      "Topolog": 1049,
      "Within": 1050,
      "Top": 1051,
      "Li": 1052,
      "exp": 1053,
      "Eq": 1054,
      "Class": 1055,
      "two": 1056,
      "indu": 1057,
      "LinearMap": 1058,
      "filter": 1059,
      "Diff": 1060,
      "au": 1061,
      "Function": 1062,
      "Filter": 1063,
      "ser": 1064,
      "linear": 1065,
      "De": 1066,
      "ounded": 1067,
      "tain": 1068,
      "eval": 1069,
      "iring": 1070,
      "inal": 1071,
      "pan": 1072,
      "hg": 1073,
      "otient": 1074,
      "hds": 1075,
      "iform": 1076,
      "Th": 1077,
      "Str": 1078,
      "EN": 1079,
      "tendsto": 1080,
      "unit": 1081,
      "⁻¹": 1082,
      "nhds": 1083,
      "bi": 1084,
      "unt": 1085,
      "wer": 1086,
      "Inf": 1087,
      "dist": 1088,
      "space": 1089,
      "obj": 1090,
      "di": 1091,
      "hi": 1092,
      "An": 1093,
      "cons": 1094,
      "egree": 1095,
      "des": 1096,
      "no": 1097,
      "gen": 1098,
      "ames": 1099,
      "mp": 1100,
      "St": 1101,
      "measurable": 1102,
      "oo": 1103,
      "Clo": 1104,
      "eld": 1105,
      "heaf": 1106,
      "lement": 1107,
      "Au": 1108,
      "Pre": 1109,
      "hn": 1110,
      "Matrix": 1111,
      "closure": 1112,
      "ding": 1113,
      "ome": 1114,
      "20": 1115,
      "vd": 1116,
      "ast": 1117,
      "bot": 1118,
      "names": 1119,
      "ack": 1120,
      "intype": 1121,
      "nonneg": 1122,
      "max": 1123,
      "nel": 1124,
      "Prop": 1125,
      "NReal": 1126,
      "Ideal": 1127,
      "comap": 1128,
      "dvd": 1129,
      "ruct": 1130,
      "Submodule": 1131,
      "some": 1132,
      "product": 1133,
      "ip": 1134,
      "namespace": 1135,
      "Left": 1136,
      "alse": 1137,
      "Polynomial": 1138,
      "ancel": 1139,
      "ator": 1140,
      "Union": 1141,
      "so": 1142,
      "local": 1143,
      "verse": 1144,
      "Ar": 1145,
      "ae": 1146,
      "file": 1147,
      "AddComm": 1148,
      "ase": 1149,
      "Mult": 1150,
      "root": 1151,
      "simpa": 1152,
      "Functor": 1153,
      "dep": 1154,
      "ta": 1155,
      "ss": 1156,
      "span": 1157,
      "Part": 1158,
      "fst": 1159,
      "obtain": 1160,
      "erent": 1161,
      "Pr": 1162,
      "ary": 1163,
      "ative": 1164,
      "desc": 1165,
      "limit": 1166,
      "Right": 1167,
      "cle": 1168,
      "ometr": 1169,
      "trib": 1170,
      "par": 1171,
      "bed": 1172,
      "sert": 1173,
      "plic": 1174,
      "ers": 1175,
      "iset": 1176,
      "num": 1177,
      "note": 1178,
      "ret": 1179,
      "forall": 1180,
      "functor": 1181,
      "min": 1182,
      "restrict": 1183,
      "part": 1184,
      "ense": 1185,
      "ise": 1186,
      "Em": 1187,
      "real": 1188,
      "Complex": 1189,
      "bedding": 1190,
      "hc": 1191,
      "SMul": 1192,
      "Semiring": 1193,
      "point": 1194,
      "false": 1195,
      "ple": 1196,
      "Homo": 1197,
      "mon": 1198,
      "que": 1199,
      "MeasureTheory": 1200,
      "cid": 1201,
      "angle": 1202,
      "struct": 1203,
      "finset": 1204,
      "abs": 1205,
      "back": 1206,
      "insert": 1207,
      "induction": 1208,
      "Open": 1209,
      "ord": 1210,
      "under": 1211,
      "Dis": 1212,
      "support": 1213,
      "snd": 1214,
      "sem": 1215,
      "Col": 1216,
      "preimage": 1217,
      "ong": 1218,
      "Limits": 1219,
      "defin": 1220,
      "egrable": 1221,
      "Prod": 1222,
      "This": 1223,
      "Basis": 1224,
      "oth": 1225,
      "lic": 1226,
      "Sum": 1227,
      "cidable": 1228,
      "ique": 1229,
      "cted": 1230,
      "ivial": 1231,
      "ible": 1232,
      "can": 1233,
      "ute": 1234,
      "cond": 1235,
      "Icc": 1236,
      "ata": 1237,
      "union": 1238,
      "WithinAt": 1239,
      "ullback": 1240,
      "arg": 1241,
      "action": 1242,
      "etric": 1243,
      "ometry": 1244,
      "row": 1245,
      "Fintype": 1246,
      "If": 1247,
      "cone": 1248,
      "sin": 1249,
      "vert": 1250,
      "orting": 1251,
      "ensor": 1252,
      "list": 1253,
      "reserves": 1254,
      "Se": 1255,
      "Normed": 1256,
      "cancel": 1257,
      "closed": 1258,
      "rjective": 1259,
      "ected": 1260,
      "mod": 1261,
      "tected": 1262,
      "che": 1263,
      "protected": 1264,
      "ular": 1265,
      "actic": 1266,
      "gener": 1267,
      "Topological": 1268,
      "ide": 1269,
      "count": 1270,
      "Cat": 1271,
      "ension": 1272,
      "ange": 1273,
      "omorphism": 1274,
      "ev": 1275,
      "Quotient": 1276,
      "rintro": 1277,
      "Ch": 1278,
      "hm": 1279,
      "pec": 1280,
      "Porting": 1281,
      "coeff": 1282,
      "refl": 1283,
      "Mon": 1284,
      "out": 1285,
      "inl": 1286,
      "logy": 1287,
      "io": 1288,
      "sq": 1289,
      "trivial": 1290,
      "Lean": 1291,
      "iso": 1292,
      "fact": 1293,
      "tice": 1294,
      "ich": 1295,
      "ie": 1296,
      "Cop": 1297,
      "old": 1298,
      "element": 1299,
      "plit": 1300,
      "true": 1301,
      "erentiable": 1302,
      "form": 1303,
      "Limit": 1304,
      "opt": 1305,
      "ization": 1306,
      "ample": 1307,
      "lean": 1308,
      "rel": 1309,
      "kernel": 1310,
      "cont": 1311,
      "We": 1312,
      "upper": 1313,
      "sho": 1314,
      "Simp": 1315,
      "Integral": 1316,
      "eta": 1317,
      "Bot": 1318,
      "ption": 1319,
      "attice": 1320,
      "nonempty": 1321,
      "vex": 1322,
      "rcases": 1323,
      "comput": 1324,
      "hr": 1325,
      "ually": 1326,
      "inr": 1327,
      "lete": 1328,
      "prime": 1329,
      "single": 1330,
      "compl": 1331,
      "class": 1332,
      "simps": 1333,
      "polynomial": 1334,
      "inj": 1335,
      "hab": 1336,
      "omain": 1337,
      "Ab": 1338,
      "example": 1339,
      "For": 1340,
      "Rel": 1341,
      "Ad": 1342,
      "ult": 1343,
      "cy": 1344,
      "option": 1345,
      "Pi": 1346,
      "structure": 1347,
      "rank": 1348,
      "rec": 1349,
      "ENNReal": 1350,
      "disjoint": 1351,
      "case": 1352,
      "onal": 1353,
      "aph": 1354,
      "uniform": 1355,
      "Cast": 1356,
      "ty": 1357,
      "algebraMap": 1358,
      "Decidable": 1359,
      "Nonempty": 1360,
      "eries": 1361,
      "Like": 1362,
      "ore": 1363,
      "star": 1364,
      "Closed": 1365,
      "Fr": 1366,
      "Id": 1367,
      "use": 1368,
      "All": 1369,
      "Compact": 1370,
      "tra": 1371,
      "mpr": 1372,
      "Finsupp": 1373,
      "Multiset": 1374,
      "calar": 1375,
      "basis": 1376,
      "ize": 1377,
      "RingHom": 1378,
      "len": 1379,
      "index": 1380,
      "alence": 1381,
      "Field": 1382,
      "topolog": 1383,
      "asic": 1384,
      "igma": 1385,
      "One": 1386,
      "TopologicalSpace": 1387,
      "subtype": 1388,
      "ian": 1389,
      "join": 1390,
      "ased": 1391,
      "atTop": 1392,
      "dsimp": 1393,
      "Inter": 1394,
      "toFun": 1395,
      "which": 1396,
      "ner": 1397,
      "Mono": 1398,
      "sion": 1399,
      "Data": 1400,
      "computable": 1401,
      "Degree": 1402,
      "Subtype": 1403,
      "ys": 1404,
      "gth": 1405,
      "entually": 1406,
      "low": 1407,
      "DerivAt": 1408,
      "bit": 1409,
      "limits": 1410,
      "Subgroup": 1411,
      "Product": 1412,
      "descr": 1413,
      "Tendsto": 1414,
      "dic": 1415,
      "equal": 1416,
      "alization": 1417,
      "reserved": 1418,
      "any": 1419,
      "Cont": 1420,
      "Topology": 1421,
      "sh": 1422,
      "describ": 1423,
      "pect": 1424,
      "gc": 1425,
      "term": 1426,
      "Ico": 1427,
      "ual": 1428,
      "str": 1429,
      "vari": 1430,
      "Uniform": 1431,
      "Copy": 1432,
      "Sh": 1433,
      "duc": 1434,
      "length": 1435,
      "Alg": 1436,
      "Bo": 1437,
      "noncomputable": 1438,
      "urn": 1439,
      "ilinear": 1440,
      "202": 1441,
      "Bounded": 1442,
      "MonoidHom": 1443,
      "LI": 1444,
      "AddCommGroup": 1445,
      "iven": 1446,
      "Action": 1447,
      "described": 1448,
      "tiplic": 1449,
      "show": 1450,
      "homo": 1451,
      "Lift": 1452,
      "degree": 1453,
      "otone": 1454,
      "ih": 1455,
      "ces": 1456,
      "thors": 1457,
      "nected": 1458,
      "ural": 1459,
      "SE": 1460,
      "fa": 1461,
      "Series": 1462,
      "Embedding": 1463,
      "rans": 1464,
      "Rele": 1465,
      "oal": 1466,
      "Authors": 1467,
      "LIC": 1468,
      "license": 1469,
      "Copyright": 1470,
      "Apa": 1471,
      "Trans": 1472,
      "ball": 1473,
      "rights": 1474,
      "ENSE": 1475,
      "Released": 1476,
      "LICENSE": 1477,
      "Apache": 1478,
      "ates": 1479,
      "ily": 1480,
      "ber": 1481,
      "infer": 1482,
      "lim": 1483,
      "onent": 1484,
      "dual": 1485,
      "natural": 1486,
      "ry": 1487,
      "Ord": 1488,
      "surjective": 1489,
      "Colimit": 1490,
      "nil": 1491,
      "ou": 1492,
      "hain": 1493,
      "Ordered": 1494,
      "its": 1495,
      "elim": 1496,
      "omorph": 1497,
      "Lie": 1498,
      "Aux": 1499,
      "split": 1500,
      "linter": 1501,
      "ax": 1502,
      "pullback": 1503,
      "IsS": 1504,
      "iUnion": 1505,
      "iter": 1506,
      "iSup": 1507,
      "abil": 1508,
      "wise": 1509,
      "over": 1510,
      "wap": 1511,
      "Div": 1512,
      "Localization": 1513,
      "CommRing": 1514,
      "Num": 1515,
      "depend": 1516,
      "bet": 1517,
      "object": 1518,
      "forget": 1519,
      "spec": 1520,
      "10": 1521,
      "ell": 1522,
      "bounded": 1523,
      "position": 1524,
      "fix": 1525,
      "pres": 1526,
      "Unital": 1527,
      "No": 1528,
      "Ioc": 1529,
      "sets": 1530,
      "Submonoid": 1531,
      "sy": 1532,
      "swap": 1533,
      "Dual": 1534,
      "rat": 1535,
      "Mod": 1536,
      "ict": 1537,
      "compact": 1538,
      "ced": 1539,
      "rpow": 1540,
      "ween": 1541,
      "ations": 1542,
      "attr": 1543,
      "imal": 1544,
      "quotient": 1545,
      "conj": 1546,
      "mult": 1547,
      "oi": 1548,
      "amily": 1549,
      "eventually": 1550,
      "Injective": 1551,
      "Option": 1552,
      "ps": 1553,
      "Strict": 1554,
      "between": 1555,
      "fold": 1556,
      "hu": 1557,
      "constru": 1558,
      "variant": 1559,
      "ful": 1560,
      "Expr": 1561,
      "alizer": 1562,
      "Prime": 1563,
      "Metric": 1564,
      "esop": 1565,
      "field": 1566,
      "matrix": 1567,
      "morphism": 1568,
      "Pa": 1569,
      "affine": 1570,
      "Tensor": 1571,
      "else": 1572,
      "definition": 1573,
      "mathlib": 1574,
      "return": 1575,
      "Di": 1576,
      "Seq": 1577,
      "ofReal": 1578,
      "bin": 1579,
      "cur": 1580,
      "tot": 1581,
      "prover": 1582,
      "leanprover": 1583,
      "Gr": 1584,
      "aux": 1585,
      "vector": 1586,
      "Ob": 1587,
      "gcd": 1588,
      "NonUnital": 1589,
      "dependent": 1590,
      "alk": 1591,
      "unique": 1592,
      "inner": 1593,
      "unop": 1594,
      "ay": 1595,
      "Integrable": 1596,
      "ability": 1597,
      "atch": 1598,
      "Free": 1599,
      "Ass": 1600,
      "Val": 1601,
      "Rat": 1602,
      "itt": 1603,
      "Sy": 1604,
      "diag": 1605,
      "Lp": 1606,
      "unity": 1607,
      "choo": 1608,
      "Ext": 1609,
      "inc": 1610,
      "Ioo": 1611,
      "Form": 1612,
      "Locally": 1613,
      "choose": 1614,
      "pure": 1615,
      "same": 1616,
      "Simple": 1617,
      "Var": 1618,
      "Partial": 1619,
      "Fact": 1620,
      "det": 1621,
      "erase": 1622,
      "equivalence": 1623,
      "cret": 1624,
      "nn": 1625,
      "hl": 1626,
      "cop": 1627,
      "Cone": 1628,
      "Coe": 1629,
      "ongly": 1630,
      "crete": 1631,
      "Tactic": 1632,
      "Mv": 1633,
      "lower": 1634,
      "reduc": 1635,
      "sSup": 1636,
      "Inst": 1637,
      "₁₂": 1638,
      "proj": 1639,
      "fle": 1640,
      "Pres": 1641,
      "preserves": 1642,
      "Assoc": 1643,
      "Af": 1644,
      "Point": 1645,
      "none": 1646,
      "mooth": 1647,
      "inorm": 1648,
      "version": 1649,
      "Ne": 1650,
      "graph": 1651,
      "rwa": 1652,
      "complex": 1653,
      "Affine": 1654,
      "adj": 1655,
      "LE": 1656,
      "ideal": 1657,
      "Closure": 1658,
      "integrable": 1659,
      "prop": 1660,
      "MeasurableSet": 1661,
      "factor": 1662,
      "proper": 1663,
      "bound": 1664,
      "differentiable": 1665,
      "Inv": 1666,
      "Lean3": 1667,
      "colimit": 1668,
      "Gen": 1669,
      "Star": 1670,
      "convert": 1671,
      "Ha": 1672,
      "such": 1673,
      "Not": 1674,
      "cos": 1675,
      "sInf": 1676,
      "community": 1677,
      "natCast": 1678,
      "uppercase": 1679,
      "multiplic": 1680,
      "Const": 1681,
      "uppercaseLean3": 1682,
      "hd": 1683,
      "Basic": 1684,
      "tho": 1685,
      "eomorph": 1686,
      "hz": 1687,
      "also": 1688,
      "goal": 1689,
      "rev": 1690,
      "Ro": 1691,
      "fderiv": 1692,
      "constructor": 1693,
      "Ioi": 1694,
      "ape": 1695,
      "convex": 1696,
      "natDegree": 1697,
      "ection": 1698,
      "dire": 1699,
      "iInf": 1700,
      "Pos": 1701,
      "ach": 1702,
      "commut": 1703,
      "functions": 1704,
      "By": 1705,
      "separ": 1706,
      "reducible": 1707,
      "char": 1708,
      "Complete": 1709,
      "Instance": 1710,
      "inverse": 1711,
      "append": 1712,
      "Preserves": 1713,
      "Domain": 1714,
      "pair": 1715,
      "Ball": 1716,
      "pus": 1717,
      "zpow": 1718,
      "Homology": 1719,
      "Char": 1720,
      "igroup": 1721,
      "NNReal": 1722,
      "aesop": 1723,
      "cent": 1724,
      "ᵒᵖ": 1725,
      "Iic": 1726,
      "ove": 1727,
      "indic": 1728,
      "DecidableEq": 1729,
      "change": 1730,
      "maps": 1731,
      "hk": 1732,
      "Count": 1733,
      "base": 1734,
      "imension": 1735,
      "Lattice": 1736,
      "Sheaf": 1737,
      "ram": 1738,
      "match": 1739,
      "lintegral": 1740,
      "xs": 1741,
      "tactic": 1742,
      "extend": 1743,
      "ior": 1744,
      "Bi": 1745,
      "Name": 1746,
      "onglyMeasurable": 1747,
      "isymm": 1748,
      "ali": 1749,
      "pose": 1750,
      "h2": 1751,
      "Subalgebra": 1752,
      "subgroup": 1753,
      "fir": 1754,
      "h1": 1755,
      "Perm": 1756,
      "ci": 1757,
      "perm": 1758,
      "first": 1759,
      "MulAction": 1760,
      "indicator": 1761,
      "bind": 1762,
      "Ker": 1763,
      "Ap": 1764,
      "ray": 1765,
      "prove": 1766,
      "poly": 1767,
      "Card": 1768,
      "bo": 1769,
      "olut": 1770,
      "AddGroup": 1771,
      "ren": 1772,
      "embedding": 1773,
      "uation": 1774,
      "Fraction": 1775,
      "monotone": 1776,
      "ep": 1777,
      "when": 1778,
      "but": 1779,
      "Bool": 1780,
      "simple": 1781,
      "connected": 1782,
      "AlgHom": 1783,
      "calc": 1784,
      "MeasurableSpace": 1785,
      "adjoin": 1786,
      "find": 1787,
      "cau": 1788,
      "proof": 1789,
      "Ici": 1790,
      "power": 1791,
      "ill": 1792,
      "hv": 1793,
      "LinearEquiv": 1794,
      "free": 1795,
      "entr": 1796,
      "finrank": 1797,
      "associ": 1798,
      "AddCommMonoid": 1799,
      "very": 1800,
      "Differentiable": 1801,
      "isker": 1802,
      "ded": 1803,
      "AE": 1804,
      "Max": 1805,
      "toReal": 1806,
      "Root": 1807,
      "size": 1808,
      "incl": 1809,
      "Divis": 1810,
      "undle": 1811,
      "urce": 1812,
      "cycle": 1813,
      "ify": 1814,
      "li": 1815,
      "submodule": 1816,
      "antisymm": 1817,
      "ward": 1818,
      "itz": 1819,
      "arget": 1820,
      "tensor": 1821,
      "result": 1822,
      "tribute": 1823,
      "isOpen": 1824,
      "MvPolynomial": 1825,
      "itial": 1826,
      "est": 1827,
      "irw": 1828,
      "ork": 1829,
      "del": 1830,
      "irwise": 1831,
      "used": 1832,
      "ector": 1833,
      "See": 1834,
      "Unique": 1835,
      "there": 1836,
      "ther": 1837,
      "sigma": 1838,
      "Ordinal": 1839,
      "ac": 1840,
      "gt": 1841,
      "semiring": 1842,
      "alias": 1843,
      "lin": 1844,
      "uld": 1845,
      "Term": 1846,
      "cf": 1847,
      "incip": 1848,
      "Up": 1849,
      "nth": 1850,
      "edSpace": 1851,
      "topological": 1852,
      "Empty": 1853,
      "uage": 1854,
      "anguage": 1855,
      "Arrow": 1856,
      "Kernel": 1857,
      "suf": 1858,
      "Convex": 1859,
      "date": 1860,
      "cated": 1861,
      "ter": 1862,
      "closedBall": 1863,
      "alized": 1864,
      "hq": 1865,
      "distrib": 1866,
      "rum": 1867,
      "pectrum": 1868,
      "rt": 1869,
      "mall": 1870,
      "seq": 1871,
      "reverse": 1872,
      "countable": 1873,
      "Cy": 1874,
      "domain": 1875,
      "given": 1876,
      "update": 1877,
      "den": 1878,
      "IsOpen": 1879,
      "pred": 1880,
      "Ant": 1881,
      "rop": 1882,
      "Algebraic": 1883,
      "isomorphism": 1884,
      "decl": 1885,
      "lie": 1886,
      "Congr": 1887,
      "Vector": 1888,
      "Cof": 1889,
      "hj": 1890,
      "Disjoint": 1891,
      "topology": 1892,
      "Quot": 1893,
      "ess": 1894,
      "prov": 1895,
      "flect": 1896,
      "ace": 1897,
      "family": 1898,
      "Pullback": 1899,
      "edist": 1900,
      "attribute": 1901,
      "source": 1902,
      "ited": 1903,
      "ents": 1904,
      "mmable": 1905,
      "since": 1906,
      "induced": 1907,
      "interval": 1908,
      "vadd": 1909,
      "Multilinear": 1910,
      "ident": 1911,
      "posite": 1912,
      "port": 1913,
      "assum": 1914,
      "imensional": 1915,
      "hout": 1916,
      "Presheaf": 1917,
      "bability": 1918,
      "ofNat": 1919,
      "composition": 1920,
      "Sigma": 1921,
      "topy": 1922,
      "elements": 1923,
      "cover": 1924,
      "WithZero": 1925,
      "Semi": 1926,
      "Meta": 1927,
      "nsmul": 1928,
      "Bin": 1929,
      "Seminorm": 1930,
      "alize": 1931,
      "ust": 1932,
      "Fn": 1933,
      "Distrib": 1934,
      "pes": 1935,
      "FunLike": 1936,
      "homology": 1937,
      "sdiff": 1938,
      "rier": 1939,
      "curry": 1940,
      "multiset": 1941,
      "uct": 1942,
      "FDerivAt": 1943,
      "fices": 1944,
      "whisker": 1945,
      "Im": 1946,
      "ak": 1947,
      "rou": 1948,
      "ensity": 1949,
      "hxy": 1950,
      "habited": 1951,
      "oangle": 1952,
      "Pair": 1953,
      "Scalar": 1954,
      "interior": 1955,
      "sqrt": 1956,
      "center": 1957,
      "tsum": 1958,
      "col": 1959,
      "Struct": 1960,
      "conv": 1961,
      "cess": 1962,
      "FDeriv": 1963,
      "suffices": 1964,
      "derivative": 1965,
      "shift": 1966,
      "Cardinal": 1967,
      "AddMonoid": 1968,
      "lock": 1969,
      "inferInstance": 1970,
      "target": 1971,
      "Array": 1972,
      "finsupp": 1973,
      "Tower": 1974,
      "contain": 1975,
      "Tr": 1976,
      "Succ": 1977,
      "haveI": 1978,
      "ting": 1979,
      "ircle": 1980,
      "cor": 1981,
      "CommSemiring": 1982,
      "edi": 1983,
      "value": 1984,
      "incipal": 1985,
      "Reg": 1986,
      "partial": 1987,
      "total": 1988,
      "otom": 1989,
      "Units": 1990,
      "Shape": 1991,
      "equence": 1992,
      "Obj": 1993,
      "ale": 1994,
      "naturality": 1995,
      "chitz": 1996,
      "Coeff": 1997,
      "quot": 1998,
      "Classical": 1999,
      "Iio": 2000,
      "itone": 2001,
      "erse": 2002,
      "Abs": 2003,
      "Given": 2004,
      "other": 2005,
      "Separ": 2006,
      "condition": 2007,
      "OD": 2008,
      "every": 2009,
      "pot": 2010,
      "into": 2011,
      "Preorder": 2012,
      "universe": 2013,
      "sign": 2014,
      "Regular": 2015,
      "complete": 2016,
      "reg": 2017,
      "series": 2018,
      "alg": 2019,
      "elian": 2020,
      "precated": 2021,
      "thog": 2022,
      "ream": 2023,
      "need": 2024,
      "Homeomorph": 2025,
      "olution": 2026,
      "thogonal": 2027,
      "Lo": 2028,
      "ContinuousLinearMap": 2029,
      "Independent": 2030,
      "Main": 2031,
      "Span": 2032,
      "head": 2033,
      "19": 2034,
      "Power": 2035,
      "MDiff": 2036,
      "aeval": 2037,
      "Note": 2038,
      "within": 2039,
      "tail": 2040,
      "chy": 2041,
      "smooth": 2042,
      "ann": 2043,
      "As": 2044,
      "Iff": 2045,
      "points": 2046,
      "ContDiff": 2047,
      "fintype": 2048,
      "Subsingleton": 2049,
      "locally": 2050,
      "units": 2051,
      "pri": 2052,
      "erw": 2053,
      "subsingleton": 2054,
      "Cocone": 2055,
      "nhdsWithin": 2056,
      "Graph": 2057,
      "deprecated": 2058,
      "Func": 2059,
      "homomorphism": 2060,
      "node": 2061,
      "Sort": 2062,
      "Anal": 2063,
      "Ge": 2064,
      "Local": 2065,
      "ZMod": 2066,
      "isClosed": 2067,
      "coped": 2068,
      "ivity": 2069,
      "repl": 2070,
      "gu": 2071,
      "tsub": 2072,
      "2024": 2073,
      "Spec": 2074,
      "Big": 2075,
      "AddMonoidHom": 2076,
      "NormedSpace": 2077,
      "name": 2078,
      "scoped": 2079,
      "iterate": 2080,
      "En": 2081,
      "epi": 2082,
      "Surjective": 2083,
      "hS": 2084,
      "sheaf": 2085,
      "Mem": 2086,
      "Path": 2087,
      "BigO": 2088,
      "arith": 2089,
      "partition": 2090,
      "equalizer": 2091,
      "arrow": 2092,
      "notation": 2093,
      "vsub": 2094,
      "Component": 2095,
      "dec": 2096,
      "Epi": 2097,
      "hI": 2098,
      "prior": 2099,
      "fig": 2100,
      "Geometry": 2101,
      "usion": 2102,
      "hP": 2103,
      "Range": 2104,
      "defined": 2105,
      "infinite": 2106,
      "Lin": 2107,
      "snorm": 2108,
      "wn": 2109,
      "Countable": 2110,
      "alent": 2111,
      "Isometry": 2112,
      "End": 2113,
      "ose": 2114,
      "reassoc": 2115,
      "rect": 2116,
      "ysis": 2117,
      "Restrict": 2118,
      "push": 2119,
      "line": 2120,
      "Arg": 2121,
      "Sch": 2122,
      "tri": 2123,
      "trace": 2124,
      "seu": 2125,
      "Adj": 2126,
      "zsmul": 2127,
      "each": 2128,
      "priority": 2129,
      "Adjoint": 2130,
      "toFinset": 2131,
      "Gener": 2132,
      "hU": 2133,
      "Indep": 2134,
      "nnnorm": 2135,
      "ror": 2136,
      "ick": 2137,
      "ieve": 2138,
      "Par": 2139,
      "requ": 2140,
      "vol": 2141,
      "invFun": 2142,
      "chain": 2143,
      "repr": 2144,
      "does": 2145,
      "number": 2146,
      "CommMonoid": 2147,
      "isUnit": 2148,
      "dup": 2149,
      "Walk": 2150,
      "basic": 2151,
      "MVar": 2152,
      "From": 2153,
      "IsLimit": 2154,
      "Above": 2155,
      "Nontrivial": 2156,
      "localization": 2157,
      "av": 2158,
      "factors": 2159,
      "Ev": 2160,
      "Sing": 2161,
      "weight": 2162,
      "constant": 2163,
      "alo": 2164,
      "ison": 2165,
      "oned": 2166,
      "Min": 2167,
      "Res": 2168,
      "App": 2169,
      "algebraic": 2170,
      "atis": 2171,
      "Cover": 2172,
      "Binary": 2173,
      "Monotone": 2174,
      "guard": 2175,
      "normal": 2176,
      "lemmas": 2177,
      "unction": 2178,
      "calarTower": 2179,
      "IsScalarTower": 2180,
      "Connected": 2181,
      "Cancel": 2182,
      "ega": 2183,
      "semigroup": 2184,
      "ucl": 2185,
      "SimpleGraph": 2186,
      "new": 2187,
      "continuousOn": 2188,
      "TensorProduct": 2189,
      "define": 2190,
      "hw": 2191,
      "idean": 2192,
      "uclidean": 2193,
      "brev": 2194,
      "continuousAt": 2195,
      "red": 2196,
      "oneda": 2197,
      "ish": 2198,
      "ault": 2199,
      "Inhabited": 2200,
      "Colimits": 2201,
      "clotom": 2202,
      "clotomic": 2203,
      "Ru": 2204,
      "eous": 2205,
      "data": 2206,
      "quare": 2207,
      "Monoidal": 2208,
      "default": 2209,
      "Bound": 2210,
      "IsIso": 2211,
      "monomial": 2212,
      "adrat": 2213,
      "adratic": 2214,
      "conver": 2215,
      "biUnion": 2216,
      "100": 2217,
      "property": 2218,
      "prox": 2219,
      "than": 2220,
      "od": 2221,
      "orthogonal": 2222,
      "oid": 2223,
      "entation": 2224,
      "letion": 2225,
      "Opens": 2226,
      "extension": 2227,
      "measurableSet": 2228,
      "cat": 2229,
      "cardinal": 2230,
      "Cau": 2231,
      "ics": 2232,
      "even": 2233,
      "Er": 2234,
      "code": 2235,
      "separable": 2236,
      "edge": 2237,
      "Structure": 2238,
      "generate": 2239,
      "these": 2240,
      "funext": 2241,
      "Equivalence": 2242,
      "17": 2243,
      "agonal": 2244,
      "MultilinearMap": 2245,
      "Density": 2246,
      "acter": 2247,
      "gh": 2248,
      "principal": 2249,
      "toList": 2250,
      "normed": 2251,
      "seudo": 2252,
      "abbrev": 2253,
      "iber": 2254,
      "me": 2255,
      "Jo": 2256,
      "irreducible": 2257,
      "see": 2258,
      "oper": 2259,
      "diagonal": 2260,
      "contr": 2261,
      "SetLike": 2262,
      "setOf": 2263,
      "∫⁻": 2264,
      "cof": 2265,
      "cod": 2266,
      "geneous": 2267,
      "Rule": 2268,
      "alois": 2269,
      "submonoid": 2270,
      "replace": 2271,
      "ating": 2272,
      "ordered": 2273,
      "spaces": 2274,
      "StronglyMeasurable": 2275,
      "Divisors": 2276,
      "Tri": 2277,
      "Image": 2278,
      "well": 2279,
      "Morphism": 2280,
      "He": 2281,
      "ume": 2282,
      "logical": 2283,
      "Inverse": 2284,
      "itivity": 2285,
      "enn": 2286,
      "IsColimit": 2287,
      "move": 2288,
      "ContinuousMap": 2289,
      "Subring": 2290,
      "volume": 2291,
      "wr": 2292,
      "IH": 2293,
      "Game": 2294,
      "Mk": 2295,
      "products": 2296,
      "bdd": 2297,
      "flip": 2298,
      "Lex": 2299,
      "sequence": 2300,
      "Extension": 2301,
      "ᵒᵈ": 2302,
      "Pow": 2303,
      "omega": 2304,
      "Dimensional": 2305,
      "fol": 2306,
      "last": 2307,
      "asi": 2308,
      "→₀": 2309,
      "ediate": 2310,
      "bundle": 2311,
      "cause": 2312,
      "raded": 2313,
      "potent": 2314,
      "continu": 2315,
      "alle": 2316,
      "Homotopy": 2317,
      "Cycle": 2318,
      "18": 2319,
      "nontrivial": 2320,
      "vertible": 2321,
      "Prim": 2322,
      "ater": 2323,
      "Fir": 2324,
      "Pus": 2325,
      "ms": 2326,
      "poid": 2327,
      "ub": 2328,
      "Discrete": 2329,
      "roupoid": 2330,
      "drop": 2331,
      "satis": 2332,
      "fixed": 2333,
      "cocone": 2334,
      "argum": 2335,
      "lattice": 2336,
      "Support": 2337,
      "First": 2338,
      "Sym": 2339,
      "dom": 2340,
      "rule": 2341,
      "ithful": 2342,
      "path": 2343,
      "initial": 2344,
      "nta": 2345,
      "ntax": 2346,
      "hfg": 2347,
      "flects": 2348,
      "Analysis": 2349,
      "tw": 2350,
      "TOD": 2351,
      "Additive": 2352,
      "commutative": 2353,
      "TODO": 2354,
      "triangle": 2355,
      "cmp": 2356,
      "expres": 2357,
      "Normal": 2358,
      "presheaf": 2359,
      "Proper": 2360,
      "valu": 2361,
      "Core": 2362,
      "LT": 2363,
      "fer": 2364,
      "contDiff": 2365,
      "State": 2366,
      "special": 2367,
      "Family": 2368,
      "hT": 2369,
      "inclusion": 2370,
      "AddSubgroup": 2371,
      "maximal": 2372,
      "dense": 2373,
      "roots": 2374,
      "elab": 2375,
      "hij": 2376,
      "rot": 2377,
      "TopCat": 2378,
      "aw": 2379,
      "bers": 2380,
      "Pred": 2381,
      "take": 2382,
      "It": 2383,
      "UniformSpace": 2384,
      "fg": 2385,
      "Opposite": 2386,
      "iterated": 2387,
      "Cond": 2388,
      "respect": 2389,
      "summable": 2390,
      "nonpos": 2391,
      "ModuleCat": 2392,
      "Factor": 2393,
      "Scalars": 2394,
      "L1": 2395,
      "Neg": 2396,
      "phere": 2397,
      "ca": 2398,
      "run": 2399,
      "vi": 2400,
      "lead": 2401,
      "decidable": 2402,
      "Ga": 2403,
      "Probability": 2404,
      "check": 2405,
      "NormedAddCommGroup": 2406,
      "config": 2407,
      "LinearOrdered": 2408,
      "was": 2409,
      "WithTop": 2410,
      "Object": 2411,
      "IsUnit": 2412,
      "eme": 2413,
      "adjoint": 2414,
      "will": 2415,
      "Dist": 2416,
      "MetricSpace": 2417,
      "cm": 2418,
      "Be": 2419,
      "deg": 2420,
      "equivalent": 2421,
      "Per": 2422,
      "assumption": 2423,
      "Language": 2424,
      "small": 2425,
      "relation": 2426,
      "resp": 2427,
      "String": 2428,
      "plicit": 2429,
      "led": 2430,
      "Grp": 2431,
      "h0": 2432,
      "lhs": 2433,
      "Proj": 2434,
      "lab": 2435,
      "Bor": 2436,
      "car": 2437,
      "equality": 2438,
      "about": 2439,
      "classical": 2440,
      "idi": 2441,
      "imitive": 2442,
      "divis": 2443,
      "regular": 2444,
      "Box": 2445,
      "Ind": 2446,
      "hB": 2447,
      "rhs": 2448,
      "Sq": 2449,
      "ec": 2450,
      "ighb": 2451,
      "ives": 2452,
      "letI": 2453,
      "minpoly": 2454,
      "her": 2455,
      "mula": 2456,
      "definitions": 2457,
      "onical": 2458,
      "inite": 2459,
      "pairwise": 2460,
      "alf": 2461,
      "geometry": 2462,
      "aco": 2463,
      "meas": 2464,
      "reserving": 2465,
      "hμ": 2466,
      "positive": 2467,
      "ific": 2468,
      "mma": 2469,
      "ULift": 2470,
      "sur": 2471,
      "fs": 2472,
      "test": 2473,
      "toMatrix": 2474,
      "instances": 2475,
      "Ir": 2476,
      "PowerSeries": 2477,
      "follow": 2478,
      "step": 2479,
      "coprime": 2480,
      "DFunLike": 2481,
      "mt": 2482,
      "isometry": 2483,
      "PGame": 2484,
      "Multiplic": 2485,
      "because": 2486,
      "Change": 2487,
      "iInter": 2488,
      "morphisms": 2489,
      "block": 2490,
      "uniformity": 2491,
      "Upper": 2492,
      "Associ": 2493,
      "iver": 2494,
      "IsClosed": 2495,
      "Compl": 2496,
      "ContinuousOn": 2497,
      "mv": 2498,
      "lem": 2499,
      "Commute": 2500,
      "OfShape": 2501,
      "Galois": 2502,
      "multi": 2503,
      "counit": 2504,
      "Goal": 2505,
      "AddSubmonoid": 2506,
      "Haus": 2507,
      "aleph": 2508,
      "most": 2509,
      "bal": 2510,
      "condexp": 2511,
      "types": 2512,
      "next": 2513,
      "subst": 2514,
      "Well": 2515,
      "iodic": 2516,
      "loor": 2517,
      "LinearOrder": 2518,
      "Lower": 2519,
      "Subset": 2520,
      "box": 2521,
      "vec": 2522,
      "leading": 2523,
      "vel": 2524,
      "withDensity": 2525,
      "binary": 2526,
      "results": 2527,
      "Bdd": 2528,
      "sym": 2529,
      "son": 2530,
      "character": 2531,
      "isL": 2532,
      "isIso": 2533,
      "NatTrans": 2534,
      "ration": 2535,
      "go": 2536,
      "Scheme": 2537,
      "NonAssoc": 2538,
      "projection": 2539,
      "Out": 2540,
      "Monad": 2541,
      "Number": 2542,
      "rime": 2543,
      "00": 2544,
      "btw": 2545,
      "Homological": 2546,
      "Coprime": 2547,
      "fac": 2548,
      "neighb": 2549,
      "work": 2550,
      "Split": 2551,
      "positivity": 2552,
      "more": 2553,
      "atBot": 2554,
      "Coc": 2555,
      "respon": 2556,
      "Smooth": 2557,
      "indep": 2558,
      "IsLocalization": 2559,
      "image2": 2560,
      "FiniteDimensional": 2561,
      "ilin": 2562,
      "WithBot": 2563,
      "Direct": 2564,
      "ennreal": 2565,
      "cycles": 2566,
      "ivate": 2567,
      "converg": 2568,
      "yoneda": 2569,
      "lp": 2570,
      "copy": 2571,
      "put": 2572,
      "isCompact": 2573,
      "olute": 2574,
      "intCast": 2575,
      "dor": 2576,
      "dorff": 2577,
      "ses": 2578,
      "should": 2579,
      "valuation": 2580,
      "ordinal": 2581,
      "Factors": 2582,
      "HomologicalComplex": 2583,
      "icken": 2584,
      "stronglyMeasurable": 2585,
      "integ": 2586,
      "Two": 2587,
      "dam": 2588,
      "private": 2589,
      "construct": 2590,
      "Gamma": 2591,
      "ifi": 2592,
      "Subsemiring": 2593,
      "orsion": 2594,
      "unfold": 2595,
      "thicken": 2596,
      "cokernel": 2597,
      "associated": 2598,
      "ink": 2599,
      "natAbs": 2600,
      "₂₃": 2601,
      "ips": 2602,
      "IsCompact": 2603,
      "Semigroup": 2604,
      "linarith": 2605,
      "minimal": 2606,
      "Chart": 2607,
      "ental": 2608,
      "wards": 2609,
      "toLinearMap": 2610,
      "approx": 2611,
      "correspon": 2612,
      "Over": 2613,
      "Mar": 2614,
      "ll": 2615,
      "ilattice": 2616,
      "Pairwise": 2617,
      "Euclidean": 2618,
      "jOn": 2619,
      "fty": 2620,
      "Pushout": 2621,
      "PartialOrder": 2622,
      "intros": 2623,
      "ℒp": 2624,
      "padic": 2625,
      "fraction": 2626,
      "sphere": 2627,
      "mov": 2628,
      "Interval": 2629,
      "idiagonal": 2630,
      "Imp": 2631,
      "centr": 2632,
      "ead": 2633,
      "ug": 2634,
      "damental": 2635,
      "cs": 2636,
      "duce": 2637,
      "toDual": 2638,
      "hJ": 2639,
      "CommClass": 2640,
      "mvar": 2641,
      "multiplicity": 2642,
      "hε": 2643,
      "metric": 2644,
      "dArrow": 2645,
      "Sets": 2646,
      "ped": 2647,
      "exponent": 2648,
      "Diag": 2649,
      "ning": 2650,
      "scalar": 2651,
      "mptot": 2652,
      "And": 2653,
      "ourier": 2654,
      "hφ": 2655,
      "angent": 2656,
      "hF": 2657,
      "ede": 2658,
      "generated": 2659,
      "eqTo": 2660,
      "our": 2661,
      "htt": 2662,
      "goals": 2663,
      "AlgebraicGeometry": 2664,
      "second": 2665,
      "coprod": 2666,
      "core": 2667,
      "ably": 2668,
      "nonzero": 2669,
      "down": 2670,
      "Fa": 2671,
      "spectrum": 2672,
      "adic": 2673,
      "FDerivWithinAt": 2674,
      "Wh": 2675,
      "main": 2676,
      "independent": 2677,
      "SimpleFunc": 2678,
      "ert": 2679,
      "bijective": 2680,
      "toEquiv": 2681,
      "Founded": 2682,
      "rent": 2683,
      "Subobject": 2684,
      "Shift": 2685,
      "cyclotomic": 2686,
      "IsIntegral": 2687,
      "direct": 2688,
      "rn": 2689,
      "floor": 2690,
      "Cᵒᵖ": 2691,
      "DFinsupp": 2692,
      "att": 2693,
      "Infinite": 2694,
      "stat": 2695,
      "Abelian": 2696,
      "Pseudo": 2697,
      "leadingCoeff": 2698,
      "both": 2699,
      "hA": 2700,
      "NF": 2701,
      "toNNReal": 2702,
      "lope": 2703,
      "diagram": 2704,
      "mptotics": 2705,
      "antitone": 2706,
      "FiniteMeasure": 2707,
      "terms": 2708,
      "04": 2709,
      "Tot": 2710,
      "unc": 2711,
      "stream": 2712,
      "neighbor": 2713,
      "ipschitz": 2714,
      "contains": 2715,
      "isLimit": 2716,
      "unctor": 2717,
      "FirstOrder": 2718,
      "ategor": 2719,
      "pushout": 2720,
      "Spectrum": 2721,
      "repres": 2722,
      "arch": 2723,
      "van": 2724,
      "ping": 2725,
      "zip": 2726,
      "monic": 2727,
      "anti": 2728,
      "gcongr": 2729,
      "fvar": 2730,
      "lcm": 2731,
      "square": 2732,
      "tt": 2733,
      "bit0": 2734,
      "Elab": 2735,
      "ays": 2736,
      "multiplication": 2737,
      "Chain": 2738,
      "null": 2739,
      "language": 2740,
      "Cauchy": 2741,
      "StrictMono": 2742,
      "hK": 2743,
      "circle": 2744,
      "ether": 2745,
      "tmul": 2746,
      "yt": 2747,
      "they": 2748,
      "pie": 2749,
      "less": 2750,
      "irc": 2751,
      "Circle": 2752,
      "afe": 2753,
      "Theor": 2754,
      "different": 2755,
      "toNat": 2756,
      "Theorem": 2757,
      "Completion": 2758,
      "along": 2759,
      "etherian": 2760,
      "roid": 2761,
      "cewise": 2762,
      "https": 2763,
      "DistribMulAction": 2764,
      "12": 2765,
      "bd": 2766,
      "above": 2767,
      "Bundle": 2768,
      "Composition": 2769,
      "fail": 2770,
      "carrier": 2771,
      "cr": 2772,
      "Initial": 2773,
      "nating": 2774,
      "Ty": 2775,
      "DerivWithinAt": 2776,
      "Vec": 2777,
      "allel": 2778,
      "Size": 2779,
      "codable": 2780,
      "hst": 2781,
      "side": 2782,
      "msg": 2783,
      "piecewise": 2784,
      "instead": 2785,
      "thickening": 2786,
      "CompleteLattice": 2787,
      "atern": 2788,
      "restrictScalars": 2789,
      "ometric": 2790,
      "aternion": 2791,
      "odd": 2792,
      "commute": 2793,
      "eni": 2794,
      "ifs": 2795,
      "MetaM": 2796,
      "nf": 2797,
      "αᵒᵈ": 2798,
      "Tru": 2799,
      "Comput": 2800,
      "arison": 2801,
      "canonical": 2802,
      "Monic": 2803,
      "True": 2804,
      "Small": 2805,
      "isBigO": 2806,
      "upwards": 2807,
      "ersion": 2808,
      "bit1": 2809,
      "Constant": 2810,
      "ud": 2811,
      "erMeasure": 2812,
      "ContMDiff": 2813,
      "coord": 2814,
      "uncurry": 2815,
      "monoidal": 2816,
      "doc": 2817,
      "Primrec": 2818,
      "Under": 2819,
      "False": 2820,
      "ifford": 2821,
      "sep": 2822,
      "Invariant": 2823,
      "Pl": 2824,
      "prim": 2825,
      "OfNat": 2826,
      "unital": 2827,
      "ittle": 2828,
      "ₛₗ": 2829,
      "strictMono": 2830,
      "component": 2831,
      "sinh": 2832,
      "explicit": 2833,
      "direction": 2834,
      "ductive": 2835,
      "pointwise": 2836,
      "CommGroup": 2837,
      "AlgEquiv": 2838,
      "limsup": 2839,
      "requi": 2840,
      "chart": 2841,
      "forward": 2842,
      "omorphic": 2843,
      "jaco": 2844,
      "thon": 2845,
      "ok": 2846,
      "Property": 2847,
      "seminorm": 2848,
      "Exact": 2849,
      "Lips": 2850,
      "nnreal": 2851,
      "Lipschitz": 2852,
      "tan": 2853,
      "cfc": 2854,
      "HomClass": 2855,
      "IsometryEquiv": 2856,
      "ormal": 2857,
      "ᵐᵒᵖ": 2858,
      "subalgebra": 2859,
      "ators": 2860,
      "ties": 2861,
      "ENat": 2862,
      "below": 2863,
      "Semilattice": 2864,
      "lying": 2865,
      "normalize": 2866,
      "nodup": 2867,
      "Products": 2868,
      "weighted": 2869,
      "addition": 2870,
      "orderOf": 2871,
      "PartialHomeomorph": 2872,
      "Antitone": 2873,
      "invariant": 2874,
      "roth": 2875,
      "rob": 2876,
      "plicate": 2877,
      "Adjoin": 2878,
      "Index": 2879,
      "try": 2880,
      "throw": 2881,
      "cott": 2882,
      "Base": 2883,
      "Tra": 2884,
      "statem": 2885,
      "thonormal": 2886,
      "elf": 2887,
      "ically": 2888,
      "Dense": 2889,
      "radi": 2890,
      "Tag": 2891,
      "icient": 2892,
      "egment": 2893,
      "compose": 2894,
      "ided": 2895,
      "olv": 2896,
      "Exp": 2897,
      "biprod": 2898,
      "Adjunction": 2899,
      "Walking": 2900,
      "Cochain": 2901,
      "Error": 2902,
      "expression": 2903,
      "Inner": 2904,
      "Car": 2905,
      "Seminormed": 2906,
      "lor": 2907,
      "enum": 2908,
      "Rec": 2909,
      "objects": 2910,
      "DirectSum": 2911,
      "aut": 2912,
      "fiber": 2913,
      "identity": 2914,
      "istic": 2915,
      "hasDerivAt": 2916,
      "variantClass": 2917,
      "licial": 2918,
      "imum": 2919,
      "gl": 2920,
      "gle": 2921,
      "here": 2922,
      "a1": 2923,
      "parts": 2924,
      "tak": 2925,
      "read": 2926,
      "vers": 2927,
      "ytic": 2928,
      "transpose": 2929,
      "lies": 2930,
      "init": 2931,
      "ittleO": 2932,
      "uring": 2933,
      "FractionRing": 2934,
      "lar": 2935,
      "Multiplicative": 2936,
      "OuterMeasure": 2937,
      "Cur": 2938,
      "isS": 2939,
      "OrderIso": 2940,
      "dicate": 2941,
      "rational": 2942,
      "2022": 2943,
      "radius": 2944,
      "half": 2945,
      "diam": 2946,
      "three": 2947,
      "their": 2948,
      "stem": 2949,
      "Quadratic": 2950,
      "Below": 2951,
      "enius": 2952,
      "robenius": 2953,
      "Induc": 2954,
      "Stream": 2955,
      "factorization": 2956,
      "Red": 2957,
      "foldl": 2958,
      "alter": 2959,
      "Valuation": 2960,
      "safe": 2961,
      "discrete": 2962,
      "biproduct": 2963,
      "lementation": 2964,
      "values": 2965,
      "Bilin": 2966,
      "acc": 2967,
      "mut": 2968,
      "abelian": 2969,
      "Bounds": 2970,
      "ov": 2971,
      "singular": 2972,
      "hC": 2973,
      "multilinear": 2974,
      "Short": 2975,
      "setTo": 2976,
      "uIcc": 2977,
      "hol": 2978,
      "ier": 2979,
      "directed": 2980,
      "commutes": 2981,
      "PUnit": 2982,
      "Graded": 2983,
      "Let": 2984,
      "semi": 2985,
      "like": 2986,
      "pp": 2987,
      "atom": 2988,
      "isColimit": 2989,
      "stalk": 2990,
      "RingEquiv": 2991,
      "reate": 2992,
      "corresponding": 2993,
      "cfg": 2994,
      "Summable": 2995,
      "Quiver": 2996,
      "eqToHom": 2997,
      "coeFn": 2998,
      "ZeroDivisors": 2999,
      "Idx": 3000,
      "SL": 3001,
      "SMulCommClass": 3002,
      "bination": 3003,
      "mid": 3004,
      "contra": 3005,
      "Eventually": 3006,
      "hasSum": 3007,
      "Angle": 3008,
      "orn": 3009,
      "06": 3010,
      "isEmpty": 3011,
      "foldr": 3012,
      "met": 3013,
      "exist": 3014,
      "rnDeriv": 3015,
      "general": 3016,
      "bl": 3017,
      "endie": 3018,
      "rothendie": 3019,
      "rothendieck": 3020,
      "hne": 3021,
      "kind": 3022,
      "Decl": 3023,
      "heq": 3024,
      "probability": 3025,
      "TM": 3026,
      "RingTheory": 3027,
      "categor": 3028,
      "defines": 3029,
      "OneClass": 3030,
      "Total": 3031,
      "param": 3032,
      "Separable": 3033,
      "hV": 3034,
      "UpTo": 3035,
      "fourier": 3036,
      "las": 3037,
      "off": 3038,
      "ContinuousAt": 3039,
      "pen": 3040,
      "reindex": 3041,
      "decide": 3042,
      "Homogeneous": 3043,
      "powerset": 3044,
      "Types": 3045,
      "iteratedFDeriv": 3046,
      "Projection": 3047,
      "shiftFunctor": 3048,
      "Subspace": 3049,
      "Scott": 3050,
      "slope": 3051,
      "inductive": 3052,
      "fter": 3053,
      "cauchy": 3054,
      "strong": 3055,
      "Joh": 3056,
      "Mor": 3057,
      "olve": 3058,
      "Nil": 3059,
      "rad": 3060,
      "properties": 3061,
      "Fractional": 3062,
      "ides": 3063,
      "argument": 3064,
      "witt": 3065,
      "Value": 3066,
      "fderivWithin": 3067,
      "rotate": 3068,
      "Preserving": 3069,
      "HasDerivAt": 3070,
      "anal": 3071,
      "Anti": 3072,
      "NN": 3073,
      "Conj": 3074,
      "Faithful": 3075,
      "CD": 3076,
      "asses": 3077,
      "denom": 3078,
      "Witt": 3079,
      "way": 3080,
      "onti": 3081,
      "factorial": 3082,
      "15": 3083,
      "replicate": 3084,
      "Even": 3085,
      "Block": 3086,
      "dif": 3087,
      "Cokernel": 3088,
      "AEMeasurable": 3089,
      "Division": 3090,
      "isBounded": 3091,
      "ontier": 3092,
      "bundled": 3093,
      "multiple": 3094,
      "Fork": 3095,
      "RB": 3096,
      "ulus": 3097,
      "Indic": 3098,
      "Cofork": 3099,
      "Interm": 3100,
      "Intermediate": 3101,
      "rs": 3102,
      "Indicator": 3103,
      "trunc": 3104,
      "continuousWithinAt": 3105,
      "auto": 3106,
      "Partition": 3107,
      "Haar": 3108,
      "expand": 3109,
      "super": 3110,
      "sort": 3111,
      "antidiagonal": 3112,
      "Exists": 3113,
      "contMDiff": 3114,
      "post": 3115,
      "Locus": 3116,
      "fect": 3117,
      "numbers": 3118,
      "IsBounded": 3119,
      "ChartAt": 3120,
      "circ": 3121,
      "ffect": 3122,
      "uniformContinuous": 3123,
      "ves": 3124,
      "Syntax": 3125,
      "Terminal": 3126,
      "Centr": 3127,
      "2023": 3128,
      "ifunctor": 3129,
      "multiplicative": 3130,
      "ification": 3131,
      "NonAssocSemiring": 3132,
      "ga": 3133,
      "Setoid": 3134,
      "DifferentiableAt": 3135,
      "Atom": 3136,
      "flection": 3137,
      "bu": 3138,
      "arting": 3139,
      "ContinuousMultilinearMap": 3140,
      "ël": 3141,
      "isomorphic": 3142,
      "AddHom": 3143,
      "Preadditive": 3144,
      "Same": 3145,
      "aem": 3146,
      "remov": 3147,
      "invertible": 3148,
      "hpq": 3149,
      "terminal": 3150,
      "quasi": 3151,
      "trivialization": 3152,
      "Aesop": 3153,
      "fy": 3154,
      "pb": 3155,
      "extends": 3156,
      "whose": 3157,
      "omorphisms": 3158,
      "torsion": 3159,
      "opposite": 3160,
      "periodic": 3161,
      "castSucc": 3162,
      "key": 3163,
      "abv": 3164,
      "colimits": 3165,
      "Kan": 3166,
      "ndist": 3167,
      "disj": 3168,
      "liminf": 3169,
      "Args": 3170,
      "reates": 3171,
      "AEStronglyMeasurable": 3172,
      "hR": 3173,
      "arc": 3174,
      "tract": 3175,
      "Info": 3176,
      "Nth": 3177,
      "ized": 3178,
      "args": 3179,
      "13": 3180,
      "look": 3181,
      "IsLocal": 3182,
      "lists": 3183,
      "ros": 3184,
      "generateFrom": 3185,
      "EReal": 3186,
      "inductionOn": 3187,
      "splits": 3188,
      "aemeasurable": 3189,
      "groupoid": 3190,
      "trim": 3191,
      "EquivOf": 3192,
      "ofinite": 3193,
      "IntermediateField": 3194,
      "25": 3195,
      "Lem": 3196,
      "idem": 3197,
      "indexed": 3198,
      "Triangle": 3199,
      "la": 3200,
      "nol": 3201,
      "setIntegral": 3202,
      "WithOne": 3203,
      "nolint": 3204,
      "atible": 3205,
      "PresheafedSpace": 3206,
      "atteries": 3207,
      "sUnion": 3208,
      "IsPr": 3209,
      "yting": 3210,
      "PartialEquiv": 3211,
      "2021": 3212,
      "Single": 3213,
      "Borel": 3214,
      "Associates": 3215,
      "ras": 3216,
      "Subsemigroup": 3217,
      "44": 3218,
      "Noetherian": 3219,
      "abel": 3220,
      "Mario": 3221,
      "iro": 3222,
      "neiro": 3223,
      "hrink": 3224,
      "Nodup": 3225,
      "RC": 3226,
      "model": 3227,
      "LieSubmodule": 3228,
      "ext1": 3229,
      "QuadraticForm": 3230,
      "nndist": 3231,
      "Maps": 3232,
      "Points": 3233,
      "following": 3234,
      "game": 3235,
      "info": 3236,
      "orbit": 3237,
      "stop": 3238,
      "ane": 3239,
      "state": 3240,
      "reflects": 3241,
      "16": 3242,
      "Dom": 3243,
      "erc": 3244,
      "GL": 3245,
      "cave": 3246,
      "fn": 3247,
      "Proof": 3248,
      "underlying": 3249,
      "short": 3250,
      "Carneiro": 3251,
      "RCLike": 3252,
      "bs": 3253,
      "anced": 3254,
      "ZeroClass": 3255,
      "NeBot": 3256,
      "Batteries": 3257,
      "cpow": 3258,
      "extChartAt": 3259,
      "Uniformly": 3260,
      "orient": 3261,
      "Simplex": 3262,
      "categories": 3263,
      "Weak": 3264,
      "Singleton": 3265,
      "Pt": 3266,
      "HasBasis": 3267,
      "noalign": 3268,
      "dimensional": 3269,
      "gives": 3270,
      "choi": 3271,
      "quadratic": 3272,
      "verage": 3273,
      "LinearAlgebra": 3274,
      "Condition": 3275,
      "pf": 3276,
      "satisfi": 3277,
      "satisfy": 3278,
      "Element": 3279,
      "many": 3280,
      "ffective": 3281,
      "atter": 3282,
      "hM": 3283,
      "Model": 3284,
      "Bijective": 3285,
      "anif": 3286,
      "homotopy": 3287,
      "variables": 3288,
      "Preconnected": 3289,
      "tac": 3290,
      "Result": 3291,
      "Formula": 3292,
      "isIntegral": 3293,
      "normalized": 3294,
      "permut": 3295,
      "df": 3296,
      "arou": 3297,
      "mapsTo": 3298,
      "aleph0": 3299,
      "aroubi": 3300,
      "cri": 3301,
      "rary": 3302,
      "ank": 3303,
      "formal": 3304,
      "differentiableAt": 3305,
      "FractionalIdeal": 3306,
      "hasFDerivAt": 3307,
      "striction": 3308,
      "Clifford": 3309,
      "hN": 3310,
      "frontier": 3311,
      "Inducing": 3312,
      "ury": 3313,
      "UpperSet": 3314,
      "Morr": 3315,
      "106": 3316,
      "Param": 3317,
      "ified": 3318,
      "lipschitz": 3319,
      "Then": 3320,
      "coefficient": 3321,
      "Groupoid": 3322,
      "cov": 3323,
      "Quasi": 3324,
      "WellFounded": 3325,
      "RingedSpace": 3326,
      "Morrison": 3327,
      "29": 3328,
      "them": 3329,
      "MonCat": 3330,
      "just": 3331,
      "inequality": 3332,
      "frobenius": 3333,
      "ctx": 3334,
      "Filtered": 3335,
      "write": 3336,
      "ProbabilityTheory": 3337,
      "dot": 3338,
      "ently": 3339,
      "transform": 3340,
      "declar": 3341,
      "hG": 3342,
      "≪≫": 3343,
      "inated": 3344,
      "orig": 3345,
      "CompactSpace": 3346,
      "reas": 3347,
      "Reflects": 3348,
      "ceil": 3349,
      "IsL": 3350,
      "Invertible": 3351,
      "trafilter": 3352,
      "Cofan": 3353,
      "continuity": 3354,
      "stx": 3355,
      "HasStrict": 3356,
      "a0": 3357,
      "msgs": 3358,
      "Zeta": 3359,
      "dy": 3360,
      "reduce": 3361,
      "Poly": 3362,
      "CompleteSpace": 3363,
      "ix": 3364,
      "hypo": 3365,
      "tprod": 3366,
      "construction": 3367,
      "Components": 3368,
      "LowerSet": 3369,
      "Implementation": 3370,
      "geb": 3371,
      "HomologyData": 3372,
      "NatIso": 3373,
      "rings": 3374,
      "adjunction": 3375,
      "IntegrableOn": 3376,
      "CliffordAlgebra": 3377,
      "gebras": 3378,
      "inclu": 3379,
      "Trivial": 3380,
      "tag": 3381,
      "hov": 3382,
      "associator": 3383,
      "suc": 3384,
      "Kud": 3385,
      "Yury": 3386,
      "ashov": 3387,
      "ili": 3388,
      "after": 3389,
      "strictly": 3390,
      "ofDual": 3391,
      "SetTheory": 3392,
      "haar": 3393,
      "02": 3394,
      "assert": 3395,
      "AddEquiv": 3396,
      "mvarId": 3397,
      "mediate": 3398,
      "fore": 3399,
      "requently": 3400,
      "centralizer": 3401,
      "himp": 3402,
      "metic": 3403,
      "Projective": 3404,
      "Unitor": 3405,
      "MVarId": 3406,
      "ities": 3407,
      "homeomorph": 3408,
      "nology": 3409,
      "clear": 3410,
      "Nilpotent": 3411,
      "predicate": 3412,
      "ryashov": 3413,
      "convergence": 3414,
      "WittVector": 3415,
      "Kudryashov": 3416,
      "itself": 3417,
      "iling": 3418,
      "topic": 3419,
      "AffineSubspace": 3420,
      "isLittleO": 3421,
      "added": 3422,
      "choice": 3423,
      "homogeneous": 3424,
      "ihil": 3425,
      "Elem": 3426,
      "ener": 3427,
      "88": 3428,
      "ness": 3429,
      "uence": 3430,
      "easur": 3431,
      "Profinite": 3432,
      "ShortComplex": 3433,
      "tach": 3434,
      "Tags": 3435,
      "parallel": 3436,
      "clic": 3437,
      "vectors": 3438,
      "subspace": 3439,
      "NormedField": 3440,
      "Pointwise": 3441,
      "IsEmpty": 3442,
      "ste": 3443,
      "sections": 3444,
      "num1": 3445,
      "would": 3446,
      "olutive": 3447,
      "lice": 3448,
      "ercion": 3449,
      "riz": 3450,
      "iliary": 3451,
      "Time": 3452,
      "sm": 3453,
      "inher": 3454,
      "ild": 3455,
      "MulEquiv": 3456,
      "UB": 3457,
      "now": 3458,
      "syntax": 3459,
      "ases": 3460,
      "ites": 3461,
      "Fix": 3462,
      "affineSpan": 3463,
      "covering": 3464,
      "iq": 3465,
      "oolean": 3466,
      "hle": 3467,
      "func": 3468,
      "realize": 3469,
      "attach": 3470,
      "supr": 3471,
      "mot": 3472,
      "fract": 3473,
      "DifferentiableWithinAt": 3474,
      "igits": 3475,
      "fe": 3476,
      "ref": 3477,
      "divisors": 3478,
      "Central": 3479,
      "OrderHom": 3480,
      "absolute": 3481,
      "ihilator": 3482,
      "Asy": 3483,
      "MorphismProperty": 3484,
      "Ori": 3485,
      "thing": 3486,
      "artingale": 3487,
      "ncard": 3488,
      "inate": 3489,
      "functors": 3490,
      "neighborho": 3491,
      "26": 3492,
      "rac": 3493,
      "MonoidWithZero": 3494,
      "28": 3495,
      "modules": 3496,
      "When": 3497,
      "bor": 3498,
      "algebras": 3499,
      "ump": 3500,
      "LimitsOfShape": 3501,
      "jacobi": 3502,
      "you": 3503,
      "igned": 3504,
      "IsMax": 3505,
      "arguments": 3506,
      "inferInstanceAs": 3507,
      "cript": 3508,
      "23": 3509,
      "Meas": 3510,
      "tangent": 3511,
      "hyp": 3512,
      "Sieve": 3513,
      "fib": 3514,
      "Integ": 3515,
      "vanish": 3516,
      "supported": 3517,
      "ts": 3518,
      "least": 3519,
      "aestronglyMeasurable": 3520,
      "structuredArrow": 3521,
      "arbit": 3522,
      "throwError": 3523,
      "Hull": 3524,
      "sk": 3525,
      "Hausdorff": 3526,
      "make": 3527,
      "bij": 3528,
      "hmn": 3529,
      "whiskerLeft": 3530,
      "ble": 3531,
      "allow": 3532,
      "Imm": 3533,
      "Irreducible": 3534,
      "ending": 3535,
      "Step": 3536,
      "modify": 3537,
      "Context": 3538,
      "apose": 3539,
      "may": 3540,
      "Special": 3541,
      "InnerProduct": 3542,
      "Asymptotics": 3543,
      "IsDomain": 3544,
      "IO": 3545,
      "izer": 3546,
      "faithful": 3547,
      "integrableOn": 3548,
      "Odd": 3549,
      "full": 3550,
      "BilinForm": 3551,
      "motive": 3552,
      "Immersion": 3553,
      "coequalizer": 3554,
      "typeclass": 3555,
      "ersal": 3556,
      "dfinsupp": 3557,
      "h3": 3558,
      "zmod": 3559,
      "ider": 3560,
      "cosh": 3561,
      "Defs": 3562,
      "DecidablePred": 3563,
      "Node": 3564,
      "whiskerRight": 3565,
      "contrapose": 3566,
      "frequently": 3567,
      "14": 3568,
      "bes": 3569,
      "WithC": 3570,
      "distance": 3571,
      "holds": 3572,
      "MonoidAlgebra": 3573,
      "MonoidalCategory": 3574,
      "AdjoinRoot": 3575,
      "LinearIndependent": 3576,
      "basicOpen": 3577,
      "graded": 3578,
      "parent": 3579,
      "powers": 3580,
      "classes": 3581,
      "rename": 3582,
      "rough": 3583,
      "superset": 3584,
      "öl": 3585,
      "2020": 3586,
      "Grothendieck": 3587,
      "encode": 3588,
      "OfSize": 3589,
      "MapsTo": 3590,
      "haus": 3591,
      "vary": 3592,
      "cept": 3593,
      "without": 3594,
      "elds": 3595,
      "Theta": 3596,
      "63": 3597,
      "HasFDerivAt": 3598,
      "bc": 3599,
      "cut": 3600,
      "gue": 3601,
      "Ref": 3602,
      "hxs": 3603,
      "injOn": 3604,
      "NeZero": 3605,
      "radical": 3606,
      "05": 3607,
      "Fl": 3608,
      "rossing": 3609,
      "PNat": 3610,
      "error": 3611,
      "RingCat": 3612,
      "imitiveRoot": 3613,
      "ugate": 3614,
      "opNorm": 3615,
      "reatest": 3616,
      "time": 3617,
      "dim": 3618,
      "complement": 3619,
      "nonrec": 3620,
      "surj": 3621,
      "anifold": 3622,
      "hX": 3623,
      "OrderBot": 3624,
      "groups": 3625,
      "LM": 3626,
      "Univ": 3627,
      "homEquiv": 3628,
      "CommRingCat": 3629,
      "BinaryBi": 3630,
      "segment": 3631,
      "HomologyMap": 3632,
      "awful": 3633,
      "zy": 3634,
      "formula": 3635,
      "alizing": 3636,
      "Aut": 3637,
      "Lindel": 3638,
      "linearIndependent": 3639,
      "imes": 3640,
      "Def": 3641,
      "isMax": 3642,
      "Comparison": 3643,
      "four": 3644,
      "recur": 3645,
      "Karoubi": 3646,
      "lection": 3647,
      "level": 3648,
      "IsBigO": 3649,
      "lineMap": 3650,
      "Gl": 3651,
      "60": 3652,
      "command": 3653,
      "Ordnode": 3654,
      "characteristic": 3655,
      "rade": 3656,
      "strass": 3657,
      "ierstrass": 3658,
      "CovariantClass": 3659,
      "iod": 3660,
      "Any": 3661,
      "transl": 3662,
      "Self": 3663,
      "completion": 3664,
      "Quaternion": 3665,
      "alternating": 3666,
      "Höl": 3667,
      "vars": 3668,
      "removed": 3669,
      "satisfies": 3670,
      "Full": 3671,
      "ither": 3672,
      "2019": 3673,
      "uss": 3674,
      "finprod": 3675,
      "represent": 3676,
      "FVar": 3677,
      "ulift": 3678,
      "fundamental": 3679,
      "CLM": 3680,
      "loc": 3681,
      "BoxIntegral": 3682,
      "Bu": 3683,
      "restriction": 3684,
      "symmetric": 3685,
      "Defin": 3686,
      "shape": 3687,
      "hh": 3688,
      "asy": 3689,
      "Ray": 3690,
      "means": 3691,
      "Bifunctor": 3692,
      "ential": 3693,
      "hasStrict": 3694,
      "FG": 3695,
      "icular": 3696,
      "ContinuousWithinAt": 3697,
      "math": 3698,
      "Do": 3699,
      "zl": 3700,
      "hQ": 3701,
      "measures": 3702,
      "CharP": 3703,
      "rected": 3704,
      "mulSupport": 3705,
      "ges": 3706,
      "Test": 3707,
      "sor": 3708,
      "imorphism": 3709,
      "Code": 3710,
      "success": 3711,
      "cing": 3712,
      "ures": 3713,
      "DifferentiableOn": 3714,
      "10618": 3715,
      "AddCircle": 3716,
      "Decomposition": 3717,
      "Memℒp": 3718,
      "density": 3719,
      "ns": 3720,
      "needed": 3721,
      "neBot": 3722,
      "MulOpposite": 3723,
      "adi": 3724,
      "PartENat": 3725,
      "Side": 3726,
      "pgame": 3727,
      "CompHaus": 3728,
      "Hash": 3729,
      "ik": 3730,
      "ough": 3731,
      "edges": 3732,
      "caveOn": 3733,
      "93": 3734,
      "simpl": 3735,
      "hamm": 3736,
      "modEq": 3737,
      "Relation": 3738,
      "Directed": 3739,
      "System": 3740,
      "intervalIntegral": 3741,
      "75": 3742,
      "Last": 3743,
      "foo": 3744,
      "rees": 3745,
      "particular": 3746,
      "lit": 3747,
      "cones": 3748,
      "CostructuredArrow": 3749,
      "Cyclotomic": 3750,
      "CauSeq": 3751,
      "EMetric": 3752,
      "Symm": 3753,
      "tends": 3754,
      "input": 3755,
      "Cal": 3756,
      "coercion": 3757,
      "opow": 3758,
      "poss": 3759,
      "finitely": 3760,
      "hausdorff": 3761,
      "besgue": 3762,
      "std": 3763,
      "omat": 3764,
      "auge": 3765,
      "Separated": 3766,
      "Ident": 3767,
      "orthogonalProjection": 3768,
      "a2": 3769,
      "imede": 3770,
      "implic": 3771,
      "Fundamental": 3772,
      "2Space": 3773,
      "subring": 3774,
      "imedean": 3775,
      "b0": 3776,
      "nt": 3777,
      "icategory": 3778,
      "original": 3779,
      "ssubset": 3780,
      "implies": 3781,
      "Coproduct": 3782,
      "LieAlgebra": 3783,
      "f8": 3784,
      "intermediate": 3785,
      "HasFinite": 3786,
      "context": 3787,
      "essage": 3788,
      "UniformlyOn": 3789,
      "Shrink": 3790,
      "Concrete": 3791,
      "La": 3792,
      "bilinear": 3793,
      "duction": 3794,
      "weak": 3795,
      "LocallyRingedSpace": 3796,
      "orientation": 3797,
      "infty": 3798,
      "theorems": 3799,
      "polynomials": 3800,
      "Prepartition": 3801,
      "binder": 3802,
      "Bornology": 3803,
      "a5": 3804,
      "gi": 3805,
      "sᶜ": 3806,
      "igen": 3807,
      "congruence": 3808,
      "normSq": 3809,
      "Weight": 3810,
      "determ": 3811,
      "convexHull": 3812,
      "Mat": 3813,
      "apt": 3814,
      "toLin": 3815,
      "IsFiniteMeasure": 3816,
      "resolve": 3817,
      "Multi": 3818,
      "succAbove": 3819,
      "Presieve": 3820,
      "sa": 3821,
      "ways": 3822,
      "uniq": 3823,
      "round": 3824,
      "cket": 3825,
      "mulIndicator": 3826,
      "Refl": 3827,
      "recOn": 3828,
      "useful": 3829,
      "hler": 3830,
      "iled": 3831,
      "ze": 3832,
      "₁₃": 3833,
      "isSheaf": 3834,
      "Continu": 3835,
      "valid": 3836,
      "ContinuousFunction": 3837,
      "Bl": 3838,
      "walk": 3839,
      "ColimitsOfShape": 3840,
      "measur": 3841,
      "enter": 3842,
      "Coprod": 3843,
      "lookup": 3844,
      "LocallyFinite": 3845,
      "statement": 3846,
      "Alter": 3847,
      "Tree": 3848,
      "ivary": 3849,
      "Derivation": 3850,
      "applic": 3851,
      "izes": 3852,
      "hζ": 3853,
      "start": 3854,
      "sublist": 3855,
      "cocompact": 3856,
      "TM2": 3857,
      "Dede": 3858,
      "hasBasis": 3859,
      "There": 3860,
      "circum": 3861,
      "Boolean": 3862,
      "ung": 3863,
      "OrderDual": 3864,
      "generalizing": 3865,
      "Deg": 3866,
      "traction": 3867,
      "Orthonormal": 3868,
      "Sep": 3869,
      "avoid": 3870,
      "via": 3871,
      "arbitrary": 3872,
      "Hy": 3873,
      "eter": 3874,
      "projective": 3875,
      "thes": 3876,
      "PrimeSpectrum": 3877,
      "baseSet": 3878,
      "tf": 3879,
      "Hahn": 3880,
      "Redu": 3881,
      "hτ": 3882,
      "tree": 3883,
      "alizers": 3884,
      "ference": 3885,
      "GLB": 3886,
      "99": 3887,
      "Computation": 3888,
      "Fiber": 3889,
      "Len": 3890,
      "expr": 3891,
      "LieModule": 3892,
      "LocallyConstant": 3893,
      "Edist": 3894,
      "IsOpenImmersion": 3895,
      "Orientation": 3896,
      "euclidean": 3897,
      "Rep": 3898,
      "integer": 3899,
      "Calc": 3900,
      "7c": 3901,
      "tower": 3902,
      "pected": 3903,
      "Compacts": 3904,
      "degener": 3905,
      "neighborhood": 3906,
      "could": 3907,
      "OfPreserves": 3908,
      "EqOn": 3909,
      "₂₁": 3910,
      "rem": 3911,
      "iding": 3912,
      "traverse": 3913,
      "SemilatticeSup": 3914,
      "around": 3915,
      "Hölzl": 3916,
      "loop": 3917,
      "uniformly": 3918,
      "annes": 3919,
      "midpoint": 3920,
      "Johannes": 3921,
      "npow": 3922,
      "necess": 3923,
      "Construct": 3924,
      "MulOneClass": 3925,
      "Partrec": 3926,
      "86": 3927,
      "opens": 3928,
      "home": 3929,
      "derivWithin": 3930,
      "md": 3931,
      "ConvexOn": 3932,
      "symmDiff": 3933,
      "prev": 3934,
      "Sym2": 3935,
      "ready": 3936,
      "sch": 3937,
      "slice": 3938,
      "MeasurePreserving": 3939,
      "ComplexShape": 3940,
      "cofinite": 3941,
      "iom": 3942,
      "etriz": 3943,
      "covBy": 3944,
      "85": 3945,
      "MOD": 3946,
      "noncomm": 3947,
      "invOf": 3948,
      "Localized": 3949,
      "simpNF": 3950,
      "strongly": 3951,
      "AddGroupHom": 3952,
      "Rot": 3953,
      "inates": 3954,
      "Morphisms": 3955,
      "inherit": 3956,
      "erg": 3957,
      "isation": 3958,
      "Germ": 3959,
      "ofComponents": 3960,
      "RatFunc": 3961,
      "blocks": 3962,
      "compatible": 3963,
      "Subgraph": 3964,
      "normalizer": 3965,
      "Splitting": 3966,
      "multiples": 3967,
      "79": 3968,
      "bson": 3969,
      "nal": 3970,
      "inhabited": 3971,
      "satisfying": 3972,
      "infi": 3973,
      "monad": 3974,
      "Fan": 3975,
      "pseudo": 3976,
      "wide": 3977,
      "xy": 3978,
      "imo": 3979,
      "FiniteKernel": 3980,
      "dite": 3981,
      "east": 3982,
      "evaluation": 3983,
      "vious": 3984,
      "ZF": 3985,
      "hα": 3986,
      "meta": 3987,
      "HasDerivWithinAt": 3988,
      "returns": 3989,
      "Curve": 3990,
      "xp": 3991,
      "already": 3992,
      "through": 3993,
      "HasSum": 3994,
      "discr": 3995,
      "hδ": 3996,
      "TransGen": 3997,
      "MVars": 3998,
      "Blocks": 3999,
      "decompose": 4000,
      "iou": 4001,
      "Formal": 4002,
      "Resolution": 4003,
      "tfae": 4004,
      "arcsin": 4005,
      "germ": 4006,
      "ContinuousLinearEquiv": 4007,
      "uses": 4008,
      "uster": 4009,
      "ofFn": 4010,
      "nection": 4011,
      "primitive": 4012,
      "ZeroSMul": 4013,
      "Arrows": 4014,
      "mapRange": 4015,
      "ZeroSMulDivisors": 4016,
      "mas": 4017,
      "specialize": 4018,
      "InnerProductSpace": 4019,
      "Lat": 4020,
      "rTensor": 4021,
      "almost": 4022,
      "Lebesgue": 4023,
      "Simplicial": 4024,
      "bool": 4025,
      "ued": 4026,
      "Functions": 4027,
      "Semiconj": 4028,
      "measurability": 4029,
      "Lim": 4030,
      "ile": 4031,
      "ske": 4032,
      "cale": 4033,
      "Constru": 4034,
      "SigmaFinite": 4035,
      "24": 4036,
      "pmap": 4037,
      "inline": 4038,
      "CC": 4039,
      "fld": 4040,
      "mkApp": 4041,
      "Diagram": 4042,
      "ffectiveEpi": 4043,
      "CountableTopology": 4044,
      "Instances": 4045,
      "bddAbove": 4046,
      "Periodic": 4047,
      "hand": 4048,
      "determin": 4049,
      "andard": 4050,
      "operations": 4051,
      "Lindelof": 4052,
      "mfld": 4053,
      "cardinality": 4054,
      "StructuredArrow": 4055,
      "Calculus": 4056,
      "hasFDerivWithinAt": 4057,
      "Forget": 4058,
      "PosNum": 4059,
      "Roots": 4060,
      "Triv": 4061,
      "BorelSpace": 4062,
      "preserving": 4063,
      "lev": 4064,
      "expected": 4065,
      "OrderTop": 4066,
      "getElem": 4067,
      "equals": 4068,
      "ContDiffOn": 4069,
      "Line": 4070,
      "polar": 4071,
      "IsP": 4072,
      "hlt": 4073,
      "martingale": 4074,
      "csSup": 4075,
      "Extend": 4076,
      "isomorphisms": 4077,
      "rules": 4078,
      "irrefl": 4079,
      "hbc": 4080,
      "provide": 4081,
      "BddAbove": 4082,
      "WSeq": 4083,
      "MulHom": 4084,
      "LocalizedModule": 4085,
      "b3": 4086,
      "Theorems": 4087,
      "ij": 4088,
      "everywhere": 4089,
      "analytic": 4090,
      "Lemmas": 4091,
      "permutations": 4092,
      "11": 4093,
      "cthickening": 4094,
      "reflection": 4095,
      "combination": 4096,
      "ister": 4097,
      "aves": 4098,
      "94": 4099,
      "Moves": 4100,
      "dedup": 4101,
      "Turing": 4102,
      "toRingHom": 4103,
      "consider": 4104,
      "AffineMap": 4105,
      "valued": 4106,
      "casesOn": 4107,
      "Generated": 4108,
      "she": 4109,
      "BoundedFormula": 4110,
      "HasFDerivWithinAt": 4111,
      "deriving": 4112,
      "doesn": 4113,
      "LipschitzWith": 4114,
      "LSeries": 4115,
      "lyOrdered": 4116,
      "subsemiring": 4117,
      "preadditive": 4118,
      "ulli": 4119,
      "noulli": 4120,
      "degenerate": 4121,
      "pret": 4122,
      "Arith": 4123,
      "gauge": 4124,
      "encard": 4125,
      "MultilinearSeries": 4126,
      "zeroLocus": 4127,
      "Different": 4128,
      "Diagonal": 4129,
      "Encodable": 4130,
      "operation": 4131,
      "Dedekind": 4132,
      "iation": 4133,
      "cyclic": 4134,
      "T2Space": 4135,
      "wf": 4136,
      "ba": 4137,
      "les": 4138,
      "igens": 4139,
      "nonZeroDivisors": 4140,
      "SheafedSpace": 4141,
      "rotation": 4142,
      "orners": 4143,
      "igenspace": 4144,
      "env": 4145,
      "exacts": 4146,
      "proofs": 4147,
      "DivisionRing": 4148,
      "Can": 4149,
      "Level": 4150,
      "ProbabilityMeasure": 4151,
      "FPowerSeries": 4152,
      "outer": 4153,
      "transfer": 4154,
      "hasDerivWithinAt": 4155,
      "ood": 4156,
      "differentiableWithinAt": 4157,
      "lied": 4158,
      "Generalized": 4159,
      "HS": 4160,
      "Yoneda": 4161,
      "Derived": 4162,
      "1e": 4163,
      "remove": 4164,
      "IsCompl": 4165,
      "Equi": 4166,
      "homomorphisms": 4167,
      "hμs": 4168,
      "decode": 4169,
      "subsemigroup": 4170,
      "derived": 4171,
      "say": 4172,
      "ctan": 4173,
      "HomEquiv": 4174,
      "eventuallyEq": 4175,
      "PseudoMetricSpace": 4176,
      "7f": 4177,
      "structures": 4178,
      "WithCorners": 4179,
      "Glue": 4180,
      "50": 4181,
      "70": 4182,
      "fields": 4183,
      "OfUn": 4184,
      "Lawful": 4185,
      "convolution": 4186,
      "EventuallyEq": 4187,
      "FormalMultilinearSeries": 4188,
      "sublists": 4189,
      "heyting": 4190,
      "ConcaveOn": 4191,
      "atrices": 4192,
      "IsPrimitiveRoot": 4193,
      "adiction": 4194,
      "sound": 4195,
      "submatrix": 4196,
      "OfLE": 4197,
      "Hu": 4198,
      "Sequence": 4199,
      "Reference": 4200,
      "ambd": 4201,
      "axiom": 4202,
      "imil": 4203,
      "Analytic": 4204,
      "Factorization": 4205,
      "asymptotics": 4206,
      "OfUnity": 4207,
      "toIco": 4208,
      "linearMap": 4209,
      "AddCommGrp": 4210,
      "contained": 4211,
      "imilar": 4212,
      "sInter": 4213,
      "Sur": 4214,
      "Reflect": 4215,
      "NonUnitalNonAssocSemiring": 4216,
      "SemilatticeInf": 4217,
      "ilingDegree": 4218,
      "Word": 4219,
      "called": 4220,
      "generalized": 4221,
      "ling": 4222,
      "toIoc": 4223,
      "simplicial": 4224,
      "IsCoprime": 4225,
      "Equivalent": 4226,
      "mak": 4227,
      "inducing": 4228,
      "Strong": 4229,
      "tration": 4230,
      "HasZero": 4231,
      "ConcreteCategory": 4232,
      "Alternating": 4233,
      "ilter": 4234,
      "arctan": 4235,
      "geometric": 4236,
      "FreeGroup": 4237,
      "iltered": 4238,
      "73": 4239,
      "Oper": 4240,
      "don": 4241,
      "either": 4242,
      "p1": 4243,
      "p2": 4244,
      "fully": 4245,
      "padicVal": 4246,
      "nonnegative": 4247,
      "RightInverse": 4248,
      "upperBounds": 4249,
      "CharZero": 4250,
      "sn": 4251,
      "arily": 4252,
      "mapping": 4253,
      "lobal": 4254,
      "LeftInverse": 4255,
      "arrows": 4256,
      "taking": 4257,
      "Wide": 4258,
      "toMeasurable": 4259,
      "destruct": 4260,
      "Infty": 4261,
      "verts": 4262,
      "StarSubalgebra": 4263,
      "linder": 4264,
      "iteratedFDerivWithin": 4265,
      "ice": 4266,
      "must": 4267,
      "VSub": 4268,
      "erexample": 4269,
      "Unitization": 4270,
      "QuotientGroup": 4271,
      "thesis": 4272,
      "jes": 4273,
      "mer": 4274,
      "ltjes": 4275,
      "provided": 4276,
      "Ya": 4277,
      "LinearIsometryEquiv": 4278,
      "boundary": 4279,
      "AddMonoidAlgebra": 4280,
      "mean": 4281,
      "References": 4282,
      "Che": 4283,
      "zeta": 4284,
      "compare": 4285,
      "ively": 4286,
      "current": 4287,
      "average": 4288,
      "dimension": 4289,
      "zipWith": 4290,
      "Differential": 4291,
      "Ke": 4292,
      "Complement": 4293,
      "keys": 4294,
      "failed": 4295,
      "Arithmetic": 4296,
      "quaternion": 4297,
      "common": 4298,
      "insertNth": 4299,
      "abilizer": 4300,
      "Yaël": 4301,
      "logb": 4302,
      "relations": 4303,
      "algHom": 4304,
      "require": 4305,
      "CDF": 4306,
      "attern": 4307,
      "NormedAddGroupHom": 4308,
      "Weierstrass": 4309,
      "Dill": 4310,
      "m0": 4311,
      "adm": 4312,
      "Dillies": 4313,
      "being": 4314,
      "Valid": 4315,
      "Triang": 4316,
      "43": 4317,
      "numer": 4318,
      "UniformContinuous": 4319,
      "those": 4320,
      "orthonormal": 4321,
      "csInf": 4322,
      "hσ": 4323,
      "applied": 4324,
      "dirac": 4325,
      "contradiction": 4326,
      "SeminormedAddCommGroup": 4327,
      "Rad": 4328,
      "sr": 4329,
      "hav": 4330,
      "Clopen": 4331,
      "commutator": 4332,
      "Log": 4333,
      "says": 4334,
      "induces": 4335,
      "codRestrict": 4336,
      "division": 4337,
      "borel": 4338,
      "b5": 4339,
      "cd": 4340,
      "creates": 4341,
      "ged": 4342,
      "ole": 4343,
      "issu": 4344,
      "toSubmodule": 4345,
      "mulVec": 4346,
      "normalizedFactors": 4347,
      "Names": 4348,
      "digits": 4349,
      "nhdsSet": 4350,
      "ordinate": 4351,
      "Fac": 4352,
      "infin": 4353,
      "imod": 4354,
      "statements": 4355,
      "states": 4356,
      "perfect": 4357,
      "Dep": 4358,
      "vanishing": 4359,
      "ConstSMul": 4360,
      "IsPrime": 4361,
      "sends": 4362,
      "TypeVec": 4363,
      "ichotom": 4364,
      "PullbackCone": 4365,
      "Ba": 4366,
      "grade": 4367,
      "solution": 4368,
      "extract": 4369,
      "dest": 4370,
      "comparison": 4371,
      "Env": 4372,
      "weightSpace": 4373,
      "HasStrictFDerivAt": 4374,
      "ins": 4375,
      "eqOn": 4376,
      "mapDomain": 4377,
      "Insert": 4378,
      "Preimage": 4379,
      "Idem": 4380,
      "olvable": 4381,
      "toFinsupp": 4382,
      "Subfield": 4383,
      "Continued": 4384,
      "HahnSeries": 4385,
      "ail": 4386,
      "gment": 4387,
      "lean4": 4388,
      "LatticeHom": 4389,
      "ablyGenerated": 4390,
      "ussian": 4391,
      "repe": 4392,
      "Config": 4393,
      "close": 4394,
      "balanced": 4395,
      "coefficients": 4396,
      "OnWith": 4397,
      "Cycles": 4398,
      "hfi": 4399,
      "stack": 4400,
      "kh": 4401,
      "lexive": 4402,
      "Factorial": 4403,
      "Acc": 4404,
      "Cases": 4405,
      "EMetricSpace": 4406,
      "Half": 4407,
      "geom": 4408,
      "Combination": 4409,
      "ibil": 4410,
      "contract": 4411,
      "80": 4412,
      "Use": 4413,
      "ech": 4414,
      "ofHom": 4415,
      "spanning": 4416,
      "NonUnitalSubsemiring": 4417,
      "containing": 4418,
      "fd": 4419,
      "emetric": 4420,
      "plus": 4421,
      "reasing": 4422,
      "ZFSet": 4423,
      "7e": 4424,
      "c3": 4425,
      "cker": 4426,
      "83": 4427,
      "Ul": 4428,
      "uncated": 4429,
      "uple": 4430,
      "Cons": 4431,
      "DecidableRel": 4432,
      "wik": 4433,
      "Transpose": 4434,
      "ContinuedFraction": 4435,
      "turing": 4436,
      "codomain": 4437,
      "equi": 4438,
      "colum": 4439,
      "central": 4440,
      "Null": 4441,
      "oot": 4442,
      "rwitz": 4443,
      "fromBlocks": 4444,
      "zpowers": 4445,
      "ctions": 4446,
      "GroupTheory": 4447,
      "NoZeroSMulDivisors": 4448,
      "82": 4449,
      "LIntegral": 4450,
      "another": 4451,
      "bernoulli": 4452,
      "register": 4453,
      "Forall": 4454,
      "Absolute": 4455,
      "GrothendieckTopology": 4456,
      "Torsion": 4457,
      "nadd": 4458,
      "usu": 4459,
      "entries": 4460,
      "sorry": 4461,
      "bf": 4462,
      "obtained": 4463,
      "connectedComponent": 4464,
      "think": 4465,
      "always": 4466,
      "process": 4467,
      "OrderedSemiring": 4468,
      "stein": 4469,
      "CentralSeries": 4470,
      "95": 4471,
      "Bump": 4472,
      "Message": 4473,
      "assume": 4474,
      "whiskering": 4475,
      "call": 4476,
      "idget": 4477,
      "GroupWithZero": 4478,
      "differ": 4479,
      "Applic": 4480,
      "64": 4481,
      "Target": 4482,
      "cro": 4483,
      "transitive": 4484,
      "Notation": 4485,
      "Heap": 4486,
      "failure": 4487,
      "iIndep": 4488,
      "toEnd": 4489,
      "setLIntegral": 4490,
      "LieSubalgebra": 4491,
      "ow": 4492,
      "These": 4493,
      "intersection": 4494,
      "unk": 4495,
      "ico": 4496,
      "Substructure": 4497,
      "aylor": 4498,
      "Row": 4499,
      "large": 4500,
      "setToL1": 4501,
      "65": 4502,
      "GCD": 4503,
      "long": 4504,
      "asc": 4505,
      "opcycles": 4506,
      "ordan": 4507,
      "LimitsOfSize": 4508,
      "Second": 4509,
      "So": 4510,
      "takes": 4511,
      "war": 4512,
      "InjOn": 4513,
      "OfFin": 4514,
      "subsets": 4515,
      "infsep": 4516,
      "annihilator": 4517,
      "Trivialization": 4518,
      "Bimod": 4519,
      "lta": 4520,
      "print": 4521,
      "aehler": 4522,
      "Modular": 4523,
      "Whisker": 4524,
      "Fixed": 4525,
      "HEq": 4526,
      "hig": 4527,
      "Subcategory": 4528,
      "AtFilter": 4529,
      "wellFounded": 4530,
      "components": 4531,
      "tauto": 4532,
      "unitIso": 4533,
      "hypothesis": 4534,
      "PI": 4535,
      "prob": 4536,
      "how": 4537,
      "Stmt": 4538,
      "herence": 4539,
      "SimplicialObject": 4540,
      "lTensor": 4541,
      "toLinearEquiv": 4542,
      "filtered": 4543,
      "binator": 4544,
      "otherwise": 4545,
      "equation": 4546,
      "content": 4547,
      "want": 4548,
      "mulLeft": 4549,
      "search": 4550,
      "homMk": 4551,
      "Plane": 4552,
      "ZNum": 4553,
      "bas": 4554,
      "formul": 4555,
      "compProd": 4556,
      "smulRight": 4557,
      "ArithmeticFunction": 4558,
      "Padic": 4559,
      "versable": 4560,
      "truncate": 4561,
      "implicit": 4562,
      "remum": 4563,
      "HasLimit": 4564,
      "Auxiliary": 4565,
      "fractional": 4566,
      "Ct": 4567,
      "Eval": 4568,
      "Limp": 4569,
      "give": 4570,
      "lyNormedField": 4571,
      "WithLp": 4572,
      "vectorSpan": 4573,
      "ibility": 4574,
      "Limperg": 4575,
      "bel": 4576,
      "kr": 4577,
      "emb": 4578,
      "notes": 4579,
      "equalities": 4580,
      "vil": 4581,
      "remain": 4582,
      "rather": 4583,
      "urent": 4584,
      "countP": 4585,
      "Covering": 4586,
      "automat": 4587,
      "SimplexCategory": 4588,
      "ville": 4589,
      "Me": 4590,
      "gf": 4591,
      "ₗᵢ": 4592,
      "concat": 4593,
      "etail": 4594,
      "conjTranspose": 4595,
      "ContDiffWithinAt": 4596,
      "CyclotomicExtension": 4597,
      "L2": 4598,
      "atives": 4599,
      "subgraph": 4600,
      "Blank": 4601,
      "Jann": 4602,
      "f2": 4603,
      "cobounded": 4604,
      "IsRight": 4605,
      "duces": 4606,
      "flag": 4607,
      "liftOn": 4608,
      "IsSheaf": 4609,
      "lowerBounds": 4610,
      "HomotopyCategory": 4611,
      "Jannis": 4612,
      "lect": 4613,
      "revert": 4614,
      "LocalizationMap": 4615,
      "bounds": 4616,
      "Whi": 4617,
      "reflect": 4618,
      "ilation": 4619,
      "operator": 4620,
      "follows": 4621,
      "isLUB": 4622,
      "projections": 4623,
      "NNRat": 4624,
      "possible": 4625,
      "While": 4626,
      "H1": 4627,
      "ris": 4628,
      "ichain": 4629,
      "been": 4630,
      "Ultrafilter": 4631,
      "belong": 4632,
      "My": 4633,
      "toMeasure": 4634,
      "string": 4635,
      "Perfect": 4636,
      "Ess": 4637,
      "ilt": 4638,
      "summ": 4639,
      "Repres": 4640,
      "Orig": 4641,
      "prec": 4642,
      "WellOrder": 4643,
      "declarations": 4644,
      "Imo": 4645,
      "Match": 4646,
      "hip": 4647,
      "StrictAnti": 4648,
      "Computable": 4649,
      "Riou": 4650,
      "sieve": 4651,
      "Homotopic": 4652,
      "affineCombination": 4653,
      "merge": 4654,
      "03": 4655,
      "mat": 4656,
      "pointed": 4657,
      "Joël": 4658,
      "BddBelow": 4659,
      "EuclideanGeometry": 4660,
      "Params": 4661,
      "Creates": 4662,
      "toLp": 4663,
      "oph": 4664,
      "Modules": 4665,
      "Mass": 4666,
      "tgt": 4667,
      "ym": 4668,
      "lifts": 4669,
      "NormedRing": 4670,
      "distribut": 4671,
      "approxim": 4672,
      "glue": 4673,
      "snoc": 4674,
      "62": 4675,
      "PM": 4676,
      "Signed": 4677,
      "addHaar": 4678,
      "memℒp": 4679,
      "Stone": 4680,
      "insertion": 4681,
      "Act": 4682,
      "ilipschitz": 4683,
      "IsMin": 4684,
      "prefix": 4685,
      "StarAlgHom": 4686,
      "NonAssocRing": 4687,
      "stopped": 4688,
      "zel": 4689,
      "ofList": 4690,
      "isPrime": 4691,
      "entially": 4692,
      "mor": 4693,
      "os": 4694,
      "toMonoidHom": 4695,
      "cylinder": 4696,
      "epimorphism": 4697,
      "bijection": 4698,
      "SignedMeasure": 4699,
      "tl": 4700,
      "stabilizer": 4701,
      "coyoneda": 4702,
      "getD": 4703,
      "ratio": 4704,
      "pushforward": 4705,
      "CancelCommMonoid": 4706,
      "dimH": 4707,
      "Matroid": 4708,
      "bir": 4709,
      "infix": 4710,
      "ats": 4711,
      "hyz": 4712,
      "forgetful": 4713,
      "ContDiffAt": 4714,
      "Cmd": 4715,
      "Mag": 4716,
      "erior": 4717,
      "delete": 4718,
      "integers": 4719,
      "IsLeft": 4720,
      "cannot": 4721,
      "NontriviallyNormedField": 4722,
      "ε0": 4723,
      "IsNilpotent": 4724,
      "ModEq": 4725,
      "boxes": 4726,
      "Magma": 4727,
      "delta": 4728,
      "Approx": 4729,
      "ash": 4730,
      "OrderedRing": 4731,
      "IsSymm": 4732,
      "pairs": 4733,
      "chartAt": 4734,
      "PMF": 4735,
      "Manifold": 4736,
      "Ret": 4737,
      "equip": 4738,
      "universal": 4739,
      "doub": 4740,
      "Parallel": 4741,
      "converges": 4742,
      "works": 4743,
      "dotProduct": 4744,
      "hL": 4745,
      "mi": 4746,
      "SemiRingCat": 4747,
      "padicNorm": 4748,
      "analysis": 4749,
      "sbtw": 4750,
      "reach": 4751,
      "gether": 4752,
      "ilder": 4753,
      "minFac": 4754,
      "ideals": 4755,
      "Character": 4756,
      "contDiffOn": 4757,
      "e4": 4758,
      "IsCyclotomicExtension": 4759,
      "Connection": 4760,
      "Monovary": 4761,
      "Segment": 4762,
      "Conv": 4763,
      "negative": 4764,
      "2018": 4765,
      "separated": 4766,
      "collection": 4767,
      "ished": 4768,
      "Goals": 4769,
      "negSucc": 4770,
      "supremum": 4771,
      "posed": 4772,
      "ordConnected": 4773,
      "centroid": 4774,
      "Parser": 4775,
      "apes": 4776,
      "verg": 4777,
      "Converg": 4778,
      "generalize": 4779,
      "huv": 4780,
      "Eric": 4781,
      "org": 4782,
      "system": 4783,
      "Antivary": 4784,
      "representation": 4785,
      "archimedean": 4786,
      "Des": 4787,
      "arr": 4788,
      "mapIso": 4789,
      "elin": 4790,
      "Ortho": 4791,
      "pliable": 4792,
      "Transform": 4793,
      "VectorMeasure": 4794,
      "Sin": 4795,
      "matrices": 4796,
      "sending": 4797,
      "unused": 4798,
      "stable": 4799,
      "IsNoetherian": 4800,
      "finsum": 4801,
      "Commelin": 4802,
      "congrArg": 4803,
      "HasColimit": 4804,
      "before": 4805,
      "splitting": 4806,
      "StarRing": 4807,
      "initialize": 4808,
      "RBNode": 4809,
      "7b": 4810,
      "Jaco": 4811,
      "times": 4812,
      "cospan": 4813,
      "Orthogonal": 4814,
      "Involutive": 4815,
      "singularPart": 4816,
      "help": 4817,
      "princip": 4818,
      "CompactSupport": 4819,
      "Pointed": 4820,
      "ByMonic": 4821,
      "separating": 4822,
      "bol": 4823,
      "ultrafilter": 4824,
      "Process": 4825,
      "UpToIso": 4826,
      "DF": 4827,
      "coproduct": 4828,
      "subobject": 4829,
      "paren": 4830,
      "charpoly": 4831,
      "weightedVSub": 4832,
      "parallelPair": 4833,
      "01": 4834,
      "Every": 4835,
      "toEmbedding": 4836,
      "tien": 4837,
      "MvPowerSeries": 4838,
      "surd": 4839,
      "balance": 4840,
      "CochainComplex": 4841,
      "Bal": 4842,
      "mop": 4843,
      "inversion": 4844,
      "imm": 4845,
      "appe": 4846,
      "bddBelow": 4847,
      "LinearOrderedField": 4848,
      "ChartedSpace": 4849,
      "elfAdjoint": 4850,
      "GradedObject": 4851,
      "Balanced": 4852,
      "Dvd": 4853,
      "mapBifunctor": 4854,
      "itting": 4855,
      "KernelFork": 4856,
      "nfp": 4857,
      "necessary": 4858,
      "ares": 4859,
      "bar": 4860,
      "lb": 4861,
      "rol": 4862,
      "toAffine": 4863,
      "absurd": 4864,
      "BoundedOrder": 4865,
      "provides": 4866,
      "Push": 4867,
      "difference": 4868,
      "PFunctor": 4869,
      "WF": 4870,
      "toAlgHom": 4871,
      "onecker": 4872,
      "prodMap": 4873,
      "clm": 4874,
      "clusion": 4875,
      "hyper": 4876,
      "differentiableOn": 4877,
      "respects": 4878,
      "DedekindDomain": 4879,
      "Kaehler": 4880,
      "ciSup": 4881,
      "man": 4882,
      "pnat": 4883,
      "Ordering": 4884,
      "maximum": 4885,
      "color": 4886,
      "Gou": 4887,
      "IsSplit": 4888,
      "UniqueDiff": 4889,
      "Associated": 4890,
      "Johan": 4891,
      "mfderiv": 4892,
      "biInter": 4893,
      "theses": 4894,
      "lash": 4895,
      "IsBigOWith": 4896,
      "Ed": 4897,
      "Square": 4898,
      "ground": 4899,
      "mdiff": 4900,
      "ensive": 4901,
      "forms": 4902,
      "variance": 4903,
      "topologicalClosure": 4904,
      "Antidiagonal": 4905,
      "proves": 4906,
      "fvarId": 4907,
      "coordChange": 4908,
      "CokernelCofork": 4909,
      "Elements": 4910,
      "automatically": 4911,
      "inct": 4912,
      "ingu": 4913,
      "Thru": 4914,
      "limitCone": 4915,
      "expressions": 4916,
      "bastien": 4917,
      "Sé": 4918,
      "hH": 4919,
      "pattern": 4920,
      "ëzel": 4921,
      "enough": 4922,
      "standard": 4923,
      "complet": 4924,
      "hba": 4925,
      "ropical": 4926,
      "MonoidalFunctor": 4927,
      "jacobson": 4928,
      "declaration": 4929,
      "Gouëzel": 4930,
      "Sébastien": 4931,
      "Bicategory": 4932,
      "EffectiveEpi": 4933,
      "t2": 4934,
      "hether": 4935,
      "infEdist": 4936,
      "computation": 4937,
      "urns": 4938,
      "NonUnitalSubalgebra": 4939,
      "translation": 4940,
      "Dir": 4941,
      "Jordan": 4942,
      "gram": 4943,
      "IsAdd": 4944,
      "nonUnital": 4945,
      "LiftRel": 4946,
      "baseChange": 4947,
      "Greatest": 4948,
      "VAdd": 4949,
      "together": 4950,
      "involutive": 4951,
      "equalizers": 4952,
      "PowerBasis": 4953,
      "KaehlerDifferential": 4954,
      "decomposition": 4955,
      "Inseparable": 4956,
      "mk0": 4957,
      "mkOf": 4958,
      "NormNum": 4959,
      "nown": 4960,
      "formPerm": 4961,
      "Positive": 4962,
      "setToFun": 4963,
      "binatorics": 4964,
      "Bilinear": 4965,
      "Fil": 4966,
      "eb": 4967,
      "uler": 4968,
      "adapt": 4969,
      "distingu": 4970,
      "absolutely": 4971,
      "jacobiTheta": 4972,
      "89": 4973,
      "QP": 4974,
      "cb": 4975,
      "eigen": 4976,
      "gith": 4977,
      "IsCycle": 4978,
      "sums": 4979,
      "constructed": 4980,
      "DefEq": 4981,
      "skew": 4982,
      "founded": 4983,
      "asIso": 4984,
      "loat": 4985,
      "evalu": 4986,
      "intervals": 4987,
      "ambda": 4988,
      "ency": 4989,
      "HasHomology": 4990,
      "BooleanAlgebra": 4991,
      "github": 4992,
      "Induction": 4993,
      "nilpotent": 4994,
      "sheafify": 4995,
      "Light": 4996,
      "chang": 4997,
      "instanti": 4998,
      "divInt": 4999,
      "Presentation": 5000,
      "Heyting": 5001,
      "hammer": 5002,
      "yle": 5003,
      "ari": 5004,
      "hnm": 5005,
      "NoZeroDivisors": 5006,
      "OrthonormalBasis": 5007,
      "SecondCountableTopology": 5008,
      "Dold": 5009,
      "unsafe": 5010,
      "toSet": 5011,
      "toString": 5012,
      "IsAlgebraic": 5013,
      "IsFractionRing": 5014,
      "sups": 5015,
      "squarefree": 5016,
      "Canonical": 5017,
      "8d": 5018,
      "squ": 5019,
      "als": 5020,
      "cexp": 5021,
      "IsCo": 5022,
      "ress": 5023,
      "related": 5024,
      "Height": 5025,
      "primes": 5026,
      "Origin": 5027,
      "BEq": 5028,
      "bilin": 5029,
      "proposition": 5030,
      "ensed": 5031,
      "isOpenMap": 5032,
      "Elim": 5033,
      "None": 5034,
      "Taylor": 5035,
      "macro": 5036,
      "openEmbedding": 5037,
      "itten": 5038,
      "Sylow": 5039,
      "moveLeft": 5040,
      "IntervalIntegrable": 5041,
      "principle": 5042,
      "Bit": 5043,
      "hts": 5044,
      "SemiconjBy": 5045,
      "GlueData": 5046,
      "84": 5047,
      "while": 5048,
      "unitary": 5049,
      "BoundedContinuousFunction": 5050,
      "constantCoeff": 5051,
      "stdBasis": 5052,
      "oung": 5053,
      "inseparable": 5054,
      "eness": 5055,
      "homologyMap": 5056,
      "written": 5057,
      "elabor": 5058,
      "cfcₙ": 5059,
      "Definition": 5060,
      "Since": 5061,
      "ef": 5062,
      "sp": 5063,
      "mulRight": 5064,
      "preorder": 5065,
      "Body": 5066,
      "smaller": 5067,
      "isSome": 5068,
      "7d": 5069,
      "API": 5070,
      "Ho": 5071,
      "ML": 5072,
      "a4": 5073,
      "ElabM": 5074,
      "Check": 5075,
      "Von": 5076,
      "isimp": 5077,
      "coinc": 5078,
      "plane": 5079,
      "Cluster": 5080,
      "ieser": 5081,
      "CountablyGenerated": 5082,
      "Bundled": 5083,
      "AlternatingMap": 5084,
      "repeat": 5085,
      "isimple": 5086,
      "76": 5087,
      "Wieser": 5088,
      "til": 5089,
      "isPreconnected": 5090,
      "tinian": 5091,
      "blockDiagonal": 5092,
      "kronecker": 5093,
      "similar": 5094,
      "vis": 5095,
      "IsPullback": 5096,
      "posable": 5097,
      "OfModules": 5098,
      "interpret": 5099,
      "functorial": 5100,
      "rame": 5101,
      "Ctx": 5102,
      "74": 5103,
      "Bra": 5104,
      "bUnion": 5105,
      "alt": 5106,
      "isP": 5107,
      "ement": 5108,
      "toSubalgebra": 5109,
      "monoids": 5110,
      "Principal": 5111,
      "factorThru": 5112,
      "GeneralizedContinuedFraction": 5113,
      "crossing": 5114,
      "unless": 5115,
      "Extr": 5116,
      "AddMonoidWithOne": 5117,
      "Conditionally": 5118,
      "Operator": 5119,
      "sense": 5120,
      "Equalizer": 5121,
      "Period": 5122,
      "Irrational": 5123,
      "Place": 5124,
      "rwitzZeta": 5125,
      "Crossing": 5126,
      "PiLp": 5127,
      "Numbers": 5128,
      "Filtration": 5129,
      "distinguished": 5130,
      "MLList": 5131,
      "CrossingTime": 5132,
      "c2": 5133,
      "found": 5134,
      "relev": 5135,
      "LimitCone": 5136,
      "pectral": 5137,
      "AlgebraicTopology": 5138,
      "Rapp": 5139,
      "UInt": 5140,
      "rand": 5141,
      "yn": 5142,
      "IsPreconnected": 5143,
      "Mark": 5144,
      "SepDegree": 5145,
      "isCompl": 5146,
      "depth": 5147,
      "TopologicalAddGroup": 5148,
      "makes": 5149,
      "Den": 5150,
      "whether": 5151,
      "whole": 5152,
      "irrational": 5153,
      "OrderOf": 5154,
      "versions": 5155,
      "MonotoneOn": 5156,
      "hπ": 5157,
      "ListBlank": 5158,
      "syn": 5159,
      "sqrtd": 5160,
      "CauchySeq": 5161,
      "zmultiples": 5162,
      "Reflection": 5163,
      "FreeAbelian": 5164,
      "MemClass": 5165,
      "edgeSet": 5166,
      "scalars": 5167,
      "FreeAbelianGroup": 5168,
      "a3": 5169,
      "xor": 5170,
      "mulSingle": 5171,
      "preconnected": 5172,
      "linearly": 5173,
      "Binder": 5174,
      "hPz": 5175,
      "constants": 5176,
      "specializes": 5177,
      "Lemma": 5178,
      "Rem": 5179,
      "setoid": 5180,
      "corec": 5181,
      "RecOn": 5182,
      "semiconj": 5183,
      "Logic": 5184,
      "MessageData": 5185,
      "hnot": 5186,
      "ire": 5187,
      "user": 5188,
      "bracket": 5189,
      "consist": 5190,
      "Chris": 5191,
      "BinaryFan": 5192,
      "exponential": 5193,
      "differential": 5194,
      "e0": 5195,
      "lable": 5196,
      "had": 5197,
      "exactly": 5198,
      "orderIso": 5199,
      "bicone": 5200,
      "tensorHom": 5201,
      "collinear": 5202,
      "Nhds": 5203,
      "ulated": 5204,
      "notion": 5205,
      "ContinuousConstSMul": 5206,
      "wever": 5207,
      "ml": 5208,
      "ofAdd": 5209,
      "Nonneg": 5210,
      "Cofiltered": 5211,
      "directly": 5212,
      "required": 5213,
      "TrailingDegree": 5214,
      "AList": 5215,
      "ifies": 5216,
      "pell": 5217,
      "Coalgebra": 5218,
      "denot": 5219,
      "Curry": 5220,
      "include": 5221,
      "toIcoMod": 5222,
      "issues": 5223,
      "nm": 5224,
      "leftUnitor": 5225,
      "natTrailingDegree": 5226,
      "OfEq": 5227,
      "artes": 5228,
      "hasFinite": 5229,
      "MonoOver": 5230,
      "Biproduct": 5231,
      "fixedPoints": 5232,
      "ChainComplex": 5233,
      "existing": 5234,
      "toIocMod": 5235,
      "relevant": 5236,
      "herent": 5237,
      "unbounded": 5238,
      "concrete": 5239,
      "gest": 5240,
      "codisjoint": 5241,
      "Coset": 5242,
      "Arch": 5243,
      "GaloisConnection": 5244,
      "additional": 5245,
      "artesian": 5246,
      "rightUnitor": 5247,
      "Cospan": 5248,
      "assumptions": 5249,
      "Exponent": 5250,
      "Lit": 5251,
      "bb": 5252,
      "clog": 5253,
      "lax": 5254,
      "₁₁": 5255,
      "enne": 5256,
      "itali": 5257,
      "ark": 5258,
      "ofIso": 5259,
      "toAddMonoidHom": 5260,
      "toContinuousMap": 5261,
      "IsLocally": 5262,
      "braiding": 5263,
      "mkQ": 5264,
      "made": 5265,
      "ratCast": 5266,
      "auxiliary": 5267,
      "lowerCentralSeries": 5268,
      "TF": 5269,
      "detail": 5270,
      "Atlas": 5271,
      "InvOn": 5272,
      "hypotheses": 5273,
      "hasStrictDerivAt": 5274,
      "1Space": 5275,
      "Ids": 5276,
      "c0": 5277,
      "isNilpotent": 5278,
      "IsSeparable": 5279,
      "hoose": 5280,
      "Adic": 5281,
      "NullMeasurableSet": 5282,
      "mass": 5283,
      "s1": 5284,
      "Coequalizer": 5285,
      "Clique": 5286,
      "mathlib4": 5287,
      "BoolAlg": 5288,
      "GradedMonoid": 5289,
      "fourierIntegral": 5290,
      "IsInitial": 5291,
      "OnFun": 5292,
      "curve": 5293,
      "FreeMonoid": 5294,
      "complexes": 5295,
      "coroot": 5296,
      "Primcodable": 5297,
      "galois": 5298,
      "wart": 5299,
      "typein": 5300,
      "MeasurableEquiv": 5301,
      "bert": 5302,
      "LieIdeal": 5303,
      "Cmp": 5304,
      "greatest": 5305,
      "pSide": 5306,
      "s2": 5307,
      "tom": 5308,
      "⋃₀": 5309,
      "isGLB": 5310,
      "toAddSubmonoid": 5311,
      "toOuterMeasure": 5312,
      "sec": 5313,
      "trichotom": 5314,
      "etry": 5315,
      "finiteDimensional": 5316,
      "OppSide": 5317,
      "distinct": 5318,
      "LeftInvariant": 5319,
      "DistribLattice": 5320,
      "PseudoEMetricSpace": 5321,
      "BaseChange": 5322,
      "GCDMonoid": 5323,
      "wartz": 5324,
      "toAdd": 5325,
      "period": 5326,
      "QuotientAddGroup": 5327,
      "injEq": 5328,
      "sym2": 5329,
      "WeierstrassCurve": 5330,
      "Poc": 5331,
      "Rank": 5332,
      "Tangent": 5333,
      "hhammer": 5334,
      "wbtw": 5335,
      "tices": 5336,
      "PreservesFinite": 5337,
      "nthLe": 5338,
      "counitIso": 5339,
      "EuclideanSpace": 5340,
      "AbsoluteValue": 5341,
      "Pochhammer": 5342,
      "69": 5343,
      "PMap": 5344,
      "Script": 5345,
      "itian": 5346,
      "ermitian": 5347,
      "FilterBasis": 5348,
      "Universal": 5349,
      "Applicative": 5350,
      "global": 5351,
      "xn": 5352,
      "ords": 5353,
      "FinMeas": 5354,
      "assuming": 5355,
      "NumberField": 5356,
      "shiftFunctorAdd": 5357,
      "TFAE": 5358,
      "H2": 5359,
      "implement": 5360,
      "Coproducts": 5361,
      "Shapes": 5362,
      "Rules": 5363,
      "contDiffAt": 5364,
      "BinaryBiproduct": 5365,
      "Radical": 5366,
      "53": 5367,
      "my": 5368,
      "ycle": 5369,
      "rewrite": 5370,
      "IsZero": 5371,
      "EquivLike": 5372,
      "inferType": 5373,
      "ellin": 5374,
      "MaxOrder": 5375,
      "Cocycle": 5376,
      "gaussian": 5377,
      "KanExtension": 5378,
      "appear": 5379,
      "QPF": 5380,
      "cope": 5381,
      "HasPullback": 5382,
      "Prefix": 5383,
      "2017": 5384,
      "condKernel": 5385,
      "parency": 5386,
      "Ore": 5387,
      "big": 5388,
      "emy": 5389,
      "ofMul": 5390,
      "HasStrictDerivAt": 5391,
      "warning": 5392,
      "instantiate": 5393,
      "42": 5394,
      "na": 5395,
      "sl": 5396,
      "itch": 5397,
      "toPartialEquiv": 5398,
      "hp0": 5399,
      "declare": 5400,
      "SemiNormed": 5401,
      "minimalPeriod": 5402,
      "cauchySeq": 5403,
      "LHS": 5404,
      "eremy": 5405,
      "isLocal": 5406,
      "oft": 5407,
      "fork": 5408,
      "ansion": 5409,
      "relindex": 5410,
      "NonUnitalSubring": 5411,
      "ScalarTower": 5412,
      "triang": 5413,
      "BinaryCofan": 5414,
      "1d": 5415,
      "Float": 5416,
      "Jeremy": 5417,
      "bsup": 5418,
      "ofunctor": 5419,
      "toti": 5420,
      "hfs": 5421,
      "UniqueUpToIso": 5422,
      "hasStrictFDerivAt": 5423,
      "equipped": 5424,
      "Av": 5425,
      "Cob": 5426,
      "hat": 5427,
      "porting": 5428,
      "noetherian": 5429,
      "equivalences": 5430,
      "PointUniqueUpToIso": 5431,
      "body": 5432,
      "steps": 5433,
      "SplittingField": 5434,
      "totient": 5435,
      "Hol": 5436,
      "emann": 5437,
      "RuleSet": 5438,
      "ubic": 5439,
      "transformation": 5440,
      "DoldKan": 5441,
      "AC": 5442,
      "scale": 5443,
      "IsFiltered": 5444,
      "hac": 5445,
      "AddZeroClass": 5446,
      "Ann": 5447,
      "shows": 5448,
      "face": 5449,
      "explicitly": 5450,
      "FPowerSeriesOn": 5451,
      "posableArrows": 5452,
      "Pat": 5453,
      "TC": 5454,
      "eqv": 5455,
      "IsPushout": 5456,
      "ortion": 5457,
      "MapObj": 5458,
      "BigOper": 5459,
      "PDF": 5460,
      "Command": 5461,
      "piCongr": 5462,
      "filterMap": 5463,
      "RelPrime": 5464,
      "Join": 5465,
      "continued": 5466,
      "NumberTheory": 5467,
      "AntitoneOn": 5468,
      "blsub": 5469,
      "arccos": 5470,
      "ModelWithCorners": 5471,
      "VonN": 5472,
      "BigOperators": 5473,
      "done": 5474,
      "ented": 5475,
      "utf8": 5476,
      "topping": 5477,
      "Content": 5478,
      "declName": 5479,
      "potents": 5480,
      "cmd": 5481,
      "FilteredColimits": 5482,
      "Flag": 5483,
      "homeomorphism": 5484,
      "2d": 5485,
      "Try": 5486,
      "e3": 5487,
      "hint": 5488,
      "₂₂": 5489,
      "→⋆": 5490,
      "isMin": 5491,
      "isScalarTower": 5492,
      "simplex": 5493,
      "Compatible": 5494,
      "Splits": 5495,
      "VonNBounded": 5496,
      "Fres": 5497,
      "gre": 5498,
      "thm": 5499,
      "pol": 5500,
      "cochain": 5501,
      "Contra": 5502,
      "clifford": 5503,
      "correct": 5504,
      "ParallelPair": 5505,
      "Annihilator": 5506,
      "Sign": 5507,
      "igad": 5508,
      "array": 5509,
      "ilimit": 5510,
      "OfIso": 5511,
      "infs": 5512,
      "LocalRing": 5513,
      "src": 5514,
      "gmented": 5515,
      "FPowerSeriesOnBall": 5516,
      "Center": 5517,
      "P1": 5518,
      "IsMul": 5519,
      "Comma": 5520,
      "Std": 5521,
      "PiSystem": 5522,
      "Implicit": 5523,
      "vecMul": 5524,
      "vanishingIdeal": 5525,
      "rest": 5526,
      "actually": 5527,
      "IsTerminal": 5528,
      "prepartition": 5529,
      "Sups": 5530,
      "ordnode": 5531,
      "injection": 5532,
      "compactSpace": 5533,
      "Triple": 5534,
      "sequences": 5535,
      "convergent": 5536,
      "si": 5537,
      "hta": 5538,
      "amil": 5539,
      "LeftHomologyData": 5540,
      "output": 5541,
      "Semicontinuous": 5542,
      "SameSide": 5543,
      "HomologyMapData": 5544,
      "Cot": 5545,
      "Lax": 5546,
      "lsub": 5547,
      "ylor": 5548,
      "derive": 5549,
      "Repr": 5550,
      "rootSet": 5551,
      "taylor": 5552,
      "arger": 5553,
      "Cofix": 5554,
      "Trace": 5555,
      "reason": 5556,
      "Fourier": 5557,
      "toAlgebra": 5558,
      "endre": 5559,
      "clique": 5560,
      "adjugate": 5561,
      "IsLUB": 5562,
      "Pushforward": 5563,
      "Mac": 5564,
      "eps": 5565,
      "Colex": 5566,
      "countably": 5567,
      "totally": 5568,
      "nontriviality": 5569,
      "toppingTime": 5570,
      "amilies": 5571,
      "mrange": 5572,
      "emod": 5573,
      "final": 5574,
      "hcd": 5575,
      "stract": 5576,
      "PushoutCocone": 5577,
      "requires": 5578,
      "0Space": 5579,
      "ader": 5580,
      "b4": 5581,
      "f4": 5582,
      "mis": 5583,
      "word": 5584,
      "xx": 5585,
      "entence": 5586,
      "vertices": 5587,
      "openSegment": 5588,
      "linearEquiv": 5589,
      "odory": 5590,
      "WalkingPair": 5591,
      "isMaximal": 5592,
      "HashMap": 5593,
      "infinity": 5594,
      "belongs": 5595,
      "Ep": 5596,
      "infimum": 5597,
      "strictAnti": 5598,
      "orsor": 5599,
      "IsSelfAdjoint": 5600,
      "associates": 5601,
      "suffix": 5602,
      "Avigad": 5603,
      "Sphere": 5604,
      "manifold": 5605,
      "yet": 5606,
      "IsWellOrder": 5607,
      "bihimp": 5608,
      "files": 5609,
      "minimum": 5610,
      "Internal": 5611,
      "Entry": 5612,
      "DirectLimit": 5613,
      "midt": 5614,
      "sorted": 5615,
      "Weights": 5616,
      "pass": 5617,
      "toFinite": 5618,
      "Finmap": 5619,
      "Fract": 5620,
      "LieRing": 5621,
      "completed": 5622,
      "Pol": 5623,
      "encodable": 5624,
      "subfield": 5625,
      "project": 5626,
      "raw": 5627,
      "hash": 5628,
      "UniformOnFun": 5629,
      "intervalIntegrable": 5630,
      "decEq": 5631,
      "build": 5632,
      "osen": 5633,
      "FractPair": 5634,
      "comul": 5635,
      "chosen": 5636,
      "ereal": 5637,
      "LinearPMap": 5638,
      "defining": 5639,
      "Antichain": 5640,
      "proved": 5641,
      "Trunc": 5642,
      "allows": 5643,
      "changed": 5644,
      "Iter": 5645,
      "grothendieck": 5646,
      "asIdeal": 5647,
      "ofBijective": 5648,
      "subtraction": 5649,
      "Unop": 5650,
      "ccs": 5651,
      "isoWhisker": 5652,
      "homological": 5653,
      "arithmetic": 5654,
      "iteratedDeriv": 5655,
      "alternat": 5656,
      "Eigenspace": 5657,
      "Widget": 5658,
      "ea": 5659,
      "script": 5660,
      "toMul": 5661,
      "localized": 5662,
      "AEEq": 5663,
      "submodules": 5664,
      "seminormed": 5665,
      "admits": 5666,
      "μs": 5667,
      "reme": 5668,
      "itary": 5669,
      "ilbert": 5670,
      "NonUnitalRingHom": 5671,
      "ramified": 5672,
      "algEquiv": 5673,
      "Multiplicity": 5674,
      "Weakly": 5675,
      "recurs": 5676,
      "Away": 5677,
      "Find": 5678,
      "previous": 5679,
      "place": 5680,
      "partrec": 5681,
      "NonemptyInterval": 5682,
      "Sheafify": 5683,
      "Laurent": 5684,
      "ONote": 5685,
      "Solution": 5686,
      "zag": 5687,
      "suff": 5688,
      "Isomorphisms": 5689,
      "Comon": 5690,
      "spanSingleton": 5691,
      "NormedAlgebra": 5692,
      "separate": 5693,
      "Bicone": 5694,
      "cycleType": 5695,
      "degrees": 5696,
      "Integer": 5697,
      "good": 5698,
      "isAtom": 5699,
      "toSubmonoid": 5700,
      "still": 5701,
      "OrderEmbedding": 5702,
      "MinOrder": 5703,
      "Lists": 5704,
      "⊗≫": 5705,
      "IsFiniteKernel": 5706,
      "quiver": 5707,
      "child": 5708,
      "derivation": 5709,
      "sigmaFinite": 5710,
      "Reduced": 5711,
      "q2": 5712,
      "isCo": 5713,
      "what": 5714,
      "generator": 5715,
      "OrdConnected": 5716,
      "lines": 5717,
      "CondIndep": 5718,
      "Mehta": 5719,
      "IM": 5720,
      "Tropical": 5721,
      "cg": 5722,
      "idue": 5723,
      "Init": 5724,
      "havi": 5725,
      "hp1": 5726,
      "export": 5727,
      "TopologicalBasis": 5728,
      "conjugate": 5729,
      "moveRight": 5730,
      "FundamentalDomain": 5731,
      "Bhavi": 5732,
      "e9": 5733,
      "IsH": 5734,
      "nonsingular": 5735,
      "antor": 5736,
      "Opcycles": 5737,
      "derivatives": 5738,
      "bodd": 5739,
      "respectively": 5740,
      "hamming": 5741,
      "Multipliable": 5742,
      "khoff": 5743,
      "summand": 5744,
      "double": 5745,
      "Bhavik": 5746,
      "hasProd": 5747,
      "OneHom": 5748,
      "RestrictScalars": 5749,
      "glued": 5750,
      "SingleObj": 5751,
      "jacobiSym": 5752,
      "Depth": 5753,
      "Tape": 5754,
      "Van": 5755,
      "c4": 5756,
      "f0": 5757,
      "iting": 5758,
      "toLex": 5759,
      "actions": 5760,
      "calculus": 5761,
      "powersetCard": 5762,
      "IsMaximal": 5763,
      "etrizable": 5764,
      "Source": 5765,
      "AEEqFun": 5766,
      "78": 5767,
      "Least": 5768,
      "eon": 5769,
      "f1": 5770,
      "mark": 5771,
      "igeon": 5772,
      "andid": 5773,
      "Liou": 5774,
      "MonoidWithZeroHom": 5775,
      "Symmetric": 5776,
      "usual": 5777,
      "Liouville": 5778,
      "hY": 5779,
      "sα": 5780,
      "ComposableArrows": 5781,
      "nondegenerate": 5782,
      "pher": 5783,
      "Variation": 5784,
      "embeddings": 5785,
      "Factorisation": 5786,
      "Doorn": 5787,
      "Cfg": 5788,
      "Math": 5789,
      "pdf": 5790,
      "aries": 5791,
      "IsAtom": 5792,
      "heaves": 5793,
      "LinearGroup": 5794,
      "preΨ": 5795,
      "induce": 5796,
      "definitional": 5797,
      "Apply": 5798,
      "CancelMul": 5799,
      "6d": 5800,
      "Seg": 5801,
      "bump": 5802,
      "ativity": 5803,
      "IsAlg": 5804,
      "IsDedekindDomain": 5805,
      "velo": 5806,
      "LinearIsometry": 5807,
      "HasBinary": 5808,
      "ZeroExt": 5809,
      "TopHom": 5810,
      "extended": 5811,
      "dominated": 5812,
      "SqZeroExt": 5813,
      "TrivSqZeroExt": 5814,
      "ements": 5815,
      "infDist": 5816,
      "CompleteLinearOrder": 5817,
      "PreservesLimit": 5818,
      "Separation": 5819,
      "Separating": 5820,
      "application": 5821,
      "Flor": 5822,
      "Ixx": 5823,
      "blimsup": 5824,
      "f3": 5825,
      "xL": 5826,
      "xR": 5827,
      "unpair": 5828,
      "triv": 5829,
      "Inclusion": 5830,
      "OfElements": 5831,
      "getLast": 5832,
      "disc": 5833,
      "Diffeomorph": 5834,
      "Stable": 5835,
      "fails": 5836,
      "WeakDual": 5837,
      "Floris": 5838,
      "e5": 5839,
      "ever": 5840,
      "sha": 5841,
      "isNoetherian": 5842,
      "ofEquiv": 5843,
      "sect": 5844,
      "IsGLB": 5845,
      "Comap": 5846,
      "RightHomology": 5847,
      "PosSMul": 5848,
      "Generate": 5849,
      "condexpInd": 5850,
      "circumcenter": 5851,
      "ariate": 5852,
      "Digits": 5853,
      "ED": 5854,
      "Kind": 5855,
      "Linter": 5856,
      "Many": 5857,
      "PSet": 5858,
      "b2": 5859,
      "homothe": 5860,
      "TotalSpace": 5861,
      "IsLittleO": 5862,
      "However": 5863,
      "FinMeasAdditive": 5864,
      "Rˣ": 5865,
      "Young": 5866,
      "upcrossing": 5867,
      "equivFun": 5868,
      "bottom": 5869,
      "structured": 5870,
      "allest": 5871,
      "StrictMonoOn": 5872,
      "ContMDiffWithinAt": 5873,
      "law": 5874,
      "βᵒᵈ": 5875,
      "erable": 5876,
      "edu": 5877,
      "coherence": 5878,
      "ContinuousSMul": 5879,
      "HasImage": 5880,
      "modeq": 5881,
      "ieltjes": 5882,
      "dualAnnihilator": 5883,
      "elling": 5884,
      "Stonean": 5885,
      "cer": 5886,
      "f5": 5887,
      "ura": 5888,
      "stieltjes": 5889,
      "coinduced": 5890,
      "mapCone": 5891,
      "coeSubmodule": 5892,
      "Realize": 5893,
      "Supp": 5894,
      "TermElabM": 5895,
      "covers": 5896,
      "ghes": 5897,
      "Hughes": 5898,
      "Cor": 5899,
      "Rᵐᵒᵖ": 5900,
      "ube": 5901,
      "CommSq": 5902,
      "Predicate": 5903,
      "parse": 5904,
      "semicontinuous": 5905,
      "FiberBundle": 5906,
      "GH": 5907,
      "ia": 5908,
      "though": 5909,
      "rep": 5910,
      "Emb": 5911,
      "BotHom": 5912,
      "decreasing": 5913,
      "normalClosure": 5914,
      "Expand": 5915,
      "idempotent": 5916,
      "padicValNat": 5917,
      "Fst": 5918,
      "beta": 5919,
      "anach": 5920,
      "IsConnected": 5921,
      "absor": 5922,
      "ContMDiffOn": 5923,
      "simplify": 5924,
      "FactorizationMonoid": 5925,
      "insic": 5926,
      "Torsor": 5927,
      "c1": 5928,
      "tsupport": 5929,
      "ination": 5930,
      "compat": 5931,
      "consists": 5932,
      "rootMultiplicity": 5933,
      "rows": 5934,
      "upperClosure": 5935,
      "reduced": 5936,
      "DiscreteTopology": 5937,
      "expressed": 5938,
      "contDiffWithinAt": 5939,
      "CentralScalar": 5940,
      "Metrizable": 5941,
      "acent": 5942,
      "turn": 5943,
      "mapM": 5944,
      "IsRegular": 5945,
      "IsEquivalence": 5946,
      "defeq": 5947,
      "mkFres": 5948,
      "IntFractPair": 5949,
      "internal": 5950,
      "expSeries": 5951,
      "RightHomologyData": 5952,
      "SemiringAction": 5953,
      "Pairing": 5954,
      "conven": 5955,
      "quasiIso": 5956,
      "HasZeroMorphisms": 5957,
      "Convergence": 5958,
      "pigeon": 5959,
      "rich": 5960,
      "abelling": 5961,
      "hfc": 5962,
      "ContinuousMul": 5963,
      "monadic": 5964,
      "FreeAlgebra": 5965,
      "lowerClosure": 5966,
      "Counterexample": 5967,
      "needs": 5968,
      "ContMDiffAt": 5969,
      "QuasiIso": 5970,
      "Get": 5971,
      "WO": 5972,
      "kg": 5973,
      "later": 5974,
      "ₙₐ": 5975,
      "Combinatorics": 5976,
      "ants": 5977,
      "Artinian": 5978,
      "conts": 5979,
      "NonUnitalAlgHom": 5980,
      "immersion": 5981,
      "families": 5982,
      "toProd": 5983,
      "intr": 5984,
      "File": 5985,
      "FiniteType": 5986,
      "FintypeCat": 5987,
      "modByMonic": 5988,
      "dedu": 5989,
      "PairwiseDisjoint": 5990,
      "isBigOWith": 5991,
      "RBSet": 5992,
      "reflexive": 5993,
      "mble": 5994,
      "εpos": 5995,
      "𝓝ˢ": 5996,
      "CompIso": 5997,
      "introduce": 5998,
      "getApp": 5999,
      "ContinuousAdd": 6000,
      "ringHom": 6001,
      "terminates": 6002,
      "sameRay": 6003,
      "neighborSet": 6004,
      "mutually": 6005,
      "denomin": 6006,
      "LebesgueDecomposition": 6007,
      "convenient": 6008,
      "bicategory": 6009,
      "atlas": 6010,
      "lyClosed": 6011,
      "applies": 6012,
      "hfx": 6013,
      "DenselyOrdered": 6014,
      "kstar": 6015,
      "ler": 6016,
      "t1": 6017,
      "colim": 6018,
      "MeasurableEmbedding": 6019,
      "control": 6020,
      "Singular": 6021,
      "InfinitePlace": 6022,
      "stacks": 6023,
      "intrinsic": 6024,
      "Gδ": 6025,
      "orov": 6026,
      "arsinh": 6027,
      "hfm": 6028,
      "AtLeast": 6029,
      "untrop": 6030,
      "supports": 6031,
      "fault": 6032,
      "adjacent": 6033,
      "conditions": 6034,
      "Schmidt": 6035,
      "CancelMonoid": 6036,
      "Lazy": 6037,
      "9d": 6038,
      "PInfty": 6039,
      "hre": 6040,
      "ls": 6041,
      "were": 6042,
      "ifp": 6043,
      "coherent": 6044,
      "Codisjoint": 6045,
      "Default": 6046,
      "RelIso": 6047,
      "away": 6048,
      "eqToIso": 6049,
      "BinaryBicone": 6050,
      "Fq": 6051,
      "einfsep": 6052,
      "falso": 6053,
      "gp": 6054,
      "restr": 6055,
      "iman": 6056,
      "IsUpperSet": 6057,
      "OrderTopology": 6058,
      "Semisimple": 6059,
      "reserve": 6060,
      "Stalk": 6061,
      "Section": 6062,
      "Antisymm": 6063,
      "essentially": 6064,
      "repla": 6065,
      "PEmpty": 6066,
      "known": 6067,
      "punit": 6068,
      "isLocally": 6069,
      "IsLowerSet": 6070,
      "substructure": 6071,
      "Commut": 6072,
      "variation": 6073,
      "duced": 6074,
      "entry": 6075,
      "convergents": 6076,
      "offDiag": 6077,
      "Builder": 6078,
      "Hyper": 6079,
      "Dou": 6080,
      "Eigen": 6081,
      "Opt": 6082,
      "pc": 6083,
      "von": 6084,
      "xeter": 6085,
      "αᵐᵒᵖ": 6086,
      "ofInjective": 6087,
      "hgf": 6088,
      "tendstoUniformlyOn": 6089,
      "isoMk": 6090,
      "rence": 6091,
      "bership": 6092,
      "SameRay": 6093,
      "2644": 6094,
      "homothety": 6095,
      "c5": 6096,
      "fast": 6097,
      "mir": 6098,
      "solve": 6099,
      "beth": 6100,
      "maximals": 6101,
      "SpecialFunctions": 6102,
      "nim": 6103,
      "nstein": 6104,
      "isAlgebraic": 6105,
      "truncated": 6106,
      "assign": 6107,
      "HasCompactSupport": 6108,
      "ConvexCone": 6109,
      "sheafification": 6110,
      "ColimitsOfSize": 6111,
      "edgeDensity": 6112,
      "FullSubcategory": 6113,
      "equicontinuous": 6114,
      "athe": 6115,
      "mix": 6116,
      "IsImage": 6117,
      "compute": 6118,
      "MulSemiringAction": 6119,
      "whnf": 6120,
      "equivOf": 6121,
      "atheodory": 6122,
      "ofι": 6123,
      "ddle": 6124,
      "monovary": 6125,
      "RelEmbedding": 6126,
      "definitionally": 6127,
      "Totally": 6128,
      "smallest": 6129,
      "PFun": 6130,
      "lctx": 6131,
      "preserve": 6132,
      "host": 6133,
      "Normalization": 6134,
      "integrals": 6135,
      "specific": 6136,
      "IsOpenMap": 6137,
      "lpMeas": 6138,
      "SeminormedRing": 6139,
      "smeval": 6140,
      "PLift": 6141,
      "nmul": 6142,
      "inside": 6143,
      "omet": 6144,
      "ibly": 6145,
      "CommSemigroup": 6146,
      "TopologicalGroup": 6147,
      "ichlet": 6148,
      "simpleFunc": 6149,
      "fvars": 6150,
      "absolutelyContinuous": 6151,
      "32": 6152,
      "dart": 6153,
      "shrink": 6154,
      "isSeparable": 6155,
      "leftInverse": 6156,
      "smulCommClass": 6157,
      "measurePreserving": 6158,
      "indent": 6159,
      "ieb": 6160,
      "primeFactors": 6161,
      "UniformFun": 6162,
      "NoMaxOrder": 6163,
      "ported": 6164,
      "IsIntegralClosure": 6165,
      "black": 6166,
      "coincide": 6167,
      "AtLeastTwo": 6168,
      "xr": 6169,
      "reiman": 6170,
      "extra": 6171,
      "neLocus": 6172,
      "chieb": 6173,
      "obvious": 6174,
      "HasProd": 6175,
      "SMulPos": 6176,
      "balls": 6177,
      "PosMul": 6178,
      "WidePullback": 6179,
      "ailable": 6180,
      "chiebung": 6181,
      "Mic": 6182,
      "c6": 6183,
      "natTrans": 6184,
      "iew": 6185,
      "colimitCocone": 6186,
      "subgroups": 6187,
      "edia": 6188,
      "surjOn": 6189,
      "HomogeneousLocalization": 6190,
      "LocallyFiniteOrder": 6191,
      "setToL1S": 6192,
      "EDS": 6193,
      "leg": 6194,
      "too": 6195,
      "toModule": 6196,
      "IsNormal": 6197,
      "ightly": 6198,
      "Finpartition": 6199,
      "vertex": 6200,
      "terminated": 6201,
      "cycleOf": 6202,
      "UniqueFactorizationMonoid": 6203,
      "available": 6204,
      "Cancellable": 6205,
      "cofan": 6206,
      "Epimorphism": 6207,
      "More": 6208,
      "ake": 6209,
      "candid": 6210,
      "igzag": 6211,
      "applying": 6212,
      "involv": 6213,
      "Prefunctor": 6214,
      "ipedia": 6215,
      "specify": 6216,
      "New": 6217,
      "indicatorConst": 6218,
      "General": 6219,
      "stoppedValue": 6220,
      "Archimedean": 6221,
      "Polish": 6222,
      "72": 6223,
      "90": 6224,
      "Tac": 6225,
      "va": 6226,
      "toHomeomorph": 6227,
      "Equal": 6228,
      "posing": 6229,
      "Coxeter": 6230,
      "urther": 6231,
      "WalkingParallelPair": 6232,
      "Constructions": 6233,
      "wiki": 6234,
      "mirror": 6235,
      "112": 6236,
      "Good": 6237,
      "bad": 6238,
      "eigenspace": 6239,
      "fu": 6240,
      "ωSup": 6241,
      "ones": 6242,
      "adding": 6243,
      "Cones": 6244,
      "unitor": 6245,
      "disjointed": 6246,
      "OfFinOrder": 6247,
      "gramSchmidt": 6248,
      "create": 6249,
      "gal": 6250,
      "hE": 6251,
      "hitting": 6252,
      "rick": 6253,
      "te": 6254,
      "exfalso": 6255,
      "AddTorsor": 6256,
      "CommGrp": 6257,
      "urely": 6258,
      "IsStoppingTime": 6259,
      "Tagged": 6260,
      "existence": 6261,
      "Patrick": 6262,
      "Vert": 6263,
      "ghost": 6264,
      "AddAction": 6265,
      "tie": 6266,
      "getEnv": 6267,
      "HaarMeasure": 6268,
      "FVars": 6269,
      "PadicInt": 6270,
      "reachable": 6271,
      "aa": 6272,
      "hD": 6273,
      "hence": 6274,
      "isometric": 6275,
      "seem": 6276,
      "Unramified": 6277,
      "counterexample": 6278,
      "illing": 6279,
      "skip": 6280,
      "contextual": 6281,
      "ReflTransGen": 6282,
      "mkFresh": 6283,
      "Det": 6284,
      "Ske": 6285,
      "uIoc": 6286,
      "isZero": 6287,
      "toExpr": 6288,
      "finSucc": 6289,
      "interedges": 6290,
      "equivShrink": 6291,
      "Lead": 6292,
      "Simps": 6293,
      "LECancellable": 6294,
      "Cyclic": 6295,
      "Idempotent": 6296,
      "longer": 6297,
      "SemiNormedGrp": 6298,
      "urelyInseparable": 6299,
      "34": 6300,
      "Dav": 6301,
      "Tuple": 6302,
      "ein": 6303,
      "trop": 6304,
      "incid": 6305,
      "iving": 6306,
      "ediv": 6307,
      "icov": 6308,
      "ather": 6309,
      "asispectrum": 6310,
      "agree": 6311,
      "closedEmbedding": 6312,
      "icovitch": 6313,
      "XIso": 6314,
      "hpos": 6315,
      "sequ": 6316,
      "ird": 6317,
      "dow": 6318,
      "Dec": 6319,
      "better": 6320,
      "whenever": 6321,
      "DistLat": 6322,
      "Constants": 6323,
      "TM1": 6324,
      "Integers": 6325,
      "greater": 6326,
      "inde": 6327,
      "toAddSubgroup": 6328,
      "addOrderOf": 6329,
      "IsRelPrime": 6330,
      "exterior": 6331,
      "ZeroMorphisms": 6332,
      "SMulRegular": 6333,
      "OpenEmbedding": 6334,
      "symbol": 6335,
      "HasZeroObject": 6336,
      "Key": 6337,
      "Complemented": 6338,
      "StableUnder": 6339,
      "MetrizableSpace": 6340,
      "96": 6341,
      "Here": 6342,
      "Lau": 6343,
      "fb": 6344,
      "oadd": 6345,
      "isim": 6346,
      "isConnected": 6347,
      "embed": 6348,
      "ofDigits": 6349,
      "toContinuousLinearMap": 6350,
      "toPartialHomeomorph": 6351,
      "resolution": 6352,
      "posPart": 6353,
      "Post": 6354,
      "existsUnique": 6355,
      "Disconnected": 6356,
      "ColimitCocone": 6357,
      "potency": 6358,
      "Rotation": 6359,
      "Keys": 6360,
      "Returns": 6361,
      "El": 6362,
      "mdifferentiable": 6363,
      "spectral": 6364,
      "isNat": 6365,
      "come": 6366,
      "essSup": 6367,
      "mapCocone": 6368,
      "liftProp": 6369,
      "LeftFraction": 6370,
      "options": 6371,
      "LieHom": 6372,
      "fixing": 6373,
      "mathlib3": 6374,
      "hjk": 6375,
      "PresheafOfModules": 6376,
      "ifield": 6377,
      "primrec": 6378,
      "verschiebung": 6379,
      "itesimal": 6380,
      "Bial": 6381,
      "Cent": 6382,
      "Kenn": 6383,
      "LHom": 6384,
      "xl": 6385,
      "orth": 6386,
      "isCoprime": 6387,
      "AddSubsemigroup": 6388,
      "semilattice": 6389,
      "conditionally": 6390,
      "OfNatIso": 6391,
      "UniqueDiffWithinAt": 6392,
      "Kenny": 6393,
      "Bilimit": 6394,
      "Stie": 6395,
      "Wbtw": 6396,
      "sx": 6397,
      "covariant": 6398,
      "Fin2": 6399,
      "EquivProd": 6400,
      "artan": 6401,
      "lifted": 6402,
      "Define": 6403,
      "kernelSubobject": 6404,
      "ConnectedSpace": 6405,
      "cofork": 6406,
      "contMDiffWithinAt": 6407,
      "embDomain": 6408,
      "Braided": 6409,
      "details": 6410,
      "Stieltjes": 6411,
      "pat": 6412,
      "implementation": 6413,
      "IsAffine": 6414,
      "behav": 6415,
      "Three": 6416,
      "bia": 6417,
      "presieve": 6418,
      "NonUnitalNonAssocRing": 6419,
      "associative": 6420,
      "Condensed": 6421,
      "QuaternionAlgebra": 6422,
      "noncommProd": 6423,
      "columbia": 6424,
      "birkhoff": 6425,
      "consisting": 6426,
      "solvable": 6427,
      "near": 6428,
      "ression": 6429,
      "PartOrd": 6430,
      "IsSFiniteKernel": 6431,
      "TensorAlgebra": 6432,
      "uniqueDiff": 6433,
      "atisfi": 6434,
      "a6": 6435,
      "ciInf": 6436,
      "ℓp": 6437,
      "err": 6438,
      "rew": 6439,
      "exchange": 6440,
      "Attr": 6441,
      "isoOf": 6442,
      "homotopic": 6443,
      "Transl": 6444,
      "Variable": 6445,
      "CoeFun": 6446,
      "convexOn": 6447,
      "CommMonoidWithZero": 6448,
      "rootsOfUnity": 6449,
      "IsLocalMax": 6450,
      "qpf": 6451,
      "aper": 6452,
      "ofπ": 6453,
      "toSubring": 6454,
      "coproducts": 6455,
      "IsAdjoinRoot": 6456,
      "IsClopen": 6457,
      "Cocones": 6458,
      "divides": 6459,
      "starRing": 6460,
      "NonUnitalSemiring": 6461,
      "PreservesLimits": 6462,
      "godic": 6463,
      "fractions": 6464,
      "ReflectLT": 6465,
      "HalfPlane": 6466,
      "instantiateMVars": 6467,
      "Centroid": 6468,
      "Dilation": 6469,
      "anen": 6470,
      "IsConj": 6471,
      "IsProbabilityMeasure": 6472,
      "problem": 6473,
      "Frobenius": 6474,
      "You": 6475,
      "d5": 6476,
      "lap": 6477,
      "might": 6478,
      "isLeft": 6479,
      "IsTorsion": 6480,
      "ermat": 6481,
      "matches": 6482,
      "UpperHalfPlane": 6483,
      "Traversable": 6484,
      "ConjAct": 6485,
      "IsPrincipal": 6486,
      "tsze": 6487,
      "ilipschitzWith": 6488,
      "Dirichlet": 6489,
      "VariationOn": 6490,
      "Ca": 6491,
      "toArray": 6492,
      "mapMatrix": 6493,
      "Isometric": 6494,
      "uration": 6495,
      "Colum": 6496,
      "nilpotency": 6497,
      "DivInv": 6498,
      "Format": 6499,
      "ustom": 6500,
      "WalkingCospan": 6501,
      "trichotomy": 6502,
      "1Lift": 6503,
      "98": 6504,
      "Cech": 6505,
      "Fold": 6506,
      "ldecl": 6507,
      "nb": 6508,
      "words": 6509,
      "hahn": 6510,
      "hole": 6511,
      "Eqv": 6512,
      "upperCrossingTime": 6513,
      "Valued": 6514,
      "Positivity": 6515,
      "Restricts": 6516,
      "CircleDeg": 6517,
      "permutation": 6518,
      "determinant": 6519,
      "mappingCone": 6520,
      "CircleDeg1Lift": 6521,
      "XY": 6522,
      "b1": 6523,
      "nz": 6524,
      "rightInverse": 6525,
      "Subordinate": 6526,
      "nonym": 6527,
      "continuousLinearMap": 6528,
      "Cov": 6529,
      "ringChar": 6530,
      "biSup": 6531,
      "forgetTo": 6532,
      "Formally": 6533,
      "QuotEquiv": 6534,
      "Seminorms": 6535,
      "ediam": 6536,
      "SpanSingleton": 6537,
      "seud": 6538,
      "parameter": 6539,
      "finSuccEquiv": 6540,
      "BC": 6541,
      "tᶜ": 6542,
      "produces": 6543,
      "Equalizers": 6544,
      "measurableSpace": 6545,
      "monomorphism": 6546,
      "indexing": 6547,
      "AffineEquiv": 6548,
      "BijOn": 6549,
      "arrowCongr": 6550,
      "Representation": 6551,
      "JordanDecomposition": 6552,
      "Mˣ": 6553,
      "Tail": 6554,
      "d0": 6555,
      "negation": 6556,
      "homOfLE": 6557,
      "erest": 6558,
      "antivary": 6559,
      "dioph": 6560,
      "genEigenspace": 6561,
      "OpenCover": 6562,
      "various": 6563,
      "LocallyCompactSpace": 6564,
      "changeOrigin": 6565,
      "CancelSemigroup": 6566,
      "tracting": 6567,
      "sheaves": 6568,
      "Equicontinuous": 6569,
      "wikipedia": 6570,
      "27": 6571,
      "Sites": 6572,
      "lsmul": 6573,
      "ont": 6574,
      "idx": 6575,
      "endomorphism": 6576,
      "Equation": 6577,
      "Anne": 6578,
      "pects": 6579,
      "Numer": 6580,
      "PreservesColimit": 6581,
      "partially": 6582,
      "totalDegree": 6583,
      "Head": 6584,
      "Primes": 6585,
      "cyclesMap": 6586,
      "PartitionOfUnity": 6587,
      "Baanen": 6588,
      "SeparationQuotient": 6589,
      "Alex": 6590,
      "Sbtw": 6591,
      "ired": 6592,
      "rb": 6593,
      "rid": 6594,
      "sOf": 6595,
      "ivariate": 6596,
      "comes": 6597,
      "endow": 6598,
      "precomp": 6599,
      "Fré": 6600,
      "OnePow": 6601,
      "estim": 6602,
      "writing": 6603,
      "pherical": 6604,
      "CovBy": 6605,
      "Yang": 6606,
      "isClopen": 6607,
      "vection": 6608,
      "ampen": 6609,
      "negY": 6610,
      "orders": 6611,
      "outParam": 6612,
      "trailing": 6613,
      "OnePoint": 6614,
      "SemicontinuousWithinAt": 6615,
      "fixedBy": 6616,
      "maximalIdeal": 6617,
      "minimals": 6618,
      "moves": 6619,
      "oriented": 6620,
      "FVarId": 6621,
      "sufficient": 6622,
      "Mathport": 6623,
      "c8": 6624,
      "lmul": 6625,
      "liter": 6626,
      "uing": 6627,
      "toHom": 6628,
      "AddChar": 6629,
      "natSepDegree": 6630,
      "Coheyting": 6631,
      "bijOn": 6632,
      "pointReflection": 6633,
      "specified": 6634,
      "properDivisors": 6635,
      "HomologyIso": 6636,
      "separableClosure": 6637,
      "EuclideanDomain": 6638,
      "atomic": 6639,
      "contMDiffOn": 6640,
      "torsionBy": 6641,
      "tagged": 6642,
      "FPowerSeriesAt": 6643,
      "precise": 6644,
      "47": 6645,
      "517": 6646,
      "Rₘ": 6647,
      "Wr": 6648,
      "hψ": 6649,
      "hsub": 6650,
      "sc": 6651,
      "isRight": 6652,
      "ensure": 6653,
      "prog": 6654,
      "coeIdeal": 6655,
      "fill": 6656,
      "cluster": 6657,
      "HasLeft": 6658,
      "castRingHom": 6659,
      "MonoidHomClass": 6660,
      "subgroupOf": 6661,
      "circleMap": 6662,
      "Plus": 6663,
      "locus": 6664,
      "mkAppM": 6665,
      "Desc": 6666,
      "random": 6667,
      "Cotangent": 6668,
      "92": 6669,
      "Hel": 6670,
      "TR": 6671,
      "hι": 6672,
      "wseq": 6673,
      "prodComm": 6674,
      "Moore": 6675,
      "functional": 6676,
      "hp2": 6677,
      "bernstein": 6678,
      "preservesLimit": 6679,
      "graphic": 6680,
      "delab": 6681,
      "Truncated": 6682,
      "OpensMeasurableSpace": 6683,
      "smallSets": 6684,
      "Andrew": 6685,
      "contMDiffAt": 6686,
      "IsBoundedUnder": 6687,
      "ski": 6688,
      "binders": 6689,
      "PeriodicPt": 6690,
      "Using": 6691,
      "dold": 6692,
      "iability": 6693,
      "kan": 6694,
      "ods": 6695,
      "yL": 6696,
      "isDefEq": 6697,
      "itable": 6698,
      "ulo": 6699,
      "IsSimple": 6700,
      "IsLocalizedModule": 6701,
      "ormation": 6702,
      "images": 6703,
      "dslope": 6704,
      "rootSpace": 6705,
      "relabel": 6706,
      "NFA": 6707,
      "coordinate": 6708,
      "SameCycle": 6709,
      "ProjectiveSpectrum": 6710,
      "SurjOn": 6711,
      "opcyclesMap": 6712,
      "AdicCompletion": 6713,
      "David": 6714,
      "35": 6715,
      "68": 6716,
      "Om": 6717,
      "T0Space": 6718,
      "based": 6719,
      "tuple": 6720,
      "mming": 6721,
      "Reach": 6722,
      "chine": 6723,
      "smulₛₗ": 6724,
      "mkConst": 6725,
      "hasLimit": 6726,
      "HasLimitsOfShape": 6727,
      "descFactorial": 6728,
      "restricted": 6729,
      "conjug": 6730,
      "powerBasis": 6731,
      "versals": 6732,
      "includes": 6733,
      "hausdorffEdist": 6734,
      "AnalyticOn": 6735,
      "higher": 6736,
      "Massot": 6737,
      "utf8Len": 6738,
      "incidence": 6739,
      "Sₘ": 6740,
      "hold": 6741,
      "pm": 6742,
      "orith": 6743,
      "trip": 6744,
      "piFinset": 6745,
      "elementwise": 6746,
      "Options": 6747,
      "ExprMVar": 6748,
      "CompletePartialOrder": 6749,
      "Induced": 6750,
      "constructions": 6751,
      "MonovaryOn": 6752,
      "triangulated": 6753,
      "IsAlgClosed": 6754,
      "Opl": 6755,
      "Some": 6756,
      "Vitali": 6757,
      "ucas": 6758,
      "→₁": 6759,
      "funProp": 6760,
      "negOnePow": 6761,
      "format": 6762,
      "uniformEmbedding": 6763,
      "NoMinOrder": 6764,
      "synth": 6765,
      "hurwitzZeta": 6766,
      "factored": 6767,
      "InvPair": 6768,
      "SuccLimit": 6769,
      "SmallCategory": 6770,
      "middle": 6771,
      "AntivaryOn": 6772,
      "Oplax": 6773,
      "Ht": 6774,
      "Hilbert": 6775,
      "a9": 6776,
      "did": 6777,
      "ks": 6778,
      "reduction": 6779,
      "toTopologicalSpace": 6780,
      "coding": 6781,
      "IsRoot": 6782,
      "extreme": 6783,
      "play": 6784,
      "HasM": 6785,
      "InfHom": 6786,
      "vertical": 6787,
      "RingHomInvPair": 6788,
      "StrictConvex": 6789,
      "homologyFunctor": 6790,
      "NNNorm": 6791,
      "trivializationAt": 6792,
      "derivedSeries": 6793,
      "fection": 6794,
      "h4": 6795,
      "once": 6796,
      "isLocalization": 6797,
      "fil": 6798,
      "MulChar": 6799,
      "TendstoUniformlyOn": 6800,
      "preservesFinite": 6801,
      "StructureGroupoid": 6802,
      "Insertion": 6803,
      "spanningSets": 6804,
      "skewAdjoint": 6805,
      "legendre": 6806,
      "Next": 6807,
      "mabs": 6808,
      "nmem": 6809,
      "ΓSpec": 6810,
      "acts": 6811,
      "rangeRestrict": 6812,
      "SupHom": 6813,
      "agrange": 6814,
      "distTriang": 6815,
      "relative": 6816,
      "Envel": 6817,
      "vecCons": 6818,
      "Down": 6819,
      "possibly": 6820,
      "Rotate": 6821,
      "Markov": 6822,
      "upcrossings": 6823,
      "EnvelGroup": 6824,
      "hW": 6825,
      "ied": 6826,
      "IsTrans": 6827,
      "due": 6828,
      "occur": 6829,
      "RingQuot": 6830,
      "traceForm": 6831,
      "LipschitzOnWith": 6832,
      "ValuationSubring": 6833,
      "setToSimpleFunc": 6834,
      "Surj": 6835,
      "LazyList": 6836,
      "replaced": 6837,
      "IB": 6838,
      "Pell": 6839,
      "Show": 6840,
      "az": 6841,
      "ners": 6842,
      "yR": 6843,
      "emat": 6844,
      "ceed": 6845,
      "hel": 6846,
      "htein": 6847,
      "veral": 6848,
      "MulZeroClass": 6849,
      "enshtein": 6850,
      "Classes": 6851,
      "NonUnitalRing": 6852,
      "monotoneOn": 6853,
      "corners": 6854,
      "algam": 6855,
      "Assum": 6856,
      "IsLocalMin": 6857,
      "CanonicallyOrdered": 6858,
      "indicatorConstLp": 6859,
      "55": 6860,
      "Mi": 6861,
      "Zsqrtd": 6862,
      "effective": 6863,
      "except": 6864,
      "IsNat": 6865,
      "IsHomogeneous": 6866,
      "withTop": 6867,
      "MulPos": 6868,
      "lfp": 6869,
      "elementary": 6870,
      "NonUnitalStarSubalgebra": 6871,
      "Bipointed": 6872,
      "hQz": 6873,
      "necessarily": 6874,
      "Jacobson": 6875,
      "LightProfinite": 6876,
      "TaylorSeries": 6877,
      "Definitions": 6878,
      "OreLocalization": 6879,
      "66": 6880,
      "FTaylorSeries": 6881,
      "mΩ": 6882,
      "concave": 6883,
      "IsOrtho": 6884,
      "IsCofiltered": 6885,
      "ries": 6886,
      "Nonsingular": 6887,
      "ring1": 6888,
      "Discr": 6889,
      "domDom": 6890,
      "often": 6891,
      "FTaylorSeriesUpTo": 6892,
      "Banach": 6893,
      "Grade": 6894,
      "db": 6895,
      "e1": 6896,
      "iqu": 6897,
      "view": 6898,
      "ully": 6899,
      "coimage": 6900,
      "compHom": 6901,
      "eraseLead": 6902,
      "completeSpace": 6903,
      "weights": 6904,
      "recursive": 6905,
      "Floor": 6906,
      "Fully": 6907,
      "Sz": 6908,
      "hγ": 6909,
      "toMultiset": 6910,
      "IsCentralScalar": 6911,
      "leftHomologyMap": 6912,
      "mkContinuous": 6913,
      "CommMon": 6914,
      "HasLimits": 6915,
      "ZeroHom": 6916,
      "absNorm": 6917,
      "quotientMap": 6918,
      "Schwartz": 6919,
      "hausdorffDist": 6920,
      "ascPochhammer": 6921,
      "remainder": 6922,
      "ometimes": 6923,
      "Skeleton": 6924,
      "II": 6925,
      "bug": 6926,
      "custom": 6927,
      "mkMetric": 6928,
      "counted": 6929,
      "PiTensorProduct": 6930,
      "dependence": 6931,
      "Now": 6932,
      "StarModule": 6933,
      "access": 6934,
      "GaloisInsertion": 6935,
      "ExpChar": 6936,
      "quadraticChar": 6937,
      "having": 6938,
      "Cobounded": 6939,
      "Frame": 6940,
      "Ol": 6941,
      "member": 6942,
      "mag": 6943,
      "Semifield": 6944,
      "hmer": 6945,
      "Respects": 6946,
      "atoms": 6947,
      "stopping": 6948,
      "ReflectsIsomorphisms": 6949,
      "ProjectiveResolution": 6950,
      "Integration": 6951,
      "Flat": 6952,
      "BilinearMap": 6953,
      "TSyntax": 6954,
      "mann": 6955,
      "pull": 6956,
      "pkg": 6957,
      "isAdd": 6958,
      "etc": 6959,
      "mulAction": 6960,
      "hxz": 6961,
      "paralle": 6962,
      "Search": 6963,
      "InterFilter": 6964,
      "AddGroupSeminorm": 6965,
      "maximalAtlas": 6966,
      "radient": 6967,
      "levels": 6968,
      "considered": 6969,
      "Omega": 6970,
      "Json": 6971,
      "Kle": 6972,
      "aim": 6973,
      "ggest": 6974,
      "pfunctor": 6975,
      "third": 6976,
      "ised": 6977,
      "gel": 6978,
      "Recur": 6979,
      "Attribute": 6980,
      "Nondegenerate": 6981,
      "Color": 6982,
      "generates": 6983,
      "increasing": 6984,
      "Charpoly": 6985,
      "Before": 6986,
      "ircum": 6987,
      "HomogeneousIdeal": 6988,
      "AnalyticAt": 6989,
      "high": 6990,
      "Squarefree": 6991,
      "orithm": 6992,
      "40": 6993,
      "euler": 6994,
      "Σi": 6995,
      "IsRefl": 6996,
      "imageSubobject": 6997,
      "OnCl": 6998,
      "library": 6999,
      "FinitePresentation": 7000,
      "distortion": 7001,
      "ContOnCl": 7002,
      "presentation": 7003,
      "autoImplicit": 7004,
      "ircumcenter": 7005,
      "87": 7006,
      "Util": 7007,
      "sides": 7008,
      "yi": 7009,
      "MapClass": 7010,
      "nonunits": 7011,
      "AddLECancellable": 7012,
      "Semilinear": 7013,
      "liftRel": 7014,
      "OneSpectrum": 7015,
      "Transparency": 7016,
      "Extensive": 7017,
      "predAbove": 7018,
      "Results": 7019,
      "omatic": 7020,
      "DivInvMonoid": 7021,
      "110": 7022,
      "Raw": 7023,
      "Slash": 7024,
      "isen": 7025,
      "reorder": 7026,
      "flat": 7027,
      "Coyoneda": 7028,
      "Lev": 7029,
      "biInf": 7030,
      "IndepFun": 7031,
      "Length": 7032,
      "FullyFaithful": 7033,
      "Evaluation": 7034,
      "ℝⁿ": 7035,
      "unmop": 7036,
      "AddCon": 7037,
      "OfPoint": 7038,
      "yscr": 7039,
      "InjectiveResolution": 7040,
      "AffineIndependent": 7041,
      "partialSups": 7042,
      "FamilyOfElements": 7043,
      "LinearOrderedRing": 7044,
      "differentiability": 7045,
      "strictMonoOn": 7046,
      "Reduc": 7047,
      "weightedVSubOfPoint": 7048,
      "hyperreal": 7049,
      "ContravariantClass": 7050,
      "Double": 7051,
      "CentroidHom": 7052,
      "yscraper": 7053,
      "Am": 7054,
      "T1Space": 7055,
      "d4": 7056,
      "lof": 7057,
      "text": 7058,
      "toIdeal": 7059,
      "IsAntichain": 7060,
      "amed": 7061,
      "chet": 7062,
      "Prove": 7063,
      "CommMonCat": 7064,
      "selfAdjoint": 7065,
      "Except": 7066,
      "Pretrivialization": 7067,
      "Collection": 7068,
      "termination": 7069,
      "OrderedCommSemiring": 7070,
      "proving": 7071,
      "Jacobi": 7072,
      "Qq": 7073,
      "Rob": 7074,
      "ude": 7075,
      "inomial": 7076,
      "mapEquiv": 7077,
      "IsPath": 7078,
      "subcategory": 7079,
      "height": 7080,
      "rightHomologyMap": 7081,
      "CompTriple": 7082,
      "LeftMoves": 7083,
      "Arity": 7084,
      "SMulZeroClass": 7085,
      "eves": 7086,
      "pullbacks": 7087,
      "multic": 7088,
      "MvQPF": 7089,
      "extendDomain": 7090,
      "takeWhile": 7091,
      "removing": 7092,
      "modifyNth": 7093,
      "Definable": 7094,
      "hω": 7095,
      "slash": 7096,
      "several": 7097,
      "mkRat": 7098,
      "affineIndependent": 7099,
      "Dioph": 7100,
      "VectorBundle": 7101,
      "thickened": 7102,
      "Dominated": 7103,
      "squares": 7104,
      "OmegaCompletePartialOrder": 7105,
      "isenstein": 7106,
      "Enum": 7107,
      "his": 7108,
      "zzy": 7109,
      "enat": 7110,
      "ensu": 7111,
      "ofLE": 7112,
      "ulant": 7113,
      "esymm": 7114,
      "actual": 7115,
      "castPred": 7116,
      "bitwise": 7117,
      "BoundedSMul": 7118,
      "present": 7119,
      "ratfunc": 7120,
      "boundaries": 7121,
      "sizeOf": 7122,
      "assumes": 7123,
      "centerMass": 7124,
      "quote": 7125,
      "signed": 7126,
      "Linarith": 7127,
      "stronger": 7128,
      "applications": 7129,
      "SignType": 7130,
      "gy": 7131,
      "toMap": 7132,
      "artial": 7133,
      "divp": 7134,
      "MeasurableRat": 7135,
      "kernels": 7136,
      "Adapt": 7137,
      "PreservesLimitsOfSize": 7138,
      "chainHeight": 7139,
      "continuum": 7140,
      "nullMeasurableSet": 7141,
      "09": 7142,
      "Bes": 7143,
      "Ré": 7144,
      "hmem": 7145,
      "thd": 7146,
      "toSignedMeasure": 7147,
      "icategor": 7148,
      "Sublist": 7149,
      "sumCongr": 7150,
      "Cohomology": 7151,
      "HasKernel": 7152,
      "objs": 7153,
      "localTriv": 7154,
      "AntilipschitzWith": 7155,
      "StructureSheaf": 7156,
      "circulant": 7157,
      "orbitRel": 7158,
      "BumpCovering": 7159,
      "Approxim": 7160,
      "functoriality": 7161,
      "LaxMonoidalFunctor": 7162,
      "Widgets": 7163,
      "effectiveEpi": 7164,
      "zs": 7165,
      "imon": 7166,
      "asFn": 7167,
      "IsGalois": 7168,
      "IsTopologicalBasis": 7169,
      "produce": 7170,
      "riate": 7171,
      "negPart": 7172,
      "weierstrass": 7173,
      "ClassGroup": 7174,
      "hns": 7175,
      "propriate": 7176,
      "shiftIso": 7177,
      "lattices": 7178,
      "CoprodI": 7179,
      "Idempotents": 7180,
      "Denom": 7181,
      "After": 7182,
      "Global": 7183,
      "Sized": 7184,
      "sible": 7185,
      "xgcd": 7186,
      "isRat": 7187,
      "isRoot": 7188,
      "isRegular": 7189,
      "analo": 7190,
      "ulip": 7191,
      "ception": 7192,
      "abstract": 7193,
      "tries": 7194,
      "Finitary": 7195,
      "quasispectrum": 7196,
      "chr": 7197,
      "Only": 7198,
      "preNorm": 7199,
      "AlgebraCat": 7200,
      "indi": 7201,
      "Normalized": 7202,
      "filters": 7203,
      "convexBody": 7204,
      "separation": 7205,
      "notation3": 7206,
      "ifier": 7207,
      "etrization": 7208,
      "adapted": 7209,
      "synthe": 7210,
      "domDomCongr": 7211,
      "41": 7212,
      "bases": 7213,
      "f6": 7214,
      "fp": 7215,
      "unsym": 7216,
      "appropriate": 7217,
      "addMonoidHom": 7218,
      "compression": 7219,
      "irling": 7220,
      "hasM": 7221,
      "antilipschitz": 7222,
      "openCover": 7223,
      "decls": 7224,
      "withDensityᵥ": 7225,
      "Import": 7226,
      "AngleRotation": 7227,
      "LSeriesSummable": 7228,
      "Foo": 7229,
      "Gal": 7230,
      "dbl": 7231,
      "har": 7232,
      "mn": 7233,
      "toColex": 7234,
      "instFunLike": 7235,
      "Prokh": 7236,
      "hsc": 7237,
      "kerase": 7238,
      "agon": 7239,
      "bius": 7240,
      "depends": 7241,
      "tactics": 7242,
      "continuants": 7243,
      "ppSpace": 7244,
      "ProofWidgets": 7245,
      "HasFiniteIntegral": 7246,
      "saying": 7247,
      "ReflectLE": 7248,
      "children": 7249,
      "Reducible": 7250,
      "Prokhorov": 7251,
      "Fib": 7252,
      "e2": 7253,
      "lambda": 7254,
      "message": 7255,
      "mellin": 7256,
      "expect": 7257,
      "develo": 7258,
      "subperm": 7259,
      "Rev": 7260,
      "umr": 7261,
      "imports": 7262,
      "angements": 7263,
      "InfSet": 7264,
      "nod": 7265,
      "synonym": 7266,
      "conditional": 7267,
      "HomotopyEquiv": 7268,
      "InnerRegular": 7269,
      "Antiperiodic": 7270,
      "covby": 7271,
      "vanishes": 7272,
      "padicValRat": 7273,
      "implemented": 7274,
      "scaleRoots": 7275,
      "Nash": 7276,
      "Slice": 7277,
      "Conformal": 7278,
      "MapComap": 7279,
      "lifting": 7280,
      "HasCokernel": 7281,
      "unitization": 7282,
      "aeSeq": 7283,
      "Closeds": 7284,
      "tensorObj": 7285,
      "LocalDecl": 7286,
      "CoreM": 7287,
      "sepDegree": 7288,
      "WithCircumcenter": 7289,
      "weakly": 7290,
      "circumsphere": 7291,
      "ConditionallyCompleteLinearOrder": 7292,
      "chromatic": 7293,
      "Choose": 7294,
      "Euler": 7295,
      "Kampen": 7296,
      "sz": 7297,
      "onto": 7298,
      "isPr": 7299,
      "ToKernel": 7300,
      "AtPrime": 7301,
      "div2": 7302,
      "Suppose": 7303,
      "modulo": 7304,
      "Relations": 7305,
      "BoundedLatticeHom": 7306,
      "extensions": 7307,
      "metriz": 7308,
      "EssSup": 7309,
      "infixl": 7310,
      "thday": 7311,
      "Average": 7312,
      "BFamily": 7313,
      "hmul": 7314,
      "toUniformSpace": 7315,
      "ention": 7316,
      "Subfamily": 7317,
      "plied": 7318,
      "Mode": 7319,
      "clopen": 7320,
      "piped": 7321,
      "Augmented": 7322,
      "modular": 7323,
      "UniformInducing": 7324,
      "Biproducts": 7325,
      "SemicontinuousAt": 7326,
      "condexpL1": 7327,
      "toIcoDiv": 7328,
      "FixedPt": 7329,
      "shadow": 7330,
      "ahler": 7331,
      "cartesian": 7332,
      "hex": 7333,
      "hull": 7334,
      "mu": 7335,
      "p3": 7336,
      "scan": 7337,
      "ignore": 7338,
      "IsPre": 7339,
      "HasColimitsOfShape": 7340,
      "Relabelling": 7341,
      "Lifting": 7342,
      "ramer": 7343,
      "domains": 7344,
      "snormEssSup": 7345,
      "CancelAddCommMonoid": 7346,
      "Irred": 7347,
      "discrim": 7348,
      "WidePushout": 7349,
      "Hyperreal": 7350,
      "Oliver": 7351,
      "77": 7352,
      "Dyn": 7353,
      "Other": 7354,
      "Snd": 7355,
      "sometimes": 7356,
      "isOrtho": 7357,
      "toSubsemiring": 7358,
      "haust": 7359,
      "SubMulAction": 7360,
      "artbe": 7361,
      "GroupAction": 7362,
      "hbdd": 7363,
      "That": 7364,
      "conePointUniqueUpToIso": 7365,
      "hmeas": 7366,
      "trailingDegree": 7367,
      "IndepSets": 7368,
      "testBit": 7369,
      "corresponds": 7370,
      "Flip": 7371,
      "ckets": 7372,
      "toIocDiv": 7373,
      "HeightOneSpectrum": 7374,
      "ClusterPt": 7375,
      "visit": 7376,
      "YoungDiagram": 7377,
      "11215": 7378,
      "GE": 7379,
      "SFinite": 7380,
      "Sentence": 7381,
      "bisim": 7382,
      "know": 7383,
      "ton": 7384,
      "unfol": 7385,
      "IsVonNBounded": 7386,
      "compr": 7387,
      "involute": 7388,
      "Coord": 7389,
      "claim": 7390,
      "expansion": 7391,
      "presheaves": 7392,
      "eraseIdx": 7393,
      "Have": 7394,
      "edgeFinset": 7395,
      "Fail": 7396,
      "SpecialLinearGroup": 7397,
      "emannZeta": 7398,
      "missing": 7399,
      "WeaklyRegular": 7400,
      "endowed": 7401,
      "indices": 7402,
      "πi": 7403,
      "ature": 7404,
      "ote": 7405,
      "IsRat": 7406,
      "peed": 7407,
      "assigned": 7408,
      "hx0": 7409,
      "ardo": 7410,
      "prefer": 7411,
      "intersect": 7412,
      "tilt": 7413,
      "LocallyUniformlyOn": 7414,
      "Hamming": 7415,
      "BoolRing": 7416,
      "resulting": 7417,
      "acro": 7418,
      "0000": 7419,
      "mvars": 7420,
      "few": 7421,
      "translate": 7422,
      "walking": 7423,
      "Constructor": 7424,
      "usually": 7425,
      "ji": 7426,
      "lc": 7427,
      "rexp": 7428,
      "IsCountablyGenerated": 7429,
      "leftInv": 7430,
      "powHalf": 7431,
      "ToTypes": 7432,
      "information": 7433,
      "ordering": 7434,
      "comapDomain": 7435,
      "generally": 7436,
      "ClosedEmbedding": 7437,
      "FreeCommRing": 7438,
      "essImage": 7439,
      "params": 7440,
      "SingletonClass": 7441,
      "EquicontinuousOn": 7442,
      "Accumr": 7443,
      "StrictAntiOn": 7444,
      "81": 7445,
      "aker": 7446,
      "b6": 7447,
      "e6": 7448,
      "further": 7449,
      "hang": 7450,
      "ihom": 7451,
      "kahler": 7452,
      "imI": 7453,
      "imJ": 7454,
      "imK": 7455,
      "emer": 7456,
      "ifork": 7457,
      "byshe": 7458,
      "opEquiv": 7459,
      "Reinterpret": 7460,
      "ermite": 7461,
      "cofiltered": 7462,
      "InstancesCommute": 7463,
      "kroneckerMap": 7464,
      "IsHermitian": 7465,
      "Decay": 7466,
      "Html": 7467,
      "iqueness": 7468,
      "DominatedFinMeasAdditive": 7469,
      "byshev": 7470,
      "21": 7471,
      "Alt": 7472,
      "Gu": 7473,
      "MCtx": 7474,
      "c9": 7475,
      "composing": 7476,
      "interest": 7477,
      "IsPoly": 7478,
      "pack": 7479,
      "Final": 7480,
      "withContext": 7481,
      "ereo": 7482,
      "equivMap": 7483,
      "area": 7484,
      "optimal": 7485,
      "basisFun": 7486,
      "107": 7487,
      "preservesColimit": 7488,
      "PreservesLimitsOfShape": 7489,
      "Absor": 7490,
      "Spanning": 7491,
      "RBMap": 7492,
      "infinitesimal": 7493,
      "column": 7494,
      "whiskeringLeft": 7495,
      "epimorphisms": 7496,
      "birthday": 7497,
      "PEquiv": 7498,
      "RHS": 7499,
      "pderiv": 7500,
      "solv": 7501,
      "umul": 7502,
      "vb": 7503,
      "ispan": 7504,
      "isComplete": 7505,
      "ofFractionRing": 7506,
      "connection": 7507,
      "mapHomologicalComplex": 7508,
      "addEquiv": 7509,
      "Prob": 7510,
      "hx1": 7511,
      "IsoLimit": 7512,
      "facts": 7513,
      "uniformSpace": 7514,
      "operators": 7515,
      "built": 7516,
      "lazy": 7517,
      "tangentMap": 7518,
      "hausdorffMeasure": 7519,
      "permutationsAux": 7520,
      "candidates": 7521,
      "TaggedPrepartition": 7522,
      "pmf": 7523,
      "Lambda": 7524,
      "cre": 7525,
      "pB": 7526,
      "pick": 7527,
      "srange": 7528,
      "toInt": 7529,
      "cell": 7530,
      "sel": 7531,
      "Compose": 7532,
      "FunProp": 7533,
      "nonsing": 7534,
      "ranch": 7535,
      "RingCon": 7536,
      "hyx": 7537,
      "disch": 7538,
      "biproducts": 7539,
      "hcb": 7540,
      "TopologicalRing": 7541,
      "ih1": 7542,
      "Exterior": 7543,
      "AlgebraicClosure": 7544,
      "contravariant": 7545,
      "Besicovitch": 7546,
      "catch": 7547,
      "cubic": 7548,
      "h𝒜": 7549,
      "onic": 7550,
      "orus": 7551,
      "isEquivalence": 7552,
      "ofENat": 7553,
      "ivization": 7554,
      "Sublattice": 7555,
      "Project": 7556,
      "FieldTheory": 7557,
      "StarAlgebra": 7558,
      "updateRow": 7559,
      "lieSpan": 7560,
      "ContDiffBump": 7561,
      "represents": 7562,
      "wittStructure": 7563,
      "Reflexive": 7564,
      "alternative": 7565,
      "synthInstance": 7566,
      "RespectsIso": 7567,
      "nodal": 7568,
      "metrizable": 7569,
      "H0": 7570,
      "Ri": 7571,
      "isMul": 7572,
      "ofFun": 7573,
      "stated": 7574,
      "IsSMulRegular": 7575,
      "Restriction": 7576,
      "residue": 7577,
      "Addition": 7578,
      "Coherence": 7579,
      "introduced": 7580,
      "NonUnitalStarAlgHom": 7581,
      "TacticM": 7582,
      "isClosedMap": 7583,
      "LinearOrderedAddCommGroup": 7584,
      "BddDistLat": 7585,
      "DirectedOn": 7586,
      "Commutative": 7587,
      "5171": 7588,
      "magma": 7589,
      "Dup": 7590,
      "qsmul": 7591,
      "isn": 7592,
      "ofRestrict": 7593,
      "stereo": 7594,
      "funMap": 7595,
      "mapAccumr": 7596,
      "Super": 7597,
      "Subgroupoid": 7598,
      "Submartingale": 7599,
      "hasPullback": 7600,
      "integralClosure": 7601,
      "again": 7602,
      "finsets": 7603,
      "generic": 7604,
      "singleObj": 7605,
      "indexOf": 7606,
      "OrderedAddCommMonoid": 7607,
      "StarAddMonoid": 7608,
      "ifying": 7609,
      "wittPolynomial": 7610,
      "asserts": 7611,
      "StrongEpi": 7612,
      "mutuallySingular": 7613,
      "08": 7614,
      "Version": 7615,
      "gra": 7616,
      "lsum": 7617,
      "toKaroubi": 7618,
      "setting": 7619,
      "easier": 7620,
      "leftAdjoint": 7621,
      "nonarchimedean": 7622,
      "plift": 7623,
      "Moura": 7624,
      "hyps": 7625,
      "polynomialDecay": 7626,
      "Interior": 7627,
      "MonoFactorisation": 7628,
      "dualMap": 7629,
      "hIJ": 7630,
      "imo19": 7631,
      "making": 7632,
      "Cache": 7633,
      "Gradient": 7634,
      "Mill": 7635,
      "Roth": 7636,
      "hκ": 7637,
      "lected": 7638,
      "lepiped": 7639,
      "ofEq": 7640,
      "addCommGroup": 7641,
      "IsDirected": 7642,
      "memPartition": 7643,
      "resolv": 7644,
      "HasPushout": 7645,
      "MeasurableSingletonClass": 7646,
      "RightMoves": 7647,
      "ersenne": 7648,
      "dede": 7649,
      "iterateFrobenius": 7650,
      "Centralizer": 7651,
      "disjUnion": 7652,
      "matroid": 7653,
      "ManifoldWithCorners": 7654,
      "translationNumber": 7655,
      "parallelepiped": 7656,
      "Cartan": 7657,
      "Es": 7658,
      "hsum": 7659,
      "nex": 7660,
      "rα": 7661,
      "sat": 7662,
      "slit": 7663,
      "inverts": 7664,
      "onardo": 7665,
      "toFunctor": 7666,
      "conformal": 7667,
      "otonic": 7668,
      "quad": 7669,
      "rightAngleRotation": 7670,
      "constr": 7671,
      "Leonardo": 7672,
      "getType": 7673,
      "Multico": 7674,
      "IsSquare": 7675,
      "cospherical": 7676,
      "charP": 7677,
      "pairwiseDisjoint": 7678,
      "remaining": 7679,
      "Imo19": 7680,
      "Edges": 7681,
      "adaptation": 7682,
      "denoted": 7683,
      "compatibility": 7684,
      "deduce": 7685,
      "Measur": 7686,
      "cramer": 7687,
      "dlookup": 7688,
      "sol": 7689,
      "widget": 7690,
      "toRingEquiv": 7691,
      "ended": 7692,
      "mkPi": 7693,
      "MulDistribMulAction": 7694,
      "hasse": 7695,
      "ringEquiv": 7696,
      "SMulWithZero": 7697,
      "outside": 7698,
      "RuleTac": 7699,
      "paths": 7700,
      "hμν": 7701,
      "approxOn": 7702,
      "holder": 7703,
      "disjSum": 7704,
      "Symmetry": 7705,
      "IsSymmetric": 7706,
      "factorThruImage": 7707,
      "Helper": 7708,
      "legendreSym": 7709,
      "dedekind": 7710,
      "LCtx": 7711,
      "Simon": 7712,
      "e8": 7713,
      "lawful": 7714,
      "preserved": 7715,
      "refin": 7716,
      "combin": 7717,
      "decomp": 7718,
      "OrEmpty": 7719,
      "OfSet": 7720,
      "hasColimit": 7721,
      "castLE": 7722,
      "Stx": 7723,
      "Transfer": 7724,
      "binomial": 7725,
      "convexJoin": 7726,
      "udon": 7727,
      "densityProcess": 7728,
      "HashSet": 7729,
      "ascFactorial": 7730,
      "iteratedDerivWithin": 7731,
      "fuzzy": 7732,
      "filtration": 7733,
      "artbeats": 7734,
      "karoubi": 7735,
      "niz": 7736,
      "tk": 7737,
      "wcovBy": 7738,
      "toTop": 7739,
      "IsSemisimple": 7740,
      "utter": 7741,
      "MapCircle": 7742,
      "continuousMultilinear": 7743,
      "interpol": 7744,
      "liftHom": 7745,
      "Example": 7746,
      "expMapCircle": 7747,
      "coeffs": 7748,
      "TensorHom": 7749,
      "proven": 7750,
      "Impl": 7751,
      "SuccOrder": 7752,
      "completely": 7753,
      "condexpL2": 7754,
      "InvariantForm": 7755,
      "foldlM": 7756,
      "ValuationRing": 7757,
      "bornology": 7758,
      "expectedType": 7759,
      "iIndepFun": 7760,
      "Edge": 7761,
      "CauchySeqOn": 7762,
      "indeed": 7763,
      "Pan": 7764,
      "PFree": 7765,
      "ZMOD": 7766,
      "ebius": 7767,
      "sw": 7768,
      "x2": 7769,
      "inant": 7770,
      "mapRingHom": 7771,
      "subseq": 7772,
      "Inductive": 7773,
      "SetSemiring": 7774,
      "Unsafe": 7775,
      "symmetry": 7776,
      "ptic": 7777,
      "AddUnits": 7778,
      "getId": 7779,
      "hik": 7780,
      "eraseP": 7781,
      "CongrRight": 7782,
      "universes": 7783,
      "AdjointPair": 7784,
      "twice": 7785,
      "FGModuleCat": 7786,
      "Degenne": 7787,
      "owski": 7788,
      "Comonad": 7789,
      "Rémy": 7790,
      "aces": 7791,
      "hal": 7792,
      "pseud": 7793,
      "undef": 7794,
      "igr": 7795,
      "toBasis": 7796,
      "OfLeft": 7797,
      "descri": 7798,
      "generalization": 7799,
      "Apps": 7800,
      "SemicontinuousOn": 7801,
      "moved": 7802,
      "InnerProductGeometry": 7803,
      "mathemat": 7804,
      "metavariables": 7805,
      "EffectiveEpiFamily": 7806,
      "ExtrOn": 7807,
      "mkFreshExprMVar": 7808,
      "icategorical": 7809,
      "scanl": 7810,
      "across": 7811,
      "Aga": 7812,
      "Freiman": 7813,
      "Fermat": 7814,
      "Hudon": 7815,
      "giving": 7816,
      "him": 7817,
      "kin": 7818,
      "lr": 7819,
      "scal": 7820,
      "wis": 7821,
      "toIs": 7822,
      "tock": 7823,
      "instNN": 7824,
      "CommShift": 7825,
      "CommSemiRingCat": 7826,
      "enstock": 7827,
      "Expres": 7828,
      "agin": 7829,
      "something": 7830,
      "examples": 7831,
      "StrictConvexOn": 7832,
      "PreservesZeroMorphisms": 7833,
      "countablePartition": 7834,
      "VectorSpace": 7835,
      "everything": 7836,
      "MVarCluster": 7837,
      "testAga": 7838,
      "blockDiag": 7839,
      "diamon": 7840,
      "ModularForm": 7841,
      "CancelCommMonoidWithZero": 7842,
      "ConditionallyCompleteLattice": 7843,
      "Holor": 7844,
      "tilted": 7845,
      "testAgainstNN": 7846,
      "Sc": 7847,
      "WType": 7848,
      "boolean": 7849,
      "larger": 7850,
      "rfind": 7851,
      "vs": 7852,
      "yr": 7853,
      "alCalculus": 7854,
      "immediate": 7855,
      "toMultilinearMap": 7856,
      "IsIn": 7857,
      "idth": 7858,
      "finRange": 7859,
      "ha0": 7860,
      "rightOp": 7861,
      "withBot": 7862,
      "irr": 7863,
      "hasForget": 7864,
      "UnitAddCircle": 7865,
      "UnionFind": 7866,
      "FreeAddMonoid": 7867,
      "StarConvex": 7868,
      "AddGroupWithOne": 7869,
      "linfty": 7870,
      "Loop": 7871,
      "ordinals": 7872,
      "isBoundedUnder": 7873,
      "neighborhoods": 7874,
      "isPWO": 7875,
      "precisely": 7876,
      "elem": 7877,
      "fData": 7878,
      "frac": 7879,
      "ken": 7880,
      "ln": 7881,
      "yl": 7882,
      "yProkhorov": 7883,
      "asymm": 7884,
      "ofArrows": 7885,
      "toDFinsupp": 7886,
      "converse": 7887,
      "heap": 7888,
      "compLeft": 7889,
      "opNNNorm": 7890,
      "leftLim": 7891,
      "norms": 7892,
      "OfEquiv": 7893,
      "HasFPowerSeriesOnBall": 7894,
      "reals": 7895,
      "LiftHom": 7896,
      "naturally": 7897,
      "constructors": 7898,
      "CoverDense": 7899,
      "Gaussian": 7900,
      "correspond": 7901,
      "declared": 7902,
      "VanKampen": 7903,
      "certain": 7904,
      "algamation": 7905,
      "preNormEDS": 7906,
      "ExteriorAlgebra": 7907,
      "slitPlane": 7908,
      "ee": 7909,
      "hMul": 7910,
      "ihn": 7911,
      "inequalities": 7912,
      "finish": 7913,
      "pairing": 7914,
      "hsm": 7915,
      "typeclasses": 7916,
      "Thin": 7917,
      "MvPFunctor": 7918,
      "hvw": 7919,
      "Parsed": 7920,
      "Heather": 7921,
      "BddLat": 7922,
      "Theorems100": 7923,
      "Macbeth": 7924,
      "description": 7925,
      "DT": 7926,
      "GT": 7927,
      "ZPow": 7928,
      "bent": 7929,
      "cantor": 7930,
      "da": 7931,
      "fpower": 7932,
      "suggest": 7933,
      "toFilter": 7934,
      "starting": 7935,
      "stirling": 7936,
      "NatCast": 7937,
      "commRing": 7938,
      "ToPresheaf": 7939,
      "distribMulAction": 7940,
      "AlgebraicIndependent": 7941,
      "aki": 7942,
      "coordinates": 7943,
      "thickenedIndicator": 7944,
      "Each": 7945,
      "Similar": 7946,
      "happ": 7947,
      "hermite": 7948,
      "liou": 7949,
      "ni": 7950,
      "por": 7951,
      "αˣ": 7952,
      "⋂₀": 7953,
      "toPGame": 7954,
      "sted": 7955,
      "stmt": 7956,
      "simply": 7957,
      "IsFundamentalDomain": 7958,
      "idual": 7959,
      "measurableEmbedding": 7960,
      "semilinear": 7961,
      "condDistrib": 7962,
      "ih2": 7963,
      "AECover": 7964,
      "evenOdd": 7965,
      "caratheodory": 7966,
      "gamma": 7967,
      "IsLeast": 7968,
      "Oriented": 7969,
      "isoWhiskerRight": 7970,
      "liouville": 7971,
      "beq": 7972,
      "entClosure": 7973,
      "FinStronglyMeasurable": 7974,
      "notations": 7975,
      "moebius": 7976,
      "mkRaw": 7977,
      "keep": 7978,
      "diffeomorph": 7979,
      "Stats": 7980,
      "FreeAddGroup": 7981,
      "matching": 7982,
      "headI": 7983,
      "decidableEq": 7984,
      "nullHomotopic": 7985,
      "said": 7986,
      "Hyp": 7987,
      "Triangular": 7988,
      "numeric": 7989,
      "destutter": 7990,
      "hasFiniteIntegral": 7991,
      "slightly": 7992,
      "Miller": 7993,
      "acy": 7994,
      "rith": 7995,
      "zulip": 7996,
      "to1": 7997,
      "duplicate": 7998,
      "quant": 7999,
      "ibniz": 8000,
      "OfMono": 8001,
      "transition": 8002,
      "urb": 8003,
      "ause": 8004,
      "OpenNhds": 8005,
      "structureSheaf": 8006,
      "subtypeDomain": 8007,
      "OrderedSMul": 8008,
      "aux2": 8009,
      "incre": 8010,
      "adjust": 8011,
      "propext": 8012,
      "smoothSheaf": 8013,
      "Enrich": 8014,
      "rng": 8015,
      "DenseRange": 8016,
      "EventuallyLE": 8017,
      "QuasiMeasurePreserving": 8018,
      "recursion": 8019,
      "echn": 8020,
      "Consider": 8021,
      "distributive": 8022,
      "UniqueDiffOn": 8023,
      "elaborator": 8024,
      "darts": 8025,
      "Epimorphisms": 8026,
      "Numeric": 8027,
      "IntegrationParams": 8028,
      "multichoose": 8029,
      "HaveLebesgueDecomposition": 8030,
      "Kyle": 8031,
      "UV": 8032,
      "Zigzag": 8033,
      "lub": 8034,
      "isCycle": 8035,
      "toNNRat": 8036,
      "IsOfFinOrder": 8037,
      "finpartition": 8038,
      "hf0": 8039,
      "ToLp": 8040,
      "Realizer": 8041,
      "Coinsertion": 8042,
      "ZeroOneClass": 8043,
      "ampleable": 8044,
      "typ": 8045,
      "UniformAddGroup": 8046,
      "Transversals": 8047,
      "Vars": 8048,
      "chainTop": 8049,
      "metho": 8050,
      "denseRange": 8051,
      "neighbour": 8052,
      "Gammaℝ": 8053,
      "truncation": 8054,
      "Construction": 8055,
      "7b9": 8056,
      "manually": 8057,
      "LiouvilleWith": 8058,
      "DiscrTree": 8059,
      "SlashInvariantForm": 8060,
      "Cubic": 8061,
      "Dᵒᵖ": 8062,
      "gref": 8063,
      "mdifferentiableAt": 8064,
      "onment": 8065,
      "toOrderHom": 8066,
      "Suf": 8067,
      "ilon": 8068,
      "hxt": 8069,
      "ironment": 8070,
      "Coequalizers": 8071,
      "Lewis": 8072,
      "HasForget": 8073,
      "SupSet": 8074,
      "Que": 8075,
      "showing": 8076,
      "chooseBasis": 8077,
      "lineDeriv": 8078,
      "hUV": 8079,
      "fixedPoint": 8080,
      "SmoothOn": 8081,
      "QuasiSeparated": 8082,
      "skyscraper": 8083,
      "scheme": 8084,
      "seems": 8085,
      "resolvent": 8086,
      "67": 8087,
      "8f": 8088,
      "cdf": 8089,
      "gs": 8090,
      "hft": 8091,
      "hAdd": 8092,
      "scope": 8093,
      "ℤˣ": 8094,
      "cohomology": 8095,
      "addLeft": 8096,
      "submartingale": 8097,
      "never": 8098,
      "braided": 8099,
      "noteq": 8100,
      "rant": 8101,
      "WithSeminorms": 8102,
      "typevec": 8103,
      "liftAux": 8104,
      "DiffContOnCl": 8105,
      "ersally": 8106,
      "monge": 8107,
      "aux1": 8108,
      "StarOrderedRing": 8109,
      "nthRoots": 8110,
      "smoothing": 8111,
      "Supported": 8112,
      "isLeast": 8113,
      "ShiftIso": 8114,
      "InvariantProp": 8115,
      "fiberwise": 8116,
      "isSquare": 8117,
      "expanding": 8118,
      "builder": 8119,
      "represented": 8120,
      "IsPGroup": 8121,
      "issue": 8122,
      "coordChangeL": 8123,
      "getAppFn": 8124,
      "uniqueDiffOn": 8125,
      "urbaki": 8126,
      "Pare": 8127,
      "Safe": 8128,
      "Satisfi": 8129,
      "gm": 8130,
      "mersenne": 8131,
      "ley": 8132,
      "ises": 8133,
      "isDomain": 8134,
      "really": 8135,
      "addMonoid": 8136,
      "IsGreatest": 8137,
      "Compa": 8138,
      "endomorphisms": 8139,
      "imageToKernel": 8140,
      "natIso": 8141,
      "associativity": 8142,
      "SeminormFamily": 8143,
      "EpiOf": 8144,
      "LinearOrderedAddCommMonoid": 8145,
      "integration": 8146,
      "DivisionMonoid": 8147,
      "Elementary": 8148,
      "origin": 8149,
      "ambdas": 8150,
      "Imo2019": 8151,
      "TangentSpace": 8152,
      "helper": 8153,
      "52": 8154,
      "Mᵐᵒᵖ": 8155,
      "PSigma": 8156,
      "i0": 8157,
      "oom": 8158,
      "sb": 8159,
      "sf": 8160,
      "inits": 8161,
      "independence": 8162,
      "aphs": 8163,
      "ofSet": 8164,
      "hax": 8165,
      "leftOp": 8166,
      "EquivQuotient": 8167,
      "OfIntegers": 8168,
      "Coannihilator": 8169,
      "weaker": 8170,
      "evalTactic": 8171,
      "condCount": 8172,
      "Forward": 8173,
      "StrictConcaveOn": 8174,
      "Biheyting": 8175,
      "cycleFactors": 8176,
      "ConvexSpace": 8177,
      "Membership": 8178,
      "Generators": 8179,
      "mvPolynomial": 8180,
      "GaloisCoinsertion": 8181,
      "enumerable": 8182,
      "transformations": 8183,
      "IsMaxOn": 8184,
      "Specializes": 8185,
      "FTaylorSeriesUpToOn": 8186,
      "b9": 8187,
      "branch": 8188,
      "hΦ": 8189,
      "hsu": 8190,
      "hinj": 8191,
      "unify": 8192,
      "eters": 8193,
      "rightInv": 8194,
      "Reader": 8195,
      "ilat": 8196,
      "why": 8197,
      "hxb": 8198,
      "ToExpr": 8199,
      "artition": 8200,
      "precompose": 8201,
      "plan": 8202,
      "HasBinaryBiproduct": 8203,
      "agrees": 8204,
      "bits": 8205,
      "Biprod": 8206,
      "cache": 8207,
      "Multiplication": 8208,
      "neighborFinset": 8209,
      "Expansion": 8210,
      "stalkMap": 8211,
      "159": 8212,
      "imo2019": 8213,
      "LawfulMonad": 8214,
      "HurwitzZeta": 8215,
      "erve": 8216,
      "toZ": 8217,
      "cocones": 8218,
      "abled": 8219,
      "addRight": 8220,
      "addCommMonoid": 8221,
      "subordinate": 8222,
      "verify": 8223,
      "mode": 8224,
      "homs": 8225,
      "sumAddHom": 8226,
      "perform": 8227,
      "divided": 8228,
      "LeftExtension": 8229,
      "clean": 8230,
      "shown": 8231,
      "TransCmp": 8232,
      "multivariate": 8233,
      "FreeMagma": 8234,
      "StarNormal": 8235,
      "charge": 8236,
      "polyCharpoly": 8237,
      "UniqueMDiff": 8238,
      "multip": 8239,
      "isEmptyElim": 8240,
      "laurent": 8241,
      "recurrence": 8242,
      "analyticAt": 8243,
      "Represent": 8244,
      "Holder": 8245,
      "piCongrLeft": 8246,
      "isoWhiskerLeft": 8247,
      "PolishSpace": 8248,
      "Column": 8249,
      "Fréchet": 8250,
      "DTExpr": 8251,
      "Ber": 8252,
      "FE": 8253,
      "Face": 8254,
      "Turn": 8255,
      "d3": 8256,
      "manif": 8257,
      "zz": 8258,
      "enc": 8259,
      "covariantClass": 8260,
      "trinomial": 8261,
      "Convert": 8262,
      "valMin": 8263,
      "OfArity": 8264,
      "functorCategory": 8265,
      "QuotientMap": 8266,
      "PreservesColimitsOfShape": 8267,
      "findIdx": 8268,
      "aking": 8269,
      "quotQuotEquiv": 8270,
      "SmoothManifoldWithCorners": 8271,
      "antiperiodic": 8272,
      "numerator": 8273,
      "println": 8274,
      "PreservesFiniteLimits": 8275,
      "TotallyDisconnected": 8276,
      "involving": 8277,
      "factoredNumbers": 8278,
      "synthesize": 8279,
      "valMinAbs": 8280,
      "37": 8281,
      "cube": 8282,
      "fc": 8283,
      "sg": 8284,
      "toGerm": 8285,
      "abl": 8286,
      "simpTheorems": 8287,
      "peel": 8288,
      "olds": 8289,
      "Also": 8290,
      "hsf": 8291,
      "hasCoe": 8292,
      "HasFPowerSeriesAt": 8293,
      "locale": 8294,
      "OrderedAddCommGroup": 8295,
      "sSupHom": 8296,
      "polyrith": 8297,
      "Binom": 8298,
      "coconePointUniqueUpToIso": 8299,
      "regularity": 8300,
      "laverage": 8301,
      "complemented": 8302,
      "IsPurelyInseparable": 8303,
      "Eigenvalue": 8304,
      "mixed": 8305,
      "StieltjesFunction": 8306,
      "TruncatedWittVector": 8307,
      "Miu": 8308,
      "Levenshtein": 8309,
      "a7f": 8310,
      "dir": 8311,
      "hfin": 8312,
      "iCycles": 8313,
      "zα": 8314,
      "isNormal": 8315,
      "toBilin": 8316,
      "desired": 8317,
      "FunctorCategory": 8318,
      "NonemptyCompacts": 8319,
      "subtypeEquiv": 8320,
      "OrderedCommRing": 8321,
      "pullbackCone": 8322,
      "separator": 8323,
      "CardEq": 8324,
      "proxy": 8325,
      "seminorms": 8326,
      "WalkingSpan": 8327,
      "gluing": 8328,
      "axioms": 8329,
      "limitConeIsLimit": 8330,
      "Translate": 8331,
      "900": 8332,
      "Denumerable": 8333,
      "Kev": 8334,
      "Law": 8335,
      "a8": 8336,
      "hZ": 8337,
      "narrow": 8338,
      "nice": 8339,
      "isTheta": 8340,
      "condu": 8341,
      "icard": 8342,
      "mapIdx": 8343,
      "chat": 8344,
      "machine": 8345,
      "hys": 8346,
      "dualBasis": 8347,
      "projIcc": 8348,
      "hji": 8349,
      "identifies": 8350,
      "Sorted": 8351,
      "CondKernel": 8352,
      "configuration": 8353,
      "antitoneOn": 8354,
      "Decls": 8355,
      "HasFDerivAtFilter": 8356,
      "imitiveRoots": 8357,
      "LieModuleHom": 8358,
      "homeo": 8359,
      "CCM": 8360,
      "triple": 8361,
      "emeredi": 8362,
      "Kevin": 8363,
      "conductor": 8364,
      "Cho": 8365,
      "Sk": 8366,
      "aₙ": 8367,
      "hor": 8368,
      "suitable": 8369,
      "ecting": 8370,
      "normalization": 8371,
      "FiniteField": 8372,
      "primeCompl": 8373,
      "quotients": 8374,
      "MvFunctor": 8375,
      "AEDisjoint": 8376,
      "replac": 8377,
      "mvqpf": 8378,
      "glb": 8379,
      "isSymm": 8380,
      "lipschitzWith": 8381,
      "including": 8382,
      "currently": 8383,
      "nilpotencyClass": 8384,
      "estimate": 8385,
      "SchwartzMap": 8386,
      "zulipchat": 8387,
      "Ury": 8388,
      "bifunctor": 8389,
      "bliminf": 8390,
      "hν": 8391,
      "nhd": 8392,
      "tm": 8393,
      "torus": 8394,
      "mapComp": 8395,
      "IsArtinian": 8396,
      "IsPeriodicPt": 8397,
      "compLp": 8398,
      "homOf": 8399,
      "cli": 8400,
      "until": 8401,
      "nothing": 8402,
      "limsSup": 8403,
      "LocallyBounded": 8404,
      "tensorLeft": 8405,
      "tails": 8406,
      "Argum": 8407,
      "IsIntegrallyClosed": 8408,
      "weightedSMul": 8409,
      "postcompose": 8410,
      "invertibleOf": 8411,
      "timeout": 8412,
      "representative": 8413,
      "metavariable": 8414,
      "deterministic": 8415,
      "PerfectClosure": 8416,
      "Adapted": 8417,
      "continuousMultilinearCurry": 8418,
      "neighbourho": 8419,
      "Uryso": 8420,
      "Ei": 8421,
      "Lagrange": 8422,
      "bt": 8423,
      "d9": 8424,
      "pq": 8425,
      "pα": 8426,
      "rarily": 8427,
      "slow": 8428,
      "thin": 8429,
      "isVonNBounded": 8430,
      "ofLex": 8431,
      "todo": 8432,
      "IsUniform": 8433,
      "OfHom": 8434,
      "MeasureSpace": 8435,
      "serv": 8436,
      "InfTopHom": 8437,
      "design": 8438,
      "condensed": 8439,
      "sInfHom": 8440,
      "CongrLeft": 8441,
      "convention": 8442,
      "Regularity": 8443,
      "smoothNumbers": 8444,
      "working": 8445,
      "directedOn": 8446,
      "DivisionSemiring": 8447,
      "succeed": 8448,
      "ContinuousFunctionalCalculus": 8449,
      "centralBinom": 8450,
      "orthoc": 8451,
      "Henstock": 8452,
      "Make": 8453,
      "P2": 8454,
      "Ph": 8455,
      "boo": 8456,
      "mβ": 8457,
      "rcli": 8458,
      "toJordanDecomposition": 8459,
      "style": 8460,
      "IsLindelof": 8461,
      "Summ": 8462,
      "fler": 8463,
      "HomLift": 8464,
      "normUnit": 8465,
      "pretrivialization": 8466,
      "hasCompactSupport": 8467,
      "IsoProd": 8468,
      "ranges": 8469,
      "HasOrthogonal": 8470,
      "monomorphisms": 8471,
      "verted": 8472,
      "Sections": 8473,
      "TopologicalSemiring": 8474,
      "RelSeries": 8475,
      "splitOn": 8476,
      "ramification": 8477,
      "Trim": 8478,
      "Powers": 8479,
      "dropWhile": 8480,
      "ProperMap": 8481,
      "CompleteLatticeHom": 8482,
      "arbitrarily": 8483,
      "eigenvector": 8484,
      "piCongrRight": 8485,
      "MarkovKernel": 8486,
      "chromaticNumber": 8487,
      "Queue": 8488,
      "rclike": 8489,
      "Aar": 8490,
      "EDist": 8491,
      "MDifferentiable": 8492,
      "Ren": 8493,
      "Sor": 8494,
      "b23": 8495,
      "ihx": 8496,
      "iCondIndep": 8497,
      "lam": 8498,
      "nlinarith": 8499,
      "x0": 8500,
      "ask": 8501,
      "igid": 8502,
      "toSpanSingleton": 8503,
      "concaveOn": 8504,
      "ids": 8505,
      "derson": 8506,
      "chunk": 8507,
      "hff": 8508,
      "NatLit": 8509,
      "graphs": 8510,
      "finiteCoproduct": 8511,
      "Anderson": 8512,
      "Standard": 8513,
      "uniformInducing": 8514,
      "Congruence": 8515,
      "collap": 8516,
      "newton": 8517,
      "deg1": 8518,
      "Trail": 8519,
      "categorical": 8520,
      "parameters": 8521,
      "Lindelö": 8522,
      "RankCondition": 8523,
      "hasForgetTo": 8524,
      "Aaron": 8525,
      "Cantor": 8526,
      "zoom": 8527,
      "toQuadraticForm": 8528,
      "addGroup": 8529,
      "IsReduced": 8530,
      "finSepDegree": 8531,
      "MulAut": 8532,
      "hx2": 8533,
      "commShiftIso": 8534,
      "antichain": 8535,
      "BoundedOrderHom": 8536,
      "Ratio": 8537,
      "adjMatrix": 8538,
      "Permut": 8539,
      "partialOrder": 8540,
      "MainGoal": 8541,
      "LinOrd": 8542,
      "Ergodic": 8543,
      "StateT": 8544,
      "invariants": 8545,
      "versal": 8546,
      "HasDerivAtFilter": 8547,
      "icographic": 8548,
      "distribution": 8549,
      "deleteEdges": 8550,
      "sieves": 8551,
      "denominators": 8552,
      "otonicity": 8553,
      "Lindelöf": 8554,
      "Dimension": 8555,
      "latter": 8556,
      "m1": 8557,
      "x1": 8558,
      "omov": 8559,
      "isli": 8560,
      "isSuccLimit": 8561,
      "retraction": 8562,
      "stating": 8563,
      "subgoals": 8564,
      "proach": 8565,
      "Finally": 8566,
      "uture": 8567,
      "prodMk": 8568,
      "augment": 8569,
      "SMulRight": 8570,
      "topologies": 8571,
      "continue": 8572,
      "Perfection": 8573,
      "goto": 8574,
      "circumradius": 8575,
      "Micha": 8576,
      "Variables": 8577,
      "Robert": 8578,
      "expectation": 8579,
      "cycleFactorsFinset": 8580,
      "FTC": 8581,
      "pent": 8582,
      "tem": 8583,
      "ortho": 8584,
      "approach": 8585,
      "ital": 8586,
      "seen": 8587,
      "IsEquivalent": 8588,
      "IsMarkovKernel": 8589,
      "entire": 8590,
      "duplic": 8591,
      "Along": 8592,
      "invApp": 8593,
      "HasShift": 8594,
      "augmented": 8595,
      "cancell": 8596,
      "IsSolvable": 8597,
      "sylow": 8598,
      "inverses": 8599,
      "aved": 8600,
      "NormalWord": 8601,
      "ProperSpace": 8602,
      "PredLimit": 8603,
      "blocksFun": 8604,
      "hammingDist": 8605,
      "jacobiSymNat": 8606,
      "denominator": 8607,
      "Bialg": 8608,
      "accessible": 8609,
      "interpolate": 8610,
      "manifolds": 8611,
      "CondKernelCDF": 8612,
      "horiz": 8613,
      "pentagon": 8614,
      "46": 8615,
      "CstarRing": 8616,
      "Thom": 8617,
      "ey": 8618,
      "eVariationOn": 8619,
      "l2": 8620,
      "lan": 8621,
      "pn": 8622,
      "tic": 8623,
      "arran": 8624,
      "aroot": 8625,
      "edral": 8626,
      "toSimpleFunc": 8627,
      "impro": 8628,
      "simpro": 8629,
      "esM": 8630,
      "oplax": 8631,
      "derangements": 8632,
      "tinomial": 8633,
      "transvection": 8634,
      "Semilat": 8635,
      "Print": 8636,
      "angled": 8637,
      "Adam": 8638,
      "Gromov": 8639,
      "lowerCrossingTime": 8640,
      "AssocList": 8641,
      "factorisation": 8642,
      "sheafToPresheaf": 8643,
      "Supports": 8644,
      "nextCoeff": 8645,
      "enumOrd": 8646,
      "lake": 8647,
      "IsCoatom": 8648,
      "fixingSubgroup": 8649,
      "quadrant": 8650,
      "aroots": 8651,
      "But": 8652,
      "Hs": 8653,
      "Zhang": 8654,
      "c78": 8655,
      "gold": 8656,
      "hadd": 8657,
      "hcont": 8658,
      "ihy": 8659,
      "lcs": 8660,
      "slim": 8661,
      "ongest": 8662,
      "leibniz": 8663,
      "isApp": 8664,
      "isFalse": 8665,
      "isTerminal": 8666,
      "ofFinsupp": 8667,
      "exhaust": 8668,
      "coalgebra": 8669,
      "intended": 8670,
      "IsKernel": 8671,
      "subfamily": 8672,
      "easy": 8673,
      "They": 8674,
      "Until": 8675,
      "mkIdent": 8676,
      "umerable": 8677,
      "OfMax": 8678,
      "SupClosed": 8679,
      "ZeroIso": 8680,
      "Strip": 8681,
      "rootD": 8682,
      "generating": 8683,
      "upperBound": 8684,
      "Uniformity": 8685,
      "NonUnitalCommRing": 8686,
      "denumerable": 8687,
      "DistribNeg": 8688,
      "homologyπ": 8689,
      "domRestrict": 8690,
      "elabTerm": 8691,
      "Declar": 8692,
      "quasiMeasurePreserving": 8693,
      "schwartz": 8694,
      "squash": 8695,
      "Michael": 8696,
      "713": 8697,
      "Eisenstein": 8698,
      "SNum": 8699,
      "gb": 8700,
      "halt": 8701,
      "mb": 8702,
      "yth": 8703,
      "lems": 8704,
      "refer": 8705,
      "toRat": 8706,
      "toENat": 8707,
      "combo": 8708,
      "composed": 8709,
      "debug": 8710,
      "IsInt": 8711,
      "Input": 8712,
      "Uniq": 8713,
      "AddOpposite": 8714,
      "commMonoid": 8715,
      "transparency": 8716,
      "angles": 8717,
      "NormedCommRing": 8718,
      "AffineIsometryEquiv": 8719,
      "updateColumn": 8720,
      "express": 8721,
      "Properties": 8722,
      "truncateFun": 8723,
      "ilton": 8724,
      "PositiveCompacts": 8725,
      "absorbs": 8726,
      "areaForm": 8727,
      "ythag": 8728,
      "22": 8729,
      "8e": 8730,
      "Matrices": 8731,
      "SSet": 8732,
      "iot": 8733,
      "lot": 8734,
      "pens": 8735,
      "q1": 8736,
      "trees": 8737,
      "uv": 8738,
      "isFiniteMeasure": 8739,
      "itness": 8740,
      "toComplex": 8741,
      "toL1": 8742,
      "toPoly": 8743,
      "IsTheta": 8744,
      "instSMul": 8745,
      "OfSurjective": 8746,
      "SupBotHom": 8747,
      "Explicit": 8748,
      "ZeroObject": 8749,
      "Topaz": 8750,
      "orean": 8751,
      "Control": 8752,
      "LocallyIntegrable": 8753,
      "CoeTC": 8754,
      "SheafCondition": 8755,
      "establ": 8756,
      "shiftLeft": 8757,
      "ExactFunctor": 8758,
      "enumer": 8759,
      "postcomp": 8760,
      "Multiequalizer": 8761,
      "85f": 8762,
      "hrend": 8763,
      "progress": 8764,
      "ythagorean": 8765,
      "36": 8766,
      "Cut": 8767,
      "Fu": 8768,
      "MDifferentiableAt": 8769,
      "Q2": 8770,
      "hpi": 8771,
      "sentence": 8772,
      "techn": 8773,
      "vitali": 8774,
      "ₗc": 8775,
      "isConj": 8776,
      "multinomial": 8777,
      "coeq": 8778,
      "subcover": 8779,
      "subspaces": 8780,
      "ht1": 8781,
      "extensive": 8782,
      "important": 8783,
      "antically": 8784,
      "restrictPreimage": 8785,
      "reflTransGen": 8786,
      "RingHomCompTriple": 8787,
      "UniformEmbedding": 8788,
      "inference": 8789,
      "OrderedCommGroup": 8790,
      "FreeSemigroup": 8791,
      "hkm": 8792,
      "writes": 8793,
      "divisible": 8794,
      "PseudoMetrizableSpace": 8795,
      "IsPrimitive": 8796,
      "satisfied": 8797,
      "Chebyshev": 8798,
      "Convergent": 8799,
      "Remain": 8800,
      "LieRingModule": 8801,
      "colimMap": 8802,
      "WidePullbackShape": 8803,
      "MooreComplex": 8804,
      "incidenceSet": 8805,
      "smoothingFn": 8806,
      "Arguments": 8807,
      "1100": 8808,
      "39": 8809,
      "Cartesian": 8810,
      "Himm": 8811,
      "c7": 8812,
      "hχ": 8813,
      "rr": 8814,
      "φH": 8815,
      "isUpperSet": 8816,
      "unary": 8817,
      "ofUnits": 8818,
      "IsDiag": 8819,
      "IsFixedPt": 8820,
      "compile": 8821,
      "coeTo": 8822,
      "riemannZeta": 8823,
      "Uncurry": 8824,
      "hfa": 8825,
      "MulZeroOneClass": 8826,
      "Intro": 8827,
      "OfIdeal": 8828,
      "Coercion": 8829,
      "LinearOn": 8830,
      "alizes": 8831,
      "hca": 8832,
      "reci": 8833,
      "ClosedTopology": 8834,
      "LiftProp": 8835,
      "atesLinearOn": 8836,
      "OrderedOn": 8837,
      "StrictOrderedSemiring": 8838,
      "purely": 8839,
      "flector": 8840,
      "triangles": 8841,
      "WellOrderedOn": 8842,
      "circleIntegral": 8843,
      "shiftFunctorZero": 8844,
      "idempotents": 8845,
      "Proofs": 8846,
      "Markus": 8847,
      "Cocycles": 8848,
      "indentD": 8849,
      "Himmel": 8850,
      "hderiv": 8851,
      "marg": 8852,
      "mctx": 8853,
      "xi": 8854,
      "oment": 8855,
      "isPiSystem": 8856,
      "ofFinset": 8857,
      "ofLeftInverse": 8858,
      "toSheafify": 8859,
      "load": 8860,
      "addX": 8861,
      "subgroupoid": 8862,
      "compContinuousLinearMap": 8863,
      "endofunctor": 8864,
      "rightAdjoint": 8865,
      "OfRightInverse": 8866,
      "undant": 8867,
      "topEquiv": 8868,
      "Extra": 8869,
      "FiniteProducts": 8870,
      "filterAt": 8871,
      "PreEnvelGroup": 8872,
      "Collinear": 8873,
      "bitra": 8874,
      "SheafOfModules": 8875,
      "Vector3": 8876,
      "SmoothAt": 8877,
      "primPart": 8878,
      "inherits": 8879,
      "93e": 8880,
      "Else": 8881,
      "much": 8882,
      "Run": 8883,
      "zsqrtd": 8884,
      "μH": 8885,
      "isPath": 8886,
      "isTorsion": 8887,
      "unif": 8888,
      "cocomplex": 8889,
      "IsInternal": 8890,
      "FinCategory": 8891,
      "Substring": 8892,
      "MapComplex": 8893,
      "nonuniform": 8894,
      "AddConst": 8895,
      "Cos": 8896,
      "universally": 8897,
      "ured": 8898,
      "Monomorphisms": 8899,
      "dualCoannihilator": 8900,
      "lowerBound": 8901,
      "Neighb": 8902,
      "AffineLocally": 8903,
      "extendScalars": 8904,
      "MulActionWithZero": 8905,
      "calcul": 8906,
      "tensorRight": 8907,
      "provable": 8908,
      "17e": 8909,
      "binaryProduct": 8910,
      "explicitCokernel": 8911,
      "CommGroupWithZero": 8912,
      "GradedAlgebra": 8913,
      "UnivLE": 8914,
      "IdentDistrib": 8915,
      "fullyFaithful": 8916,
      "userName": 8917,
      "Macro": 8918,
      "liftPropWithinAt": 8919,
      "behavior": 8920,
      "EqvGen": 8921,
      "vertedBy": 8922,
      "recipro": 8923,
      "Aᵐᵒᵖ": 8924,
      "CNF": 8925,
      "bre": 8926,
      "bro": 8927,
      "games": 8928,
      "kson": 8929,
      "pw": 8930,
      "unbot": 8931,
      "ings": 8932,
      "IsChain": 8933,
      "IsMultiplicative": 8934,
      "utes": 8935,
      "ially": 8936,
      "hfd": 8937,
      "oll": 8938,
      "HasBiproduct": 8939,
      "integralSum": 8940,
      "aga": 8941,
      "FunctorToTypes": 8942,
      "dickson": 8943,
      "label": 8944,
      "idirect": 8945,
      "Irrefl": 8946,
      "adicCompletion": 8947,
      "FaithfulSMul": 8948,
      "IsMaxFilter": 8949,
      "IxxClass": 8950,
      "Otherwise": 8951,
      "IsInvertedBy": 8952,
      "stmts": 8953,
      "method": 8954,
      "Aᵀ": 8955,
      "lsingle": 8956,
[...]
