{
  "version": "1.0",
  "truncation": null,
  "padding": null,
  "added_tokens": [
    {
      "id": 0,
      "content": "[UNK]",
      "single_word": false,
      "lstrip": false,
      "rstrip": false,
      "normalized": false,
      "special": true
    },
    {
      "id": 1,
      "content": "[PAD]",
      "single_word": false,
      "lstrip": false,
      "rstrip": false,
      "normalized": false,
      "special": true
    },
    {
      "id": 2,
      "content": "[EOS]",
      "single_word": false,
      "lstrip": false,
      "rstrip": false,
      "normalized": false,
      "special": true
    },
    {
      "id": 3,
      "content": "[PROOFSTATE]",
      "single_word": false,
      "lstrip": false,
      "rstrip": false,
      "normalized": false,
      "special": true
    },
    {
      "id": 4,
      "content": "[PROOFSTEP]",
      "single_word": false,
      "lstrip": false,
      "rstrip": false,
      "normalized": false,
      "special": true
    },
    {
      "id": 5,
      "content": "[TACTICS]",
      "single_word": false,
      "lstrip": false,
      "rstrip": false,
      "normalized": false,
      "special": true
    },
    {
      "id": 6,
      "content": "[SEP]",
      "single_word": false,
      "lstrip": false,
      "rstrip": false,
      "normalized": false,
      "special": true
    },
    {
      "id": 7,
      "content": "[STATESEP]",
      "single_word": false,
      "lstrip": false,
      "rstrip": false,
      "normalized": false,
      "special": true
    },
    {
      "id": 8,
      "content": "[SUC]",
      "single_word": false,
      "lstrip": false,
      "rstrip": false,
      "normalized": false,
      "special": true
    },
    {
      "id": 9,
      "content": "[INC]",
      "single_word": false,
      "lstrip": false,
      "rstrip": false,
      "normalized": false,
      "special": true
    },
    {
      "id": 10,
      "content": "[INV]",
      "single_word": false,
      "lstrip": false,
      "rstrip": false,
      "normalized": false,
      "special": true
    }
  ],
  "normalizer": null,
  "pre_tokenizer": {
    "type": "WhitespaceSplit"
  },
  "post_processor": null,
  "decoder": null,
  "model": {
    "type": "BPE",
    "dropout": null,
    "unk_token": "[UNK]",
    "continuing_subword_prefix": null,
    "end_of_word_suffix": null,
    "fuse_unk": false,
    "byte_fallback": false,
    "ignore_merges": false,
    "vocab": {
      "[UNK]": 0,
      "[PAD]": 1,
      "[EOS]": 2,
      "[PROOFSTATE]": 3,
      "[PROOFSTEP]": 4,
      "[TACTICS]": 5,
      "[SEP]": 6,
      "[STATESEP]": 7,
      "[SUC]": 8,
      "[INC]": 9,
      "[INV]": 10,
      "!": 11,
      "\"": 12,
      "#": 13,
      "$": 14,
      "%": 15,
      "&": 16,
      "'": 17,
      "(": 18,
      ")": 19,
      "*": 20,
      "+": 21,
      ",": 22,
      "-": 23,
      ".": 24,
      "/": 25,
      "0": 26,
      "1": 27,
      "2": 28,
      "3": 29,
      "4": 30,
      "5": 31,
      "6": 32,
      "7": 33,
      "8": 34,
      "9": 35,
      ":": 36,
      ";": 37,
      "<": 38,
      "=": 39,
      ">": 40,
      "?": 41,
      "@": 42,
      "A": 43,
      "B": 44,
      "C": 45,
      "D": 46,
      "E": 47,
      "F": 48,
      "G": 49,
      "H": 50,
      "I": 51,
      "J": 52,
      "K": 53,
      "L": 54,
      "M": 55,
      "N": 56,
      "O": 57,
      "P": 58,
      "Q": 59,
      "R": 60,
      "S": 61,
      "T": 62,
      "U": 63,
      "V": 64,
      "W": 65,
      "X": 66,
      "Y": 67,
      "Z": 68,
      "[": 69,
      "\\": 70,
      "]": 71,
      "^": 72,
      "_": 73,
      "a": 74,
      "b": 75,
      "c": 76,
      "d": 77,
      "e": 78,
      "f": 79,
      "g": 80,
      "h": 81,
      "i": 82,
      "j": 83,
      "k": 84,
      "l": 85,
      "m": 86,
      "n": 87,
      "o": 88,
      "p": 89,
      "q": 90,
      "r": 91,
      "s": 92,
      "t": 93,
      "u": 94,
      "v": 95,
      "w": 96,
      "x": 97,
      "y": 98,
      "z": 99,
      "{": 100,
      "|": 101,
      "}": 102,
      "~": 103,
      "«": 104,
      "¬": 105,
      "²": 106,
      "³": 107,
      "¹": 108,
      "»": 109,
      "×": 110,
      "ʷ": 111,
      "ʸ": 112,
      "ˢ": 113,
      "ˣ": 114,
      "̂": 115,
      "Γ": 116,
      "Δ": 117,
      "Θ": 118,
      "Ι": 119,
      "Λ": 120,
      "Π": 121,
      "Σ": 122,
      "Φ": 123,
      "Ψ": 124,
      "Ω": 125,
      "α": 126,
      "β": 127,
      "γ": 128,
      "δ": 129,
      "ε": 130,
      "ζ": 131,
      "η": 132,
      "θ": 133,
      "ι": 134,
      "κ": 135,
      "λ": 136,
      "μ": 137,
      "ν": 138,
      "ξ": 139,
      "π": 140,
      "ρ": 141,
      "σ": 142,
      "τ": 143,
      "υ": 144,
      "φ": 145,
      "χ": 146,
      "ψ": 147,
      "ω": 148,
      "ϕ": 149,
      "ϖ": 150,
      "ᗮ": 151,
      "ᘁ": 152,
      "ᴬ": 153,
      "ᴴ": 154,
      "ᴸ": 155,
      "ᵀ": 156,
      "ᵁ": 157,
      "ᵃ": 158,
      "ᵇ": 159,
      "ᵈ": 160,
      "ᵍ": 161,
      "ᵐ": 162,
      "ᵒ": 163,
      "ᵖ": 164,
      "ᵛ": 165,
      "ᵢ": 166,
      "ᵣ": 167,
      "ᵤ": 168,
      "ᵥ": 169,
      "ᶜ": 170,
      "ᶠ": 171,
      "‖": 172,
      "†": 173,
      "•": 174,
      "′": 175,
      "‹": 176,
      "›": 177,
      "‼": 178,
      "⁄": 179,
      "⁅": 180,
      "⁆": 181,
      "⁰": 182,
      "ⁱ": 183,
      "⁴": 184,
      "⁵": 185,
      "⁶": 186,
      "⁷": 187,
      "⁸": 188,
      "⁹": 189,
      "⁺": 190,
      "⁻": 191,
      "₀": 192,
      "₁": 193,
      "₂": 194,
      "₃": 195,
      "₄": 196,
      "₅": 197,
      "₆": 198,
      "₇": 199,
      "₈": 200,
      "₊": 201,
      "ₐ": 202,
      "ₑ": 203,
      "ₒ": 204,
      "ₕ": 205,
      "ₖ": 206,
      "ₗ": 207,
      "ₘ": 208,
      "ₙ": 209,
      "ₚ": 210,
      "ₛ": 211,
      "ₜ": 212,
      "ℂ": 213,
      "ℍ": 214,
      "ℐ": 215,
      "ℑ": 216,
      "ℒ": 217,
      "ℓ": 218,
      "ℕ": 219,
      "ℙ": 220,
      "ℚ": 221,
      "ℜ": 222,
      "ℝ": 223,
      "ℤ": 224,
      "ℬ": 225,
      "ℰ": 226,
      "ℱ": 227,
      "ℳ": 228,
      "ℵ": 229,
      "⅟": 230,
      "←": 231,
      "↑": 232,
      "→": 233,
      "↓": 234,
      "↔": 235,
      "↗": 236,
      "↥": 237,
      "↦": 238,
      "↪": 239,
      "↾": 240,
      "↿": 241,
      "⇑": 242,
      "⇒": 243,
      "⇔": 244,
      "⇨": 245,
      "∀": 246,
      "∂": 247,
      "∃": 248,
      "∅": 249,
      "∆": 250,
      "∇": 251,
      "∈": 252,
      "∉": 253,
      "∏": 254,
      "∐": 255,
      "∑": 256,
      "∗": 257,
      "∘": 258,
      "∙": 259,
      "√": 260,
      "∞": 261,
      "∠": 262,
      "∡": 263,
      "∣": 264,
      "∥": 265,
      "∧": 266,
      "∨": 267,
      "∩": 268,
      "∪": 269,
      "∫": 270,
      "∮": 271,
      "∯": 272,
      "∼": 273,
      "≃": 274,
      "≅": 275,
      "≈": 276,
      "≌": 277,
      "≠": 278,
      "≡": 279,
      "≤": 280,
      "≥": 281,
      "≪": 282,
      "≫": 283,
      "≺": 284,
      "≼": 285,
      "⊂": 286,
      "⊆": 287,
      "⊇": 288,
      "⊓": 289,
      "⊔": 290,
      "⊕": 291,
      "⊗": 292,
      "⊙": 293,
      "⊚": 294,
      "⊞": 295,
      "⊢": 296,
      "⊣": 297,
      "⊤": 298,
      "⊥": 299,
      "⊨": 300,
      "⊻": 301,
      "⊼": 302,
      "⋀": 303,
      "⋂": 304,
      "⋃": 305,
      "⋆": 306,
      "⋈": 307,
      "⋊": 308,
      "⋖": 309,
      "⋙": 310,
      "⋯": 311,
      "⌈": 312,
      "⌉": 313,
      "⌊": 314,
      "⌋": 315,
      "⍟": 316,
      "□": 317,
      "▷": 318,
      "▸": 319,
      "◁": 320,
      "◃": 321,
      "○": 322,
      "◫": 323,
      "♯": 324,
      "✝": 325,
      "✶": 326,
      "⟂": 327,
      "⟦": 328,
      "⟧": 329,
      "⟨": 330,
      "⟩": 331,
      "⟪": 332,
      "⟫": 333,
      "⟮": 334,
      "⟯": 335,
      "⟶": 336,
      "⟹": 337,
      "⤳": 338,
      "⥤": 339,
      "⦃": 340,
      "⦄": 341,
      "⧏": 342,
      "⧸": 343,
      "⨁": 344,
      "⨂": 345,
      "⨅": 346,
      "⨆": 347,
      "⨍": 348,
      "⨯": 349,
      "⨳": 350,
      "⨿": 351,
      "⩿": 352,
      "⬝": 353,
      "￢": 354,
      "𝐞": 355,
      "𝒄": 356,
      "𝒜": 357,
      "𝒞": 358,
      "𝒟": 359,
      "𝒢": 360,
      "𝒫": 361,
      "𝒮": 362,
      "𝒯": 363,
      "𝒰": 364,
      "𝒳": 365,
      "𝒴": 366,
      "𝓒": 367,
      "𝓓": 368,
      "𝓕": 369,
      "𝓘": 370,
      "𝓚": 371,
      "𝓜": 372,
      "𝓝": 373,
      "𝓞": 374,
      "𝓟": 375,
      "𝓢": 376,
      "𝓤": 377,
      "𝔖": 378,
      "𝔠": 379,
      "𝔸": 380,
      "𝔹": 381,
      "𝔻": 382,
      "𝕀": 383,
      "𝕂": 384,
      "𝕊": 385,
      "𝕌": 386,
      "𝕎": 387,
      "𝕜": 388,
      "𝕝": 389,
      "𝖣": 390,
      "𝟙": 391,
      "𝟭": 392,
      "in": 393,
      "pe": 394,
      "ype": 395,
      "st": 396,
      "Type": 397,
      "inst": 398,
      "inst✝": 399,
      "u_": 400,
      "on": 401,
      "le": 402,
      "er": 403,
      "om": 404,
      "or": 405,
      "al": 406,
      "as": 407,
      "u_1": 408,
      "et": 409,
      "ro": 410,
      "at": 411,
      "ac": 412,
      "im": 413,
      "re": 414,
      "ing": 415,
      "un": 416,
      "Com": 417,
      "inst✝¹": 418,
      "ap": 419,
      "u_2": 420,
      "it": 421,
      "dd": 422,
      "ar": 423,
      "ul": 424,
      "ra": 425,
      "up": 426,
      "Comm": 427,
      "ed": 428,
      ").": 429,
      "rw": 430,
      "em": 431,
      "imp": 432,
      "id": 433,
      "pac": 434,
      "if": 435,
      "Set": 436,
      "ic": 437,
      "iv": 438,
      "ase": 439,
      "eg": 440,
      "pace": 441,
      "Fin": 442,
      "Space": 443,
      "ble": 444,
      "case": 445,
      "eq": 446,
      "simp": 447,
      "po": 448,
      "orm": 449,
      "ly": 450,
      "inst✝²": 451,
      "is": 452,
      "ge": 453,
      "u_3": 454,
      "su": 455,
      "Is": 456,
      "ex": 457,
      "ct": 458,
      "f_": 459,
      "lo": 460,
      "en": 461,
      "fun": 462,
      "el": 463,
      "roup": 464,
      "Add": 465,
      "ion": 466,
      "=>": 467,
      "mul": 468,
      "du": 469,
      "ero": 470,
      "Group": 471,
      "e_": 472,
      "an": 473,
      "to": 474,
      "t_": 475,
      "co": 476,
      "Ring": 477,
      "eas": 478,
      "easu": 479,
      "eq_": 480,
      "act": 481,
      "map": 482,
      "AddComm": 483,
      "Measu": 484,
      "ono": 485,
      "der": 486,
      "In": 487,
      "ist": 488,
      "int": 489,
      "To": 490,
      "Or": 491,
      "log": 492,
      "Sem": 493,
      "set": 494,
      "inst✝³": 495,
      "ha": 496,
      "ir": 497,
      "u_4": 498,
      "con": 499,
      "ormed": 500,
      "com": 501,
      "Su": 502,
      "able": 503,
      "Mono": 504,
      ".{": 505,
      "))": 506,
      "ine": 507,
      "),": 508,
      "zero": 509,
      "AddCommGroup": 510,
      "Mo": 511,
      "Normed": 512,
      "dule": 513,
      "ec": 514,
      "Pro": 515,
      "mul_": 516,
      "rable": 517,
      "Eq": 518,
      "Monoid": 519,
      "ith": 520,
      ":=": 521,
      "us": 522,
      "th": 523,
      "Cat": 524,
      "il": 525,
      "ig": 526,
      "iring": 527,
      "ran": 528,
      "_n": 529,
      "(f": 530,
      "add": 531,
      "Semiring": 532,
      "ory": 533,
      "eal": 534,
      "Order": 535,
      "cc": 536,
      "ical": 537,
      "of_": 538,
      "_eq_": 539,
      "s.": 540,
      "ort": 541,
      "egory": 542,
      "Nat": 543,
      "Mul": 544,
      "1)": 545,
      "Category": 546,
      "Finset": 547,
      "se": 548,
      "Module": 549,
      "[←": 550,
      "_if": 551,
      "Measurable": 552,
      "app": 553,
      "sub": 554,
      "Sub": 555,
      "hx": 556,
      "ecid": 557,
      "polog": 558,
      "(n": 559,
      "exact": 560,
      "(fun": 561,
      "Topolog": 562,
      "hf": 563,
      "ard": 564,
      ".s": 565,
      "ef": 566,
      "ecidable": 567,
      "Decidable": 568,
      "inst✝⁴": 569,
      "tr": 570,
      "Co": 571,
      "intro": 572,
      "ial": 573,
      "fl": 574,
      "x✝": 575,
      "bra": 576,
      "ter": 577,
      "gebra": 578,
      "only": 579,
      "Category.{": 580,
      "(a": 581,
      "ht": 582,
      "u_5": 583,
      "Topological": 584,
      "type": 585,
      "Un": 586,
      "mem": 587,
      "CommRing": 588,
      "oc": 589,
      "Real": 590,
      "apply": 591,
      "TopologicalSpace": 592,
      "(x": 593,
      "ot": 594,
      "Hom": 595,
      "List": 596,
      "Sort": 597,
      "Nat.": 598,
      "le_": 599,
      "x)": 600,
      "rfl": 601,
      "card": 602,
      "Con": 603,
      "ect": 604,
      "mm": 605,
      "succ": 606,
      "rim": 607,
      "pow": 608,
      "Non": 609,
      "↑(": 610,
      "Al": 611,
      "pt": 612,
      "Zero": 613,
      "inear": 614,
      "p.": 615,
      "iel": 616,
      "ass": 617,
      "val": 618,
      "x_": 619,
      "ast": 620,
      "DecidableEq": 621,
      "Fun": 622,
      "Comp": 623,
      "mk": 624,
      "_s": 625,
      "ield": 626,
      "⁻¹": 627,
      "comp": 628,
      "MeasurableSpace": 629,
      "pro": 630,
      "inv": 631,
      "hs": 632,
      "i)": 633,
      "ction": 634,
      "ive": 635,
      "hp": 636,
      "Prop": 637,
      "Algebra": 638,
      "of": 639,
      "Linear": 640,
      "Has": 641,
      "(i": 642,
      "a✝": 643,
      "ite": 644,
      "Pre": 645,
      "cases": 646,
      "ext": 647,
      "NormedAddCommGroup": 648,
      "one": 649,
      "neg": 650,
      ".map": 651,
      "On": 652,
      "ve": 653,
      "Field": 654,
      "let": 655,
      "ent": 656,
      "Category.{v": 657,
      "Measure": 658,
      "Fintype": 659,
      "''": 660,
      "pos": 661,
      "ight": 662,
      "≥0": 663,
      "((": 664,
      "ob": 665,
      "with": 666,
      "ilter": 667,
      "ℝ≥0": 668,
      "inst✝⁵": 669,
      "range": 670,
      "fine": 671,
      "_of_": 672,
      "Li": 673,
      "n)": 674,
      "age": 675,
      ".to": 676,
      "s,": 677,
      "rime": 678,
      "a)": 679,
      "pty": 680,
      "ymm": 681,
      "um": 682,
      "ric": 683,
      "Map": 684,
      "With": 685,
      "add_": 686,
      "d_": 687,
      "hb": 688,
      "hn": 689,
      "_iff": 690,
      "lef": 691,
      "ation": 692,
      "s_": 693,
      "?_": 694,
      "mem_": 695,
      "empty": 696,
      "ject": 697,
      "h.": 698,
      "comm": 699,
      "ot_": 700,
      "iz": 701,
      "iff": 702,
      "lt_": 703,
      "u}": 704,
      "(↑": 705,
      "Po": 706,
      "(s": 707,
      "uiv": 708,
      "u_6": 709,
      "ver": 710,
      "using": 711,
      "(b": 712,
      "ri": 713,
      "Finite": 714,
      "div": 715,
      ".f": 716,
      "LinearOrder": 717,
      "ad": 718,
      "b)": 719,
      ".n": 720,
      "cast": 721,
      "x_1": 722,
      "mo": 723,
      "ta": 724,
      "tin": 725,
      "art": 726,
      "ous": 727,
      "image": 728,
      "ift": 729,
      "_iff_": 730,
      "tinu": 731,
      "f)": 732,
      "ree": 733,
      "tis": 734,
      "pen": 735,
      "X]": 736,
      "ch": 737,
      "inal": 738,
      "tinuous": 739,
      "this": 740,
      "lass": 741,
      "refine": 742,
      "[X]": 743,
      "x.": 744,
      "fin": 745,
      "left": 746,
      "ol": 747,
      "Int": 748,
      "de": 749,
      "ma": 750,
      "upp": 751,
      "CommSemiring": 752,
      "coe_": 753,
      "2)": 754,
      "s)": 755,
      "actor": 756,
      "α)": 757,
      "one_": 758,
      "inst✝⁶": 759,
      "end": 760,
      "right": 761,
      "Filter": 762,
      "all": 763,
      "univ": 764,
      "Prime": 765,
      "NormedSpace": 766,
      "u₁": 767,
      "simpa": 768,
      "(-": 769,
      "Unit": 770,
      "tiset": 771,
      "↑n": 772,
      "hom": 773,
      "prod": 774,
      "Class": 775,
      "mp": 776,
      "Multiset": 777,
      "Of": 778,
      "Set.": 779,
      "y)": 780,
      "by": 781,
      "Equiv": 782,
      "he": 783,
      "n✝": 784,
      "Bo": 785,
      "AddCommMonoid": 786,
      ".in": 787,
      "inal.{": 788,
      "op": 789,
      "jective": 790,
      "ner": 791,
      "ut": 792,
      "ℝ≥0∞": 793,
      "s✝": 794,
      "have": 795,
      ".re": 796,
      "Id": 797,
      "sum": 798,
      "etric": 799,
      ".d": 800,
      "pow_": 801,
      "Simp": 802,
      "f✝": 803,
      "jo": 804,
      "p)": 805,
      "Mat": 806,
      "R[X]": 807,
      "x,": 808,
      "ab": 809,
      "ate": 810,
      "ng": 811,
      "Top": 812,
      "order": 813,
      "f.": 814,
      "pl": 815,
      "Ord": 816,
      "iff_": 817,
      "Comple": 818,
      "am": 819,
      "Iso": 820,
      "omial": 821,
      "rans": 822,
      "norm": 823,
      "(p": 824,
      "lt": 825,
      "sto": 826,
      "endsto": 827,
      "rap": 828,
      "duct": 829,
      "eff": 830,
      "Simple": 831,
      "Category.{v,": 832,
      "Lie": 833,
      "_neg": 834,
      "raph": 835,
      "ke": 836,
      "Metric": 837,
      "Ab": 838,
      "anc": 839,
      "u_1}": 840,
      "Continuous": 841,
      "ι)": 842,
      "ue": 843,
      "eval": 844,
      "egree": 845,
      "hy": 846,
      "CommMonoid": 847,
      "Open": 848,
      "pre": 849,
      "hd": 850,
      "At": 851,
      "i,": 852,
      "leton": 853,
      "_apply": 854,
      "ingleton": 855,
      "Part": 856,
      "Nonempty": 857,
      "dist": 858,
      "mul,": 859,
      "ph": 860,
      "clo": 861,
      "u_7": 862,
      "es": 863,
      "0)": 864,
      "::": 865,
      "ctor": 866,
      "iform": 867,
      "Ideal": 868,
      "const": 869,
      "aliz": 870,
      "(m": 871,
      "u₂": 872,
      "Sup": 873,
      "get": 874,
      "asis": 875,
      "ern": 876,
      "Qu": 877,
      "pi": 878,
      "leng": 879,
      "length": 880,
      "LinearOrdered": 881,
      "_eq": 882,
      "duction": 883,
      "s₂": 884,
      ";>": 885,
      "<;>": 886,
      ").s": 887,
      "obj": 888,
      "h₁": 889,
      ".Is": 890,
      "sub_": 891,
      "MetricSpace": 892,
      "NN": 893,
      "α✝": 894,
      "ancel": 895,
      ".b": 896,
      "s₁": 897,
      "Str": 898,
      "ι'": 899,
      "mono": 900,
      "a,": 901,
      "Graph": 902,
      "inst✝⁷": 903,
      "simp_": 904,
      "α),": 905,
      "exp": 906,
      "ivial": 907,
      "Real.": 908,
      "Rel": 909,
      "a.": 910,
      "zero,": 911,
      "SimpleGraph": 912,
      "Ordinal.{": 913,
      "Product": 914,
      "zero_": 915,
      "gr": 916,
      "nd": 917,
      "map_": 918,
      "',": 919,
      "assoc": 920,
      "def": 921,
      "ser": 922,
      "ull": 923,
      "rcases": 924,
      "hg": 925,
      "Homo": 926,
      "trans": 927,
      "trivial": 928,
      "hc": 929,
      "per": 930,
      ".2": 931,
      "Div": 932,
      "cle": 933,
      "eri": 934,
      "St": 935,
      "module": 936,
      "Like": 937,
      "₁,": 938,
      "a₂": 939,
      "coe": 940,
      "nat": 941,
      "Matri": 942,
      "max": 943,
      "hi": 944,
      ".mk": 945,
      "sure": 946,
      "ang": 947,
      "simp_rw": 948,
      ".card": 949,
      "Loc": 950,
      "Complex": 951,
      "top": 952,
      "not_": 953,
      "nomial": 954,
      "lynomial": 955,
      "Ch": 956,
      "G.": 957,
      "pan": 958,
      "then": 959,
      "gc": 960,
      "Fact": 961,
      "else": 962,
      "h₂": 963,
      "coeff": 964,
      "Uniform": 965,
      ".1": 966,
      "imit": 967,
      "lift": 968,
      "M'": 969,
      "upport": 970,
      "(1": 971,
      "a₁": 972,
      "tic": 973,
      "l₂": 974,
      "Preorder": 975,
      "Submodule": 976,
      "Complet": 977,
      "und": 978,
      "wo": 979,
      "f'": 980,
      "l.": 981,
      "l₁": 982,
      "Function": 983,
      "ity": 984,
      "ient": 985,
      "vert": 986,
      "induction": 987,
      "algebra": 988,
      "exist": 989,
      "(Nat.": 990,
      "hm": 991,
      "h,": 992,
      ".symm": 993,
      "G'": 994,
      "do": 995,
      "(g": 996,
      "Quot": 997,
      "ernel": 998,
      "subset": 999,
      "Dom": 1000,
      "zero]": 1001,
      "tain": 1002,
      "stric": 1003,
      "a'": 1004,
      "SMul": 1005,
      "hr": 1006,
      "Basis": 1007,
      ".intro": 1008,
      "congr": 1009,
      "n.": 1010,
      "Nontrivial": 1011,
      "Polynomial": 1012,
      "h]": 1013,
      "h_": 1014,
      "ian": 1015,
      "obtain": 1016,
      "ally": 1017,
      "ack": 1018,
      "ind": 1019,
      "Semin": 1020,
      "erm": 1021,
      "(α": 1022,
      "ci": 1023,
      "n,": 1024,
      "Clo": 1025,
      "Mod": 1026,
      "(2": 1027,
      "sed": 1028,
      "Inner": 1029,
      "rintro": 1030,
      "V'": 1031,
      "(I": 1032,
      "(k": 1033,
      "sup": 1034,
      "(map": 1035,
      "Lef": 1036,
      "wer": 1037,
      "inr": 1038,
      ").to": 1039,
      "rfl⟩": 1040,
      "Complete": 1041,
      "oo": 1042,
      "One": 1043,
      "b✝": 1044,
      "au": 1045,
      "g)": 1046,
      "Matrix": 1047,
      "InnerProduct": 1048,
      "two": 1049,
      "orph": 1050,
      "M₂": 1051,
      "u_8": 1052,
      "ens": 1053,
      "InnerProductSpace": 1054,
      "attic": 1055,
      "_iff,": 1056,
      "isjo": 1057,
      "comap": 1058,
      "attice": 1059,
      "(c": 1060,
      "Finset.": 1061,
      "ss": 1062,
      "Der": 1063,
      "Tendsto": 1064,
      "Homolog": 1065,
      "unt": 1066,
      "inl": 1067,
      "itive": 1068,
      "e'": 1069,
      "ure": 1070,
      "Subg": 1071,
      "rank": 1072,
      "Left": 1073,
      "Deriv": 1074,
      "ors": 1075,
      "seu": 1076,
      "seudo": 1077,
      "_pos": 1078,
      ".comp": 1079,
      "⁻¹'": 1080,
      "Char": 1081,
      "alse": 1082,
      "(h": 1083,
      "Seminormed": 1084,
      "Pseudo": 1085,
      "f₁": 1086,
      "non": 1087,
      "elf": 1088,
      "gcd": 1089,
      "Ordered": 1090,
      "ain": 1091,
      "IsS": 1092,
      "Divis": 1093,
      "od": 1094,
      "WithZero": 1095,
      "(X": 1096,
      "atTop": 1097,
      "inst✝⁸": 1098,
      "inser": 1099,
      "div_": 1100,
      "+*": 1101,
      "inv_": 1102,
      "_iff]": 1103,
      "prime": 1104,
      "cos": 1105,
      "Num": 1106,
      "ne_": 1107,
      "_1": 1108,
      "ral": 1109,
      "Degree": 1110,
      "dv": 1111,
      "↑x": 1112,
      "comm]": 1113,
      "b,": 1114,
      "Domain": 1115,
      "↑a": 1116,
      "Norm": 1117,
      "c)": 1118,
      "icat": 1119,
      "b₂": 1120,
      "sin": 1121,
      "Int.": 1122,
      "Integ": 1123,
      "u₁}": 1124,
      "closure": 1125,
      "ism": 1126,
      "orphism": 1127,
      "→+*": 1128,
      "S.": 1129,
      "ag": 1130,
      "min": 1131,
      "ih": 1132,
      "Ass": 1133,
      "Partial": 1134,
      "hain": 1135,
      "F.": 1136,
      "ycle": 1137,
      "_ne_": 1138,
      "strict": 1139,
      "Assoc": 1140,
      "Prod": 1141,
      "[]": 1142,
      "_le": 1143,
      "b₁": 1144,
      "Right": 1145,
      "M.": 1146,
      "mul]": 1147,
      "Bot": 1148,
      "(𝓝": 1149,
      "ition": 1150,
      "ffine": 1151,
      "Em": 1152,
      "Icc": 1153,
      "β)": 1154,
      "Ico": 1155,
      "[s": 1156,
      "inter": 1157,
      "s'": 1158,
      "h'": 1159,
      "t)": 1160,
      "deriv": 1161,
      "_)": 1162,
      "_comp": 1163,
      ".nat": 1164,
      "ti": 1165,
      "x_1)": 1166,
      "comm,": 1167,
      "back": 1168,
      "ullback": 1169,
      "filter": 1170,
      "Category.{v₁,": 1171,
      "1))": 1172,
      "cancel": 1173,
      "one,": 1174,
      "mpr": 1175,
      "₂,": 1176,
      "Sy": 1177,
      "Subgroup": 1178,
      "cast_": 1179,
      "L.": 1180,
      "neg_": 1181,
      "<|": 1182,
      "Morphism": 1183,
      "hab": 1184,
      "one]": 1185,
      "orall": 1186,
      "MeasurableSet": 1187,
      "Card": 1188,
      "singleton": 1189,
      "Within": 1190,
      ").symm": 1191,
      "Union": 1192,
      "p✝": 1193,
      "Ex": 1194,
      "Seq": 1195,
      "Homology": 1196,
      "{x": 1197,
      "e.": 1198,
      "unded": 1199,
      "Inf": 1200,
      "or_": 1201,
      "uct": 1202,
      "exists_": 1203,
      "iag": 1204,
      "factor": 1205,
      "ofReal": 1206,
      "algebraMap": 1207,
      "n'": 1208,
      "row": 1209,
      "ℝ)": 1210,
      "convert": 1211,
      "old": 1212,
      "Quotient": 1213,
      "u_9": 1214,
      "_nat": 1215,
      "M₁": 1216,
      "ome": 1217,
      "pact": 1218,
      "(Nat.Prime": 1219,
      "Succ": 1220,
      "by_": 1221,
      "R)": 1222,
      "HasZero": 1223,
      "hift": 1224,
      "prod_": 1225,
      "_non": 1226,
      "assoc,": 1227,
      "x‖": 1228,
      "ingle": 1229,
      "insert": 1230,
      "Cast": 1231,
      "Ne": 1232,
      "Injective": 1233,
      "tail": 1234,
      "m)": 1235,
      "_apply,": 1236,
      "supp": 1237,
      "n).": 1238,
      "qu": 1239,
      "cons": 1240,
      "s).": 1241,
      "monoid": 1242,
      "ption": 1243,
      "hea": 1244,
      "Ad": 1245,
      "smul_": 1246,
      "h)": 1247,
      "iff,": 1248,
      "[R": 1249,
      "f₂": 1250,
      "var": 1251,
      "Functor": 1252,
      "rwa": 1253,
      "ange": 1254,
      "W.": 1255,
      "k)": 1256,
      "isjoint": 1257,
      "R✝": 1258,
      "p₁": 1259,
      "ce": 1260,
      "ur": 1261,
      "Submonoid": 1262,
      "rom": 1263,
      "Function.": 1264,
      "ho": 1265,
      "p₂": 1266,
      "image_": 1267,
      "true": 1268,
      "Lattice": 1269,
      "X)": 1270,
      "add,": 1271,
      "Gen": 1272,
      ").hom": 1273,
      "Closed": 1274,
      "plit": 1275,
      "ame": 1276,
      "[n": 1277,
      "be": 1278,
      "r)": 1279,
      "h.e'": 1280,
      "b'": 1281,
      "UniformSpace": 1282,
      "ℕ),": 1283,
      "RingHom": 1284,
      "Pred": 1285,
      "g'": 1286,
      "i.": 1287,
      "PartialOrder": 1288,
      "hz": 1289,
      "ep": 1290,
      "ign": 1291,
      "ι),": 1292,
      "dding": 1293,
      "bedding": 1294,
      "angle": 1295,
      ".map_": 1296,
      "Action": 1297,
      ".app": 1298,
      "0,": 1299,
      "abs": 1300,
      "ucture": 1301,
      "verse": 1302,
      "False": 1303,
      "star": 1304,
      "j)": 1305,
      "inst✝⁹": 1306,
      "tendsto": 1307,
      "(y": 1308,
      "Abs": 1309,
      "Prim": 1310,
      "ev": 1311,
      "↑s": 1312,
      "Seri": 1313,
      "Perm": 1314,
      "cal": 1315,
      "Sum": 1316,
      "Factor": 1317,
      "hq": 1318,
      "Compact": 1319,
      "Rat": 1320,
      "(⇑": 1321,
      "S₁": 1322,
      "R'": 1323,
      "ZMod": 1324,
      "_mul_": 1325,
      "integ": 1326,
      "_le_": 1327,
      "def,": 1328,
      "iUnion": 1329,
      "h.e'_": 1330,
      "1,": 1331,
      "_ro": 1332,
      "ht_": 1333,
      "dsimp": 1334,
      "onal": 1335,
      "NNReal.": 1336,
      "bit": 1337,
      "iff]": 1338,
      "Affine": 1339,
      "[R]": 1340,
      "NormedField": 1341,
      "NNReal": 1342,
      "u₂}": 1343,
      "P.": 1344,
      "erase": 1345,
      "inj": 1346,
      "Ar": 1347,
      "Mv": 1348,
      "hu": 1349,
      "and": 1350,
      "ated": 1351,
      ".factor": 1352,
      "ight_": 1353,
      "Topology": 1354,
      "Ioc": 1355,
      "Subtype": 1356,
      "Sym": 1357,
      "LinearMap": 1358,
      "(Fin": 1359,
      "limit": 1360,
      "Star": 1361,
      "igma": 1362,
      "LieRing": 1363,
      "Option": 1364,
      "MulAction": 1365,
      "Morphisms": 1366,
      "induction'": 1367,
      "⟨fun": 1368,
      "additive": 1369,
      "Category.{v₂,": 1370,
      "measu": 1371,
      "↑m": 1372,
      "cl": 1373,
      "IsUnit": 1374,
      "SeminormedAddCommGroup": 1375,
      "t,": 1376,
      "heaf": 1377,
      "ord": 1378,
      "iq": 1379,
      "y,": 1380,
      "hk": 1381,
      "∂μ": 1382,
      "ict": 1383,
      "(by": 1384,
      "by_cases": 1385,
      "_root_": 1386,
      "EMetricSpace": 1387,
      "forall": 1388,
      "finite": 1389,
      "Division": 1390,
      "Disjoint": 1391,
      "Bool": 1392,
      "union": 1393,
      "f).": 1394,
      "x))": 1395,
      "ree_": 1396,
      "t₁": 1397,
      "ber": 1398,
      "nect": 1399,
      ".support": 1400,
      "Preadditive": 1401,
      "G₀": 1402,
      "Ro": 1403,
      "choo": 1404,
      "HasZeroMorphisms": 1405,
      "chain": 1406,
      "wap": 1407,
      "u'": 1408,
      "})": 1409,
      "X✝": 1410,
      "left_": 1411,
      "LE": 1412,
      "arg": 1413,
      "AddGroup": 1414,
      "and_": 1415,
      "Inter": 1416,
      "continuous": 1417,
      "ector": 1418,
      ".fst": 1419,
      "untable": 1420,
      "AddMonoid": 1421,
      "M₀": 1422,
      "Diff": 1423,
      "Limit": 1424,
      "join": 1425,
      "dvd": 1426,
      "[mul_": 1427,
      "ant": 1428,
      "R₂": 1429,
      "(r": 1430,
      "Embedding": 1431,
      "(∀": 1432,
      "++": 1433,
      "_left": 1434,
      "t₂": 1435,
      "ique": 1436,
      "DecidablePred": 1437,
      "hI": 1438,
      "sq": 1439,
      "Locally": 1440,
      "nected": 1441,
      "Coprime": 1442,
      "Val": 1443,
      "Fintype.card": 1444,
      "right_": 1445,
      "Cancel": 1446,
      "head": 1447,
      "rex": 1448,
      "Unital": 1449,
      "rexp": 1450,
      "ular": 1451,
      ")).": 1452,
      "(l": 1453,
      "CLike": 1454,
      "IsOpen": 1455,
      "β✝": 1456,
      "Ob": 1457,
      "ale": 1458,
      "root": 1459,
      "intro.intro": 1460,
      "ization": 1461,
      "ker": 1462,
      "inf": 1463,
      "?_⟩": 1464,
      "RCLike": 1465,
      "NonUnital": 1466,
      "adic": 1467,
      "→ₗ": 1468,
      "IsDomain": 1469,
      "LinearOrderedField": 1470,
      "a1": 1471,
      "_singleton": 1472,
      "unit": 1473,
      "fold": 1474,
      "Strict": 1475,
      "egree_": 1476,
      "Finsupp": 1477,
      "fine_": 1478,
      "t✝": 1479,
      "calar": 1480,
      "S₂": 1481,
      "z)": 1482,
      "x✝¹": 1483,
      "part": 1484,
      "Inde": 1485,
      "str": 1486,
      "eff_": 1487,
      "Series": 1488,
      "Form": 1489,
      "constr": 1490,
      "p,": 1491,
      "u.": 1492,
      "Cardinal.{": 1493,
      "(d": 1494,
      "→₀": 1495,
      "roid": 1496,
      "plic": 1497,
      "(π": 1498,
      "m0": 1499,
      "₁₂": 1500,
      "sum_": 1501,
      "Module.": 1502,
      "ual": 1503,
      "(t": 1504,
      "a).": 1505,
      "m.": 1506,
      "oid": 1507,
      "(0": 1508,
      "Integrable": 1509,
      "-1": 1510,
      "_right": 1511,
      "y✝": 1512,
      "fst": 1513,
      "ract": 1514,
      "rjective": 1515,
      "(Set": 1516,
      "PseudoMetricSpace": 1517,
      "uctor": 1518,
      "ℕ+": 1519,
      "constructor": 1520,
      "↑b": 1521,
      "_,": 1522,
      "NonAssoc": 1523,
      "x).": 1524,
      "(z": 1525,
      "(𝟙": 1526,
      "hl": 1527,
      "inf_": 1528,
      "fi": 1529,
      ".val": 1530,
      "List.": 1531,
      "ring": 1532,
      "_self": 1533,
      "ean": 1534,
      "⇑f": 1535,
      "G''": 1536,
      "unop": 1537,
      "_ne": 1538,
      "MvPolynomial": 1539,
      "']": 1540,
      "u_10": 1541,
      "pend": 1542,
      "F'": 1543,
      "integral": 1544,
      "Dist": 1545,
      "inst✝¹⁰": 1546,
      "iagonal": 1547,
      "air": 1548,
      "acob": 1549,
      "(range": 1550,
      "CompleteSpace": 1551,
      "‖x‖": 1552,
      "{a": 1553,
      "Structure": 1554,
      "(of": 1555,
      "?_,": 1556,
      "Ordinal.{u}": 1557,
      "Countable": 1558,
      "(to": 1559,
      "vex": 1560,
      "u_2,": 1561,
      "Pos": 1562,
      "(algebraMap": 1563,
      "ᵒᵖ": 1564,
      "Root": 1565,
      "refine_": 1566,
      "cycle": 1567,
      "×ˢ": 1568,
      "μ.": 1569,
      "_eq_zero": 1570,
      "Au": 1571,
      "equiv": 1572,
      "ne": 1573,
      "cod": 1574,
      "xs": 1575,
      "t.": 1576,
      "ENNReal.": 1577,
      "(C": 1578,
      "degree": 1579,
      "v}": 1580,
      "hxy": 1581,
      "Bounded": 1582,
      "Free": 1583,
      "oi": 1584,
      "hv": 1585,
      "Cochain": 1586,
      "elf_": 1587,
      "norm_": 1588,
      "l'": 1589,
      "succ,": 1590,
      "Matroid": 1591,
      "alization": 1592,
      "subtype": 1593,
      "icator": 1594,
      "No": 1595,
      "coe,": 1596,
      "bo": 1597,
      "int_": 1598,
      "card_": 1599,
      "_neg,": 1600,
      "iable": 1601,
      "_root_.": 1602,
      ".coe_": 1603,
      "_nonneg": 1604,
      "cont": 1605,
      "inar": 1606,
      "PseudoEMetricSpace": 1607,
      "_ne_zero": 1608,
      "h2": 1609,
      "Coeff": 1610,
      "Category.{u_2,": 1611,
      "(mk": 1612,
      "imal": 1613,
      "[mem_": 1614,
      "i).": 1615,
      "CommMonoidWithZero": 1616,
      "odup": 1617,
      "igit": 1618,
      "span": 1619,
      "lyNormedField": 1620,
      "NontriviallyNormedField": 1621,
      "x₁": 1622,
      "Lift": 1623,
      ".im": 1624,
      "hds": 1625,
      "iant": 1626,
      "x₂": 1627,
      "mod": 1628,
      "f,": 1629,
      "F.map": 1630,
      "},": 1631,
      "⟨x,": 1632,
      "_eq,": 1633,
      "Tors": 1634,
      "c.": 1635,
      "subset_": 1636,
      "(P": 1637,
      "has": 1638,
      "eta": 1639,
      "o.": 1640,
      ".inr": 1641,
      "edist": 1642,
      "choose": 1643,
      "An": 1644,
      "CommGroup": 1645,
      "natDegree": 1646,
      "Mon": 1647,
      "Ordinal.{u_1}": 1648,
      "Tower": 1649,
      "FunLike": 1650,
      "(S": 1651,
      "(∃": 1652,
      "rop": 1653,
      "Abo": 1654,
      "A)": 1655,
      "ofNat": 1656,
      "_lt_": 1657,
      "Set.range": 1658,
      ").inv": 1659,
      "IsScalar": 1660,
      "IsScalarTower": 1661,
      "Ir": 1662,
      "↑p": 1663,
      "pr": 1664,
      "c,": 1665,
      "[Nat.": 1666,
      "m'": 1667,
      "⟨a,": 1668,
      "le_of_": 1669,
      "alk": 1670,
      "Trans": 1671,
      "v)": 1672,
      "ize": 1673,
      "Gener": 1674,
      "R₁": 1675,
      "power": 1676,
      "are": 1677,
      "L₂": 1678,
      "iSup": 1679,
      "hape": 1680,
      "(fin": 1681,
      "eq,": 1682,
      "Iic": 1683,
      "se_": 1684,
      "onomial": 1685,
      "DecidableRel": 1686,
      ".hom": 1687,
      "Vector": 1688,
      "LieAlgebra": 1689,
      "Localization": 1690,
      "ℵ₀": 1691,
      "↑k": 1692,
      "redu": 1693,
      "h0": 1694,
      "sub_eq_": 1695,
      "Pres": 1696,
      "u,": 1697,
      "Shape": 1698,
      "//": 1699,
      "_).": 1700,
      "h1": 1701,
      "y‖": 1702,
      "Dual": 1703,
      "sc": 1704,
      "adj": 1705,
      "mmable": 1706,
      ".inl": 1707,
      "den": 1708,
      "tendsto_": 1709,
      "i✝": 1710,
      "i))": 1711,
      "Inv": 1712,
      "variant": 1713,
      "unc": 1714,
      ".of": 1715,
      "I)": 1716,
      "S)": 1717,
      "io": 1718,
      "ell": 1719,
      "amm": 1720,
      "Fract": 1721,
      "ret": 1722,
      "iter": 1723,
      "diff_": 1724,
      "⟫_": 1725,
      "(_": 1726,
      ".snd": 1727,
      "[a": 1728,
      "ry": 1729,
      "L.Structure": 1730,
      "Kernel": 1731,
      "alized": 1732,
      "v,": 1733,
      "rad": 1734,
      "ves": 1735,
      "l)": 1736,
      "Torsor": 1737,
      "(j": 1738,
      "AddTorsor": 1739,
      "Opens": 1740,
      ".trans": 1741,
      "L'": 1742,
      "bot": 1743,
      "g✝": 1744,
      "ircle": 1745,
      "IH": 1746,
      "coeff_": 1747,
      "igits": 1748,
      "h⟩": 1749,
      ".succ": 1750,
      "(kernel": 1751,
      "c'": 1752,
      "V₂": 1753,
      "nil": 1754,
      "pred": 1755,
      "Adj": 1756,
      "ire": 1757,
      "l,": 1758,
      "Cycle": 1759,
      "closed": 1760,
      "Subsingleton": 1761,
      "s.card": 1762,
      "cases'": 1763,
      "DivisionRing": 1764,
      "∫⁻": 1765,
      "apply,": 1766,
      "Sq": 1767,
      "V''": 1768,
      "m✝": 1769,
      "amma": 1770,
      "pullback": 1771,
      "_eq]": 1772,
      "codable": 1773,
      "loor": 1774,
      "map,": 1775,
      "Aux": 1776,
      "Ev": 1777,
      "some": 1778,
      "ise": 1779,
      "Ioi": 1780,
      "Complex.": 1781,
      "c₂": 1782,
      "ute": 1783,
      "ip": 1784,
      "tisymm": 1785,
      "ie": 1786,
      "At_": 1787,
      "K)": 1788,
      "padic": 1789,
      "rib": 1790,
      "inter_": 1791,
      "Y✝": 1792,
      "⋯)": 1793,
      "erent": 1794,
      "NonAssocSemiring": 1795,
      "X.": 1796,
      "(rfl": 1797,
      "OneClass": 1798,
      "tal": 1799,
      "⋯⟩": 1800,
      "(s.": 1801,
      "IsIso": 1802,
      "Dat": 1803,
      "1).": 1804,
      "def]": 1805,
      "preimage": 1806,
      "ne_zero": 1807,
      "v'": 1808,
      "dvd_": 1809,
      "cen": 1810,
      "Pow": 1811,
      "Closure": 1812,
      "p'": 1813,
      "→*": 1814,
      "eqTo": 1815,
      "auto": 1816,
      ".mpr": 1817,
      "AE": 1818,
      "loc": 1819,
      "Ball": 1820,
      "pec": 1821,
      "_num": 1822,
      "M)": 1823,
      "Fraction": 1824,
      "k,": 1825,
      "dual": 1826,
      "Object": 1827,
      "count": 1828,
      "Ioo": 1829,
      "_apply]": 1830,
      "α'": 1831,
      "pect": 1832,
      "Infinite": 1833,
      "b).": 1834,
      "rot": 1835,
      "n.succ": 1836,
      "(β": 1837,
      "Semil": 1838,
      "g₂": 1839,
      "itz": 1840,
      "ong": 1841,
      "PG": 1842,
      "Ici": 1843,
      "Walk": 1844,
      "antisymm": 1845,
      "ension": 1846,
      "(G": 1847,
      "ℕ)": 1848,
      "refl": 1849,
      "hS": 1850,
      "assoc]": 1851,
      "ift_": 1852,
      "E'": 1853,
      "L₁": 1854,
      "g₁": 1855,
      "l).": 1856,
      "↑π": 1857,
      "u_11": 1858,
      "ading": 1859,
      "edSpace": 1860,
      "(p.": 1861,
      "By": 1862,
      "erentiable": 1863,
      "split": 1864,
      "leading": 1865,
      ".restrict": 1866,
      "add]": 1867,
      "sSup": 1868,
      "Surjective": 1869,
      "‖f": 1870,
      "uage": 1871,
      "anguage": 1872,
      "MO": 1873,
      "[add_": 1874,
      "MOD": 1875,
      ".is": 1876,
      "class": 1877,
      "kernel": 1878,
      "a))": 1879,
      "lt_of_": 1880,
      "'.": 1881,
      "ball": 1882,
      "norm_num": 1883,
      ")]": 1884,
      "m,": 1885,
      "Sym2": 1886,
      "(v": 1887,
      "IsClosed": 1888,
      "eqToHom": 1889,
      "Zeta": 1890,
      "castSucc": 1891,
      "Above": 1892,
      ".den": 1893,
      "(A": 1894,
      "Subalgebra": 1895,
      "epar": 1896,
      "conj": 1897,
      "classical": 1898,
      ".id": 1899,
      "Pat": 1900,
      "Divisors": 1901,
      "WithinAt": 1902,
      "tent": 1903,
      "c₁": 1904,
      "self": 1905,
      "Y'": 1906,
      "elim": 1907,
      "_natCast": 1908,
      "p]": 1909,
      "real": 1910,
      "isjoint_": 1911,
      "subst": 1912,
      "range_": 1913,
      "nonneg": 1914,
      "Of_": 1915,
      "x'": 1916,
      "Pullback": 1917,
      "ComplexShape": 1918,
      "Language": 1919,
      "ate_": 1920,
      "u_2}": 1921,
      "Monic": 1922,
      "hP": 1923,
      "↑(f": 1924,
      "Y)": 1925,
      "hf.": 1926,
      "[h]": 1927,
      "(M": 1928,
      "n))": 1929,
      "pow,": 1930,
      "Data": 1931,
      "decid": 1932,
      "↑↑": 1933,
      "tiplic": 1934,
      "Even": 1935,
      "tiplicity": 1936,
      "chem": 1937,
      "Monoidal": 1938,
      "∀ᶠ": 1939,
      "gener": 1940,
      "End": 1941,
      "Circle": 1942,
      "Primcodable": 1943,
      "(↑(": 1944,
      "ofReal_": 1945,
      "Shift": 1946,
      "2))": 1947,
      "_add_": 1948,
      "congr_": 1949,
      "β'": 1950,
      "plicat": 1951,
      "l.length": 1952,
      "Indep": 1953,
      "q)": 1954,
      "r₂": 1955,
      "move": 1956,
      "NeZero": 1957,
      "n₁": 1958,
      "Semilattice": 1959,
      "Iio": 1960,
      "onent": 1961,
      "ensity": 1962,
      "eq_or": 1963,
      ".l": 1964,
      "ite_": 1965,
      "↑(n": 1966,
      "↑n)": 1967,
      "1]": 1968,
      "[d": 1969,
      "eight": 1970,
      "Par": 1971,
      "Gamma": 1972,
      "i'": 1973,
      "mem_s": 1974,
      "pert": 1975,
      "CompleteLattice": 1976,
      "c✝": 1977,
      "reverse": 1978,
      "Associ": 1979,
      "uation": 1980,
      "ℂ)": 1981,
      "unfold": 1982,
      "DerivAt": 1983,
      "PGame": 1984,
      "cret": 1985,
      "(↑n": 1986,
      "div_eq_": 1987,
      "Integral": 1988,
      "Ind": 1989,
      ".h": 1990,
      "variantClass": 1991,
      ".mem_": 1992,
      "false": 1993,
      "upd": 1994,
      "Connected": 1995,
      "injective": 1996,
      "closedBall": 1997,
      "n₂": 1998,
      "snd": 1999,
      "self_": 2000,
      "Number": 2001,
      ".mp": 2002,
      "mod_": 2003,
      "F.obj": 2004,
      "desc": 2005,
      ".obj": 2006,
      "h✝": 2007,
      "V₁": 2008,
      "r₁": 2009,
      "Nat.cast_": 2010,
      "two_": 2011,
      "eq]": 2012,
      "mul_inv": 2013,
      "measure": 2014,
      "u_12": 2015,
      "exists": 2016,
      "quare": 2017,
      "X'": 2018,
      "p).": 2019,
      "Colimit": 2020,
      "_neg]": 2021,
      "ensor": 2022,
      "decide": 2023,
      "inst✝¹¹": 2024,
      "Schem": 2025,
      "↑y": 2026,
      "β),": 2027,
      "↥(kernel": 2028,
      "→ₗ[R]": 2029,
      "cible": 2030,
      "ax": 2031,
      "ually": 2032,
      "(-1)": 2033,
      "Cl": 2034,
      "Epi": 2035,
      "rat": 2036,
      "Inf_": 2037,
      "comp_": 2038,
      "eq_or_ne": 2039,
      "(if": 2040,
      "reducible": 2041,
      "M₃": 2042,
      "d)": 2043,
      "Density": 2044,
      "restrict": 2045,
      "((fun": 2046,
      "Equiv.": 2047,
      "eval₂": 2048,
      "Distrib": 2049,
      "rpow": 2050,
      ".natAbs": 2051,
      "compl": 2052,
      "Fn": 2053,
      "[l": 2054,
      "(finrank": 2055,
      "Nodup": 2056,
      "Strong": 2057,
      "gen": 2058,
      "_to": 2059,
      "monomial": 2060,
      "Box": 2061,
      "Sh": 2062,
      "X₂": 2063,
      "rpow_": 2064,
      "product": 2065,
      "jOn": 2066,
      ").obj": 2067,
      "Point": 2068,
      "Ap": 2069,
      "↑f": 2070,
      "Unique": 2071,
      "lift.{": 2072,
      "ff": 2073,
      "?_)": 2074,
      "change": 2075,
      "x.1": 2076,
      "refine_1": 2077,
      "MulOneClass": 2078,
      "Presheaf": 2079,
      "bs": 2080,
      "(e": 2081,
      "arrow": 2082,
      "oangle": 2083,
      "rum": 2084,
      "pectrum": 2085,
      "Odd": 2086,
      "edge": 2087,
      "measurable": 2088,
      "LocallyFinite": 2089,
      "Vec": 2090,
      "hj": 2091,
      "tone": 2092,
      "Summable": 2093,
      ".length": 2094,
      "s.Nonempty": 2095,
      "(a,": 2096,
      "plicative": 2097,
      "prim": 2098,
      ".toReal": 2099,
      "CovariantClass": 2100,
      "ort_": 2101,
      "ext_": 2102,
      "F)": 2103,
      "encard": 2104,
      "alizer": 2105,
      "?u": 2106,
      "[n]": 2107,
      "rt": 2108,
      "duc": 2109,
      "Floor": 2110,
      "code": 2111,
      "cy": 2112,
      "x₀": 2113,
      "tan": 2114,
      "Setoid": 2115,
      "Ang": 2116,
      "M✝": 2117,
      "Angle": 2118,
      "finrank": 2119,
      "num": 2120,
      "∑'": 2121,
      "↑t": 2122,
      "⟩,": 2123,
      "ace": 2124,
      "TopCat": 2125,
      "Convex": 2126,
      "MonoidHom": 2127,
      "hpq": 2128,
      "odic": 2129,
      "mα": 2130,
      "IsCompact": 2131,
      "ator": 2132,
      "Min": 2133,
      "egular": 2134,
      "entually": 2135,
      "eval_": 2136,
      "inner": 2137,
      "Arrow": 2138,
      "{a}": 2139,
      "cexp": 2140,
      "{x}": 2141,
      "l✝": 2142,
      "interi": 2143,
      "Path": 2144,
      "ega": 2145,
      ".eq_": 2146,
      "a_1": 2147,
      "X₁": 2148,
      "CancelCommMonoidWithZero": 2149,
      "Regular": 2150,
      "bi": 2151,
      "p₃": 2152,
      "ai": 2153,
      "Normal": 2154,
      "MonoidalCategory": 2155,
      "✝¹": 2156,
      "⦄,": 2157,
      "crete": 2158,
      "Bi": 2159,
      "Bdd": 2160,
      "t).": 2161,
      "sub,": 2162,
      ".num": 2163,
      "abs_": 2164,
      "uniform": 2165,
      ").map": 2166,
      "ay": 2167,
      "out": 2168,
      "ent_": 2169,
      "Ref": 2170,
      "det": 2171,
      "v₁": 2172,
      "cond": 2173,
      "I.": 2174,
      "ole": 2175,
      "sep": 2176,
      "ι✝": 2177,
      "omic": 2178,
      "_symm": 2179,
      "(φ": 2180,
      "Le": 2181,
      "a✝¹": 2182,
      ".prod": 2183,
      "a⁻¹": 2184,
      "none": 2185,
      "vol": 2186,
      "(μ": 2187,
      "pi_": 2188,
      "aleph": 2189,
      "leadingCoeff": 2190,
      "0]": 2191,
      "Re": 2192,
      "index": 2193,
      "x.2": 2194,
      "Function.Injective": 2195,
      "Degree_": 2196,
      "Mem": 2197,
      "potent": 2198,
      "Cond": 2199,
      "=ᶠ": 2200,
      "Boole": 2201,
      "Boolean": 2202,
      "↑q": 2203,
      "from": 2204,
      "✝,": 2205,
      "append": 2206,
      "map]": 2207,
      "NoZero": 2208,
      "EReal": 2209,
      "lock": 2210,
      "(n✝": 2211,
      "ientation": 2212,
      "Bor": 2213,
      "(E": 2214,
      "succ_": 2215,
      "Dim": 2216,
      "u₃": 2217,
      "upper": 2218,
      "K[X]": 2219,
      "L[": 2220,
      "ative": 2221,
      "Chain": 2222,
      "bot_": 2223,
      "g.": 2224,
      "j,": 2225,
      "HomologyData": 2226,
      "pure": 2227,
      "rotate": 2228,
      "le_iff_": 2229,
      "hx,": 2230,
      "forall_": 2231,
      "pal": 2232,
      "inci": 2233,
      "u_3,": 2234,
      "incipal": 2235,
      "bind": 2236,
      "no": 2237,
      "tomic": 2238,
      "clotomic": 2239,
      "airw": 2240,
      "lim": 2241,
      "uter": 2242,
      "Short": 2243,
      "Im": 2244,
      "Category.{u_3,": 2245,
      "Peri": 2246,
      "Scheme": 2247,
      "ick": 2248,
      ")))": 2249,
      "Empty": 2250,
      "ensional": 2251,
      "Dimensional": 2252,
      "↑I": 2253,
      ".norm": 2254,
      "Sigma": 2255,
      "[pow_": 2256,
      "list": 2257,
      "𝕜]": 2258,
      "LieModule": 2259,
      "S✝": 2260,
      "coe]": 2261,
      "Pi": 2262,
      ".r": 2263,
      "Cau": 2264,
      "Range": 2265,
      "inary": 2266,
      "LieRingModule": 2267,
      ".ι": 2268,
      "Separ": 2269,
      "SetLike": 2270,
      "Up": 2271,
      "sInf": 2272,
      "lower": 2273,
      "position": 2274,
      "Nil": 2275,
      "Subtype.val": 2276,
      "(re": 2277,
      "_ifs": 2278,
      "split_ifs": 2279,
      "odd": 2280,
      "pair": 2281,
      "ream": 2282,
      "contr": 2283,
      "p.to": 2284,
      "FiniteDimensional": 2285,
      "even": 2286,
      "Alg": 2287,
      "Lo": 2288,
      "S,": 2289,
      "Span": 2290,
      "s]": 2291,
      "FiniteMeasure": 2292,
      "Commute": 2293,
      ".inv": 2294,
      "Dis": 2295,
      "hU": 2296,
      "ible": 2297,
      "₂)": 2298,
      "le,": 2299,
      "idiagonal": 2300,
      "LocallyFiniteOrder": 2301,
      "h).": 2302,
      "[is": 2303,
      "cons,": 2304,
      "rier": 2305,
      "strict_": 2306,
      "Param": 2307,
      "Nat.Prime": 2308,
      "r,": 2309,
      "¬p": 2310,
      "Rec": 2311,
      "z.im": 2312,
      "Image": 2313,
      "ℤ)": 2314,
      "orget": 2315,
      "Nat.card": 2316,
      "Classical": 2317,
      "_smul_": 2318,
      "ofD": 2319,
      "withDensity": 2320,
      "Homological": 2321,
      "jacob": 2322,
      "arct": 2323,
      "arctan": 2324,
      "(coeff": 2325,
      "Cᵒᵖ": 2326,
      "haveI": 2327,
      "μ)": 2328,
      "inst✝¹²": 2329,
      "⟫_𝕜": 2330,
      "tran": 2331,
      "poly": 2332,
      "elian": 2333,
      "CochainComplex": 2334,
      "Invert": 2335,
      "Den": 2336,
      "Cont": 2337,
      "Max": 2338,
      "Monotone": 2339,
      "hiftFunctor": 2340,
      "Γ₀": 2341,
      "ive_": 2342,
      ".span": 2343,
      "empty_": 2344,
      ".natDegree": 2345,
      "sub_eq_add": 2346,
      "[to": 2347,
      "⟨_,": 2348,
      "icon": 2349,
      "_eq_of_": 2350,
      "Abelian": 2351,
      "h₀": 2352,
      "trunc": 2353,
      "_id": 2354,
      "preimage_": 2355,
      "ι₂": 2356,
      "logy": 2357,
      "_nhds": 2358,
      "connected": 2359,
      "LinearMap.": 2360,
      "Differentiable": 2361,
      "s.re": 2362,
      "olut": 2363,
      "univ,": 2364,
      "A'": 2365,
      "Set.mem_": 2366,
      ".refl": 2367,
      "G.Adj": 2368,
      "update": 2369,
      "Well": 2370,
      "⟪x,": 2371,
      "Quot.mk": 2372,
      "f₀": 2373,
      "le_antisymm": 2374,
      "indicator": 2375,
      "n]": 2376,
      "orderOf": 2377,
      "Jacob": 2378,
      ").comp": 2379,
      "x]": 2380,
      "y))": 2381,
      "v.": 2382,
      "Preser": 2383,
      "eventually": 2384,
      "prime_": 2385,
      "z✝": 2386,
      "conv": 2387,
      "C)": 2388,
      "G✝": 2389,
      "[eq_": 2390,
      "AffineSpace": 2391,
      "interior": 2392,
      "volum": 2393,
      "uterMeasure": 2394,
      "On_": 2395,
      "utation": 2396,
      "j'": 2397,
      "oull": 2398,
      "z,": 2399,
      "ernoull": 2400,
      "integral_": 2401,
      "Fac": 2402,
      "itt": 2403,
      "u)": 2404,
      "The": 2405,
      "basis": 2406,
      "p.natDegree": 2407,
      "Polynomial.": 2408,
      "left,": 2409,
      "Factors": 2410,
      "^[": 2411,
      "ily": 2412,
      "Func": 2413,
      "⁻¹)": 2414,
      "term": 2415,
      "chy": 2416,
      "perty": 2417,
      "B'": 2418,
      "nth": 2419,
      "y'": 2420,
      "ys": 2421,
      "Subs": 2422,
      "starRing": 2423,
      "if_pos": 2424,
      "![": 2425,
      ".toFinset": 2426,
      "jacobi": 2427,
      "Tr": 2428,
      "e)": 2429,
      "Jacobian": 2430,
      "partition": 2431,
      "padicVal": 2432,
      "ment": 2433,
      "ult": 2434,
      "WithBot": 2435,
      "PosNum": 2436,
      "𝕜'": 2437,
      "LinearOrderedAddCommGroup": 2438,
      "Quotient.mk": 2439,
      "CD": 2440,
      "_zero": 2441,
      "ich": 2442,
      "usho": 2443,
      ".induction": 2444,
      "?u.": 2445,
      "X_": 2446,
      "⟨i,": 2447,
      "fib": 2448,
      "ShortComplex": 2449,
      "[h": 2450,
      "r✝": 2451,
      "w,": 2452,
      "trans_": 2453,
      "[MOD": 2454,
      "ou": 2455,
      "t'": 2456,
      "↑d": 2457,
      "arc": 2458,
      "multiplicity": 2459,
      "object": 2460,
      "(co": 2461,
      "airwise": 2462,
      "ius": 2463,
      "our": 2464,
      "x}": 2465,
      "succ]": 2466,
      "Condition": 2467,
      "base": 2468,
      "xn": 2469,
      "Irreducible": 2470,
      ".comap": 2471,
      "Gr": 2472,
      "center": 2473,
      "Cor": 2474,
      "_zero,": 2475,
      "j✝": 2476,
      "w)": 2477,
      "inde": 2478,
      "hds_": 2479,
      "s.Finite": 2480,
      "Subobject": 2481,
      "(Finset": 2482,
      "G)": 2483,
      "ue_": 2484,
      "TypeVec": 2485,
      "ha,": 2486,
      "CharP": 2487,
      "ushout": 2488,
      "A.": 2489,
      "single": 2490,
      "div_eq_mul_inv": 2491,
      "insert_": 2492,
      "q✝": 2493,
      "erw": 2494,
      "(q": 2495,
      ".sign": 2496,
      "sup_": 2497,
      "powerset": 2498,
      "(insert": 2499,
      "hst": 2500,
      "‖x": 2501,
      "p.1": 2502,
      "β₂": 2503,
      "adrat": 2504,
      ").toReal": 2505,
      "ieve": 2506,
      "adratic": 2507,
      "(List": 2508,
      "Op": 2509,
      "icken": 2510,
      ".some": 2511,
      "_of_le": 2512,
      "HomologicalComplex": 2513,
      "(F": 2514,
      "v₂": 2515,
      "⟩⟩": 2516,
      ").2": 2517,
      "urry": 2518,
      "H.": 2519,
      "div,": 2520,
      "G.Walk": 2521,
      "Col": 2522,
      "PartE": 2523,
      "BooleanAlgebra": 2524,
      "igroup": 2525,
      "Applicative": 2526,
      "Nilpotent": 2527,
      "b.": 2528,
      "cone": 2529,
      "OrderTopology": 2530,
      "(ad": 2531,
      "amily": 2532,
      "NormedAddTorsor": 2533,
      "ContinuousAt": 2534,
      "I,": 2535,
      "_def,": 2536,
      "i₁": 2537,
      "if_neg": 2538,
      "mall": 2539,
      "pose": 2540,
      "Orientation": 2541,
      "PresheafedSpace": 2542,
      "ofDigits": 2543,
      "imed": 2544,
      "toFun": 2545,
      "chimed": 2546,
      "Stream": 2547,
      "SemilatticeSup": 2548,
      "chimedean": 2549,
      "linar": 2550,
      "β₁": 2551,
      "‖y‖": 2552,
      "linarith": 2553,
      "Support": 2554,
      "mul_assoc,": 2555,
      "_smul,": 2556,
      "n.factor": 2557,
      ").1": 2558,
      "(min": 2559,
      "CharZero": 2560,
      "Ant": 2561,
      "[ae": 2562,
      "starRingEnd": 2563,
      "Pair": 2564,
      "→L[": 2565,
      "mk,": 2566,
      "hne": 2567,
      "P'": 2568,
      "A✝": 2569,
      "Ha": 2570,
      "hμ": 2571,
      "Exp": 2572,
      "Th": 2573,
      ").card": 2574,
      "OuterMeasure": 2575,
      "ful": 2576,
      "r'": 2577,
      "find": 2578,
      "gcd_": 2579,
      ".intro.intro": 2580,
      "Tri": 2581,
      "drop": 2582,
      "lift_": 2583,
      "↑u": 2584,
      "Cone": 2585,
      ").support": 2586,
      "StarRing": 2587,
      "^[n]": 2588,
      "take": 2589,
      "g,": 2590,
      "Invertible": 2591,
      "N)": 2592,
      "Ordinal.{max": 2593,
      "(⋃": 2594,
      "We": 2595,
      "apo": 2596,
      "pos.": 2597,
      "ann": 2598,
      "Property": 2599,
      "ENNReal.ofReal": 2600,
      "Generalized": 2601,
      "y₁": 2602,
      "Associate": 2603,
      "Pairwise": 2604,
      "q).": 2605,
      "From": 2606,
      "ary": 2607,
      "E)": 2608,
      "hfg": 2609,
      "(ι": 2610,
      "⟨n,": 2611,
      "(forget": 2612,
      "zero_lt_": 2613,
      ".single": 2614,
      "univ]": 2615,
      "contrapo": 2616,
      "contrapose": 2617,
      "_mono": 2618,
      "est": 2619,
      "w'": 2620,
      "zpow": 2621,
      "le]": 2622,
      "sublist": 2623,
      "or_lt": 2624,
      "roots": 2625,
      "ifield": 2626,
      "Semifield": 2627,
      "OrderedRing": 2628,
      "Archimedean": 2629,
      "rwitz": 2630,
      "Diag": 2631,
      "Tensor": 2632,
      "mβ": 2633,
      "WithTop": 2634,
      "right,": 2635,
      "Lower": 2636,
      "Binary": 2637,
      "_inv": 2638,
      "↥(": 2639,
      "toFinsupp": 2640,
      "(u": 2641,
      "convex": 2642,
      "(norm": 2643,
      "f.to": 2644,
      "(X,": 2645,
      "ration": 2646,
      "↑z": 2647,
      "lyMeasurable": 2648,
      "proj": 2649,
      "μ✝": 2650,
      "upport_": 2651,
      "bounded": 2652,
      "hs.": 2653,
      "nDeriv": 2654,
      "↑i": 2655,
      ".degree": 2656,
      "(∑": 2657,
      "B)": 2658,
      "hC": 2659,
      "omega": 2660,
      "abil": 2661,
      "(α_": 2662,
      "Theory": 2663,
      "degree_": 2664,
      "}.": 2665,
      "φ)": 2666,
      "sch": 2667,
      "w₁": 2668,
      "w✝": 2669,
      ".ne": 2670,
      "smul_eq_": 2671,
      "Independ": 2672,
      "FractionRing": 2673,
      "-ᵥ": 2674,
      "ting": 2675,
      "μ]": 2676,
      "Cardinal.{u_1}": 2677,
      "sign": 2678,
      "y₂": 2679,
      "↑r": 2680,
      "FloorRing": 2681,
      "biUnion": 2682,
      "Const": 2683,
      "Units.": 2684,
      "irect": 2685,
      "IsLocalization": 2686,
      "functor": 2687,
      "HasHomology": 2688,
      "_comp,": 2689,
      "NonUnitalNonAssocSemiring": 2690,
      "K.": 2691,
      "how": 2692,
      "Primitive": 2693,
      "_mem": 2694,
      "smul,": 2695,
      "uc": 2696,
      "Finsup": 2697,
      "true_": 2698,
      "one_mul]": 2699,
      "defa": 2700,
      "Exist": 2701,
      "not": 2702,
      "mmer": 2703,
      "TypeVec.{": 2704,
      "LT": 2705,
      "ZF": 2706,
      ".elim": 2707,
      "CommClass": 2708,
      "_sq": 2709,
      "sub_cancel": 2710,
      "Homotop": 2711,
      "SMulCommClass": 2712,
      "Fi": 2713,
      "ub": 2714,
      "y.": 2715,
      "enum": 2716,
      "Function.comp": 2717,
      "Pi.": 2718,
      "hA": 2719,
      "symm": 2720,
      "[h,": 2721,
      "h.e'_3": 2722,
      "2,": 2723,
      "R),": 2724,
      "S₃": 2725,
      "ucl": 2726,
      "idean": 2727,
      "Int.cast": 2728,
      "uclidean": 2729,
      "3)": 2730,
      "hα": 2731,
      "rec": 2732,
      "IsCoprime": 2733,
      "Subgraph": 2734,
      "R₃": 2735,
      "cs.": 2736,
      "q.": 2737,
      "z₂": 2738,
      "(single": 2739,
      ").toNNReal": 2740,
      "Borel": 2741,
      "cm": 2742,
      "divis": 2743,
      "⟩)": 2744,
      "p.Is": 2745,
      "homo": 2746,
      "(R": 2747,
      "MonoidWithZero": 2748,
      "ZeroClass": 2749,
      "z₁": 2750,
      "⟨⟨": 2751,
      "mul_eq_": 2752,
      "Discrete": 2753,
      ".not_": 2754,
      "autoParam": 2755,
      ".co": 2756,
      "Term": 2757,
      "b))": 2758,
      "Power": 2759,
      "abv": 2760,
      "LinearOrderedRing": 2761,
      "(log": 2762,
      "ncard": 2763,
      "(x,": 2764,
      "OrderedSemiring": 2765,
      "Spectrum": 2766,
      "sᶜ": 2767,
      "toFinset": 2768,
      "volume": 2769,
      "contrapose!": 2770,
      "BorelSpace": 2771,
      "(Multiset": 2772,
      "Same": 2773,
      "_auto": 2774,
      "diff": 2775,
      "δ'": 2776,
      "Factorial": 2777,
      "_auto✝": 2778,
      "disjoint_": 2779,
      "til": 2780,
      "hs,": 2781,
      "ContinuousOn": 2782,
      "antidiagonal": 2783,
      "structure": 2784,
      "rational": 2785,
      "(image": 2786,
      "ℕ∞": 2787,
      "↑0": 2788,
      "I✝": 2789,
      "cons_": 2790,
      "Congr": 2791,
      "Upper": 2792,
      "Lp": 2793,
      "ickening": 2794,
      "hB": 2795,
      "x⁻¹": 2796,
      "refine_2": 2797,
      "A₁": 2798,
      "Ele": 2799,
      "(w": 2800,
      "0}": 2801,
      ").trans": 2802,
      "extend": 2803,
      "filter_": 2804,
      "principal": 2805,
      "Setoid.r": 2806,
      "'_": 2807,
      "x|": 2808,
      "↥S": 2809,
      "⇑(": 2810,
      "etry": 2811,
      ".cast": 2812,
      "stem": 2813,
      "Isom": 2814,
      "adjoin": 2815,
      ".det": 2816,
      "C✝": 2817,
      "iInf": 2818,
      "ank": 2819,
      "inver": 2820,
      "W'": 2821,
      "aes": 2822,
      "{b": 2823,
      "aesop": 2824,
      "H)": 2825,
      "ler": 2826,
      "System": 2827,
      "_root_.RCLike": 2828,
      "conv_": 2829,
      "Stream'": 2830,
      "(F.map": 2831,
      "oned": 2832,
      "left]": 2833,
      "Obj": 2834,
      "o.oangle": 2835,
      "Base": 2836,
      "Pl": 2837,
      "HasPullback": 2838,
      "right]": 2839,
      "le_of_lt": 2840,
      "1),": 2841,
      "atBot": 2842,
      "joint": 2843,
      "LinearOrderedSemifield": 2844,
      "[*": 2845,
      "[f": 2846,
      "κ'": 2847,
      "asic": 2848,
      "lic": 2849,
      "WithOne": 2850,
      ".reverse": 2851,
      "encode": 2852,
      "ZFSet": 2853,
      "X⟧": 2854,
      "_lt": 2855,
      "⟦X⟧": 2856,
      "Semigroup": 2857,
      "Moves": 2858,
      "Simplex": 2859,
      "cycles": 2860,
      "Grp": 2861,
      "affine": 2862,
      "rt_": 2863,
      "AEMeasurable": 2864,
      "Dense": 2865,
      "f.support": 2866,
      "tho": 2867,
      "OrderBot": 2868,
      "hT": 2869,
      "hw": 2870,
      "hφ": 2871,
      "last": 2872,
      "id]": 2873,
      "=ᶠ[ae": 2874,
      "P.part": 2875,
      "contra": 2876,
      "denom": 2877,
      "generate": 2878,
      "Block": 2879,
      "[sub_eq_add": 2880,
      "_re": 2881,
      "_subset": 2882,
      "funext": 2883,
      "congr_arg": 2884,
      ").prod": 2885,
      "Exact": 2886,
      "StrictMono": 2887,
      "Q)": 2888,
      "(succ": 2889,
      "(ZMod": 2890,
      "_of_mem": 2891,
      "uiver": 2892,
      "norm_cast": 2893,
      "_on": 2894,
      ".le": 2895,
      "nn": 2896,
      "hx]": 2897,
      ".size": 2898,
      "max_": 2899,
      "RatFunc": 2900,
      "BddAbove": 2901,
      "Quiver": 2902,
      "iInf_": 2903,
      "P)": 2904,
      "fal": 2905,
      "{p": 2906,
      "α₁": 2907,
      "_nonempty": 2908,
      "Idx": 2909,
      "::ₘ": 2910,
      "Cardinal": 2911,
      "factors": 2912,
      "HasZeroObject": 2913,
      "Finsupp.": 2914,
      ".lift": 2915,
      "X,": 2916,
      "f))": 2917,
      "mk_": 2918,
      "HasShift": 2919,
      "neg,": 2920,
      "e.symm": 2921,
      "i₂": 2922,
      "test": 2923,
      "xet": 2924,
      "{y": 2925,
      "(Sigma": 2926,
      "xeter": 2927,
      "Cur": 2928,
      "Mk": 2929,
      "Pt": 2930,
      "hR": 2931,
      ".ind": 2932,
      "Irrational": 2933,
      "p.degree": 2934,
      "Coxeter": 2935,
      "range,": 2936,
      "_of_pos": 2937,
      "AlgHom": 2938,
      "AddCircle": 2939,
      "f₁'": 2940,
      "Ne,": 2941,
      ".choose": 2942,
      "H'": 2943,
      "bernoull": 2944,
      "s))": 2945,
      "asc": 2946,
      "Set.univ": 2947,
      "exp_": 2948,
      "Ext": 2949,
      "γ)": 2950,
      "ere": 2951,
      "Nat.add_": 2952,
      "char": 2953,
      "Int.ofNat": 2954,
      "Curve": 2955,
      "Category.": 2956,
      "pow]": 2957,
      ".toNNReal": 2958,
      "X),": 2959,
      "cs": 2960,
      "eom": 2961,
      "iso": 2962,
      "empty,": 2963,
      "M.Indep": 2964,
      "(le_": 2965,
      ".π": 2966,
      "]]": 2967,
      "open": 2968,
      "π)": 2969,
      "Periodic": 2970,
      "(μ.": 2971,
      "Euclidean": 2972,
      "La": 2973,
      "(H": 2974,
      "ices": 2975,
      "Semicon": 2976,
      "use": 2977,
      "Independent": 2978,
      "0).": 2979,
      "[p]": 2980,
      "hK": 2981,
      "(swap": 2982,
      "Bound": 2983,
      "schitz": 2984,
      "R⟦X⟧": 2985,
      "eq_of_": 2986,
      "_self,": 2987,
      "iterate_": 2988,
      "StronglyMeasurable": 2989,
      "Refle": 2990,
      "Z✝": 2991,
      "ben": 2992,
      "∘ₗ": 2993,
      "⟨b,": 2994,
      "roben": 2995,
      "IsNilpotent": 2996,
      "Indicator": 2997,
      "robenius": 2998,
      "Small": 2999,
      "gt": 3000,
      "v✝": 3001,
      "mul_one]": 3002,
      "OfLE": 3003,
      "dist_": 3004,
      "↑x)": 3005,
      "jection": 3006,
      "1}": 3007,
      "sing": 3008,
      "ℝ),": 3009,
      "surjective": 3010,
      "p.coeff": 3011,
      "plicate": 3012,
      "ward": 3013,
      "setOf_": 3014,
      "habit": 3015,
      "μ₁": 3016,
      "Multi": 3017,
      "?u.2": 3018,
      "/.": 3019,
      "roth": 3020,
      "mul_div_": 3021,
      "asicOpen": 3022,
      "lt_iff_": 3023,
      "pres": 3024,
      "Quadratic": 3025,
      "(Ico": 3026,
      "NeBot": 3027,
      "ighb": 3028,
      ".sup": 3029,
      "raded": 3030,
      "$>": 3031,
      "S'": 3032,
      "xed": 3033,
      "suff": 3034,
      "⟫_ℝ": 3035,
      "node": 3036,
      "suffices": 3037,
      "V)": 3038,
      "hx⟩": 3039,
      "ext1": 3040,
      "factorial": 3041,
      "default": 3042,
      "Exists": 3043,
      "M''": 3044,
      "U)": 3045,
      "ren": 3046,
      "Locus": 3047,
      "inj,": 3048,
      "moveLeft": 3049,
      "ew": 3050,
      "g).": 3051,
      "IsPrimitive": 3052,
      "_norm": 3053,
      ".dist": 3054,
      "comap_": 3055,
      "_[p]": 3056,
      "Prob": 3057,
      "ance": 3058,
      "Finset.range": 3059,
      "MorphismProperty": 3060,
      "duced": 3061,
      "cat": 3062,
      "point": 3063,
      "Compl": 3064,
      "h.e'_2": 3065,
      "rwitzZeta": 3066,
      "[coe_": 3067,
      "μ₂": 3068,
      "minimal": 3069,
      "Adjoint": 3070,
      "d₁": 3071,
      "Component": 3072,
      "toIoc": 3073,
      ".sq": 3074,
      "olution": 3075,
      "z.re": 3076,
      "ecew": 3077,
      "_compl": 3078,
      "α⦄,": 3079,
      "isUnit": 3080,
      "ence": 3081,
      "↑((": 3082,
      "SigmaFinite": 3083,
      "ourier": 3084,
      ".out": 3085,
      "ok": 3086,
      "y).": 3087,
      "orSet": 3088,
      "IsFiniteMeasure": 3089,
      ".smul_": 3090,
      "natDegree_": 3091,
      "derivative": 3092,
      "W.a": 3093,
      "union_": 3094,
      "Cauchy": 3095,
      "A₂": 3096,
      "Cy": 3097,
      "inst✝¹³": 3098,
      "(Prod": 3099,
      "smul": 3100,
      "ish": 3101,
      "low": 3102,
      "irected": 3103,
      "mat": 3104,
      "S₁.": 3105,
      "DistribMulAction": 3106,
      "Bil": 3107,
      "finset": 3108,
      "get?": 3109,
      "M.E": 3110,
      "gonal": 3111,
      "asi": 3112,
      "hb,": 3113,
      "SeminormedGroup": 3114,
      "thogonal": 3115,
      "X.to": 3116,
      "look": 3117,
      "mulSupport": 3118,
      "Be": 3119,
      "m₂": 3120,
      "tsum": 3121,
      "unt_": 3122,
      "arrows": 3123,
      "Law": 3124,
      "#α": 3125,
      "(∏": 3126,
      "_⟩": 3127,
      "hε": 3128,
      "₃,": 3129,
      "rfl,": 3130,
      "_of_nonneg": 3131,
      "pi_div_": 3132,
      "NF": 3133,
      "⟨y,": 3134,
      "padicNorm": 3135,
      "Preserves": 3136,
      "rnDeriv": 3137,
      "_)]": 3138,
      "bit1": 3139,
      "(e.": 3140,
      "Bit": 3141,
      "E''": 3142,
      "peri": 3143,
      "isOpen": 3144,
      "e_of_": 3145,
      "piecew": 3146,
      "(W": 3147,
      "_inv_": 3148,
      "m₁": 3149,
      "restrict_": 3150,
      "Matrix.": 3151,
      "Generated": 3152,
      "arcsin": 3153,
      "G),": 3154,
      "↑a✝": 3155,
      "lyGenerated": 3156,
      "jective_": 3157,
      "QuadraticForm": 3158,
      "Q(": 3159,
      "acter": 3160,
      "Conj": 3161,
      "M.Basis": 3162,
      "ContDiff": 3163,
      "Homotopy": 3164,
      "habited": 3165,
      "k]": 3166,
      "w₂": 3167,
      "‖₊": 3168,
      "eq_zero": 3169,
      "Module.rank": 3170,
      "eighted": 3171,
      "(lift": 3172,
      ".coe": 3173,
      "Spec": 3174,
      "his": 3175,
      "ν₂": 3176,
      "angle_": 3177,
      "factorization": 3178,
      "𝓝[": 3179,
      "ram": 3180,
      "HasSum": 3181,
      "quot": 3182,
      "_right]": 3183,
      "ca": 3184,
      "vd": 3185,
      "hf,": 3186,
      "one_lt_": 3187,
      "LieSubmodule": 3188,
      "top,": 3189,
      "WellOrder": 3190,
      "IsPrimitiveRoot": 3191,
      "N₁": 3192,
      "ν₁": 3193,
      "rafilter": 3194,
      "normSq": 3195,
      "Bool)": 3196,
      "_natCast,": 3197,
      "free": 3198,
      "Cover": 3199,
      "p_": 3200,
      "rel": 3201,
      "Composition": 3202,
      "setOf": 3203,
      "TransGen": 3204,
      "(exp": 3205,
      "tl": 3206,
      "itiv": 3207,
      "apply_": 3208,
      "this,": 3209,
      "ource": 3210,
      "Lawful": 3211,
      "F).": 3212,
      "GroupWithZero": 3213,
      "p.2": 3214,
      "hmn": 3215,
      "S₂.": 3216,
      "NoZeroDivisors": 3217,
      "(max": 3218,
      "id,": 3219,
      "IsWellOrder": 3220,
      "eck": 3221,
      "le_mul_": 3222,
      "centr": 3223,
      "(starRingEnd": 3224,
      "hJ": 3225,
      "o'": 3226,
      "[div_eq_mul_inv": 3227,
      "ε₁": 3228,
      "IsP": 3229,
      "positiv": 3230,
      "tab": 3231,
      "endi": 3232,
      "Ordinal": 3233,
      ".base": 3234,
      "Real.log": 3235,
      "alen": 3236,
      "rothendi": 3237,
      "empty]": 3238,
      "Graded": 3239,
      "smul]": 3240,
      "tsub_": 3241,
      "ε₂": 3242,
      "x✝)": 3243,
      "val✝": 3244,
      "IsSquare": 3245,
      "Int.cast_": 3246,
      "rothendieck": 3247,
      "pus": 3248,
      "↑1": 3249,
      "intCast": 3250,
      ".sin": 3251,
      "UniformContinuous": 3252,
      "integrable": 3253,
      "[map_": 3254,
      "_),": 3255,
      "u_4}": 3256,
      "apply]": 3257,
      "Computation": 3258,
      "h.h": 3259,
      "iterate": 3260,
      "Last": 3261,
      "Sign": 3262,
      "¬a": 3263,
      "⋯).": 3264,
      "InjOn": 3265,
      "Inhabited": 3266,
      "usion": 3267,
      "Finset.card": 3268,
      ".swap": 3269,
      "Homeom": 3270,
      "hn'": 3271,
      "iff_eq_": 3272,
      "L)": 3273,
      "sdiff_": 3274,
      "z‖": 3275,
      "|x|": 3276,
      "intype": 3277,
      "mul_comm": 3278,
      "ialObject": 3279,
      "continuous_": 3280,
      "mod_cast": 3281,
      "false_": 3282,
      "[co": 3283,
      "ier": 3284,
      "σ₁₂": 3285,
      "ing.": 3286,
      "entr": 3287,
      "DerivWithinAt": 3288,
      "testBit": 3289,
      "Split": 3290,
      "W'.": 3291,
      "iInter": 3292,
      "m).": 3293,
      "hx)": 3294,
      "assCurve": 3295,
      "a.val": 3296,
      "perm": 3297,
      "sinh": 3298,
      "_singleton,": 3299,
      "strassCurve": 3300,
      "Weier": 3301,
      "WeierstrassCurve": 3302,
      "Res": 3303,
      "Tra": 3304,
      "Z'": 3305,
      "ι,": 3306,
      "₀,": 3307,
      "two,": 3308,
      "(Measure": 3309,
      "(eval": 3310,
      ".a": 3311,
      "irac": 3312,
      "Family": 3313,
      "(filter": 3314,
      ".fin": 3315,
      ".filter": 3316,
      "alize": 3317,
      "lcm": 3318,
      "Conditionally": 3319,
      "Category.{?u.": 3320,
      "choose_": 3321,
      ".mul": 3322,
      ".of_": 3323,
      "ℤ_[p]": 3324,
      "(aeval": 3325,
      "(𝓝[": 3326,
      "vars": 3327,
      "sqrt": 3328,
      "[l]": 3329,
      "nhds": 3330,
      "𝕜₂": 3331,
      "polynomial": 3332,
      "uι": 3333,
      "untab": 3334,
      "image,": 3335,
      "Ideal.": 3336,
      "_comp]": 3337,
      "Adjoin": 3338,
      "Serie": 3339,
      "Factorization": 3340,
      "(h.": 3341,
      "oth": 3342,
      "unique": 3343,
      "_eq_zero,": 3344,
      "s.encard": 3345,
      "Ordnode": 3346,
      "_neg_": 3347,
      "(Set.range": 3348,
      "rev": 3349,
      "moveRight": 3350,
      "edgeSet": 3351,
      "F✝": 3352,
      "GCD": 3353,
      "i]": 3354,
      "ℤ),": 3355,
      "u_13": 3356,
      "IsCo": 3357,
      "Coeff_": 3358,
      ".toList": 3359,
      "by_contra": 3360,
      "→L[𝕜]": 3361,
      "ofFn": 3362,
      "CompactSpace": 3363,
      "clusion": 3364,
      "Neg": 3365,
      "fintype": 3366,
      "n),": 3367,
      "𝕜)": 3368,
      "hs]": 3369,
      "G.Subgraph": 3370,
      "licialObject": 3371,
      "zip": 3372,
      "subsingleton": 3373,
      "(hf": 3374,
      "ois": 3375,
      "alois": 3376,
      "logb": 3377,
      "ha]": 3378,
      "Int.neg": 3379,
      "?u.1": 3380,
      "V₃": 3381,
      "Function.Surjective": 3382,
      "_singleton]": 3383,
      "Cardinal.{u}": 3384,
      "({": 3385,
      "mp.": 3386,
      "sOf": 3387,
      "vec": 3388,
      "total": 3389,
      "Subset": 3390,
      "HasBasis": 3391,
      "rothendieckTopology": 3392,
      "GCDMonoid": 3393,
      "N.": 3394,
      "θ.toReal": 3395,
      "hp,": 3396,
      "auge": 3397,
      "GeneralizedBooleanAlgebra": 3398,
      "lookup": 3399,
      "_add": 3400,
      "⟨?_,": 3401,
      "Total": 3402,
      "dest": 3403,
      "hij": 3404,
      "nonempty": 3405,
      "measure_": 3406,
      "separ": 3407,
      ".get": 3408,
      "T)": 3409,
      "[c": 3410,
      "_def]": 3411,
      "ualizer": 3412,
      "toReal": 3413,
      "inj]": 3414,
      "oneda": 3415,
      "ga": 3416,
      "finite_": 3417,
      "Subtype.": 3418,
      "(f.": 3419,
      "HasBinary": 3420,
      "i.succ": 3421,
      "_self]": 3422,
      "cycleType": 3423,
      "homology": 3424,
      "(F.obj": 3425,
      "J)": 3426,
      "σ₂": 3427,
      "Singleton": 3428,
      "hf'": 3429,
      "phere": 3430,
      ".right": 3431,
      "Sheaf": 3432,
      "p.support": 3433,
      "→ₐ": 3434,
      "Multil": 3435,
      "Multiset.": 3436,
      "true,": 3437,
      "Multilinear": 3438,
      "Poc": 3439,
      "field": 3440,
      "hha": 3441,
      "ν'": 3442,
      "itone": 3443,
      "ify": 3444,
      "maximal": 3445,
      "i.castSucc": 3446,
      "Pochha": 3447,
      "Pochhammer": 3448,
      "epi": 3449,
      "init": 3450,
      "IsL": 3451,
      "mk'": 3452,
      "Change": 3453,
      "N'": 3454,
      "h₃": 3455,
      "inv,": 3456,
      "Equivalen": 3457,
      "top]": 3458,
      "Character": 3459,
      "k).": 3460,
      "Ordering.": 3461,
      "Ideal.span": 3462,
      "l.rotate": 3463,
      "Module.Free": 3464,
      "C,": 3465,
      "Galois": 3466,
      "_mul": 3467,
      "_prod": 3468,
      "rfl)": 3469,
      "natAbs": 3470,
      "SMulDivisors": 3471,
      "exists_pro": 3472,
      "u₃}": 3473,
      "LowerSet": 3474,
      "mul_comm]": 3475,
      "mul_comm,": 3476,
      "HasDerivAt": 3477,
      "(monomial": 3478,
      "Below": 3479,
      "s),": 3480,
      "⟨k,": 3481,
      "_self_": 3482,
      "PrimeSpectrum": 3483,
      "NormedRing": 3484,
      "val_": 3485,
      ".b,": 3486,
      "minFac": 3487,
      "_left,": 3488,
      "(Quotient": 3489,
      "Dir": 3490,
      "N₂": 3491,
      "bl": 3492,
      "{s": 3493,
      "ically": 3494,
      "pow_eq_": 3495,
      "(Option": 3496,
      "MF": 3497,
      "M),": 3498,
      "m]": 3499,
      "mon": 3500,
      "ym": 3501,
      "↑(a": 3502,
      "e_eq_": 3503,
      "Cofi": 3504,
      "c.Rel": 3505,
      "Index": 3506,
      "(U": 3507,
      "f.f": 3508,
      "induced": 3509,
      "Preconnected": 3510,
      "Category.{v₃,": 3511,
      ".bind": 3512,
      "ExpChar": 3513,
      "(Sum": 3514,
      "Square": 3515,
      "off": 3516,
      "div]": 3517,
      "NonAssocRing": 3518,
      "irection": 3519,
      "Subspace": 3520,
      ".gcd": 3521,
      "form": 3522,
      "∀ᵐ": 3523,
      "embedding": 3524,
      "summable": 3525,
      "infer": 3526,
      "Thet": 3527,
      "(inv": 3528,
      "<$>": 3529,
      "Ray": 3530,
      "[one_": 3531,
      "_not_": 3532,
      "SeminormedRing": 3533,
      "C₁": 3534,
      "WSeq": 3535,
      "b⁻¹": 3536,
      "ᵐᵒᵖ": 3537,
      "add_eq_": 3538,
      "Algebra.": 3539,
      "this]": 3540,
      "M₀'": 3541,
      "UniqueFactorization": 3542,
      "NoZeroSMulDivisors": 3543,
      "(Multiset.map": 3544,
      "UniqueFactorizationMonoid": 3545,
      "swap": 3546,
      "HasImage": 3547,
      "lt,": 3548,
      "ltrafilter": 3549,
      "natCast": 3550,
      "Nth": 3551,
      "[Is": 3552,
      "igen": 3553,
      "tac": 3554,
      "val,": 3555,
      ".repr": 3556,
      "PartENat": 3557,
      "(𝓤": 3558,
      "(mem_": 3559,
      "Acc": 3560,
      "L₃": 3561,
      "PMF": 3562,
      "d₂": 3563,
      "g))": 3564,
      "hF": 3565,
      "tail✝": 3566,
      "AEStronglyMeasurable": 3567,
      "hQ": 3568,
      "sion": 3569,
      "sum,": 3570,
      "(2,": 3571,
      "derivWithin": 3572,
      "G₂": 3573,
      "_hom": 3574,
      "diagonal": 3575,
      "↑g": 3576,
      "inder": 3577,
      "cos_": 3578,
      "hx₁": 3579,
      "Code": 3580,
      "image2": 3581,
      "Model": 3582,
      "nth_": 3583,
      "UpperSet": 3584,
      ".neg": 3585,
      "yn": 3586,
      "↑K": 3587,
      "IsEmpty": 3588,
      "(↑a)": 3589,
      "bodd": 3590,
      "Isometry": 3591,
      "Theta₂": 3592,
      "G₁": 3593,
      "Len": 3594,
      "dis": 3595,
      "mul_left_": 3596,
      "(-x)": 3597,
      "uncurry": 3598,
      "L(2,": 3599,
      "d.": 3600,
      "Projection": 3601,
      "HasColimit": 3602,
      "(Icc": 3603,
      "WithinAt_": 3604,
      "Formul": 3605,
      ".induction_on": 3606,
      "((i": 3607,
      ".left": 3608,
      "GrothendieckTopology": 3609,
      "rhs": 3610,
      "¬x": 3611,
      "irst": 3612,
      "Int.nat": 3613,
      "m.gcd": 3614,
      "ae": 3615,
      "linear": 3616,
      "pschitz": 3617,
      "sTo": 3618,
      "Lipschitz": 3619,
      "constant": 3620,
      "NumberField": 3621,
      "compl_": 3622,
      "cyclotomic": 3623,
      "thogonalProjection": 3624,
      "(cons": 3625,
      "-a": 3626,
      "_inter_": 3627,
      "Fin.": 3628,
      "Groupoid": 3629,
      ".1,": 3630,
      "lift.{u,": 3631,
      "C(X,": 3632,
      "N✝": 3633,
      "Rot": 3634,
      "d,": 3635,
      "hζ": 3636,
      "y⟫_ℝ": 3637,
      "ink": 3638,
      "orbit": 3639,
      "_swap": 3640,
      "ihil": 3641,
      "union,": 3642,
      "Valuation": 3643,
      "divisors": 3644,
      "B✝": 3645,
      "De": 3646,
      "Directed": 3647,
      "ounded": 3648,
      "LinearEquiv": 3649,
      "EuclideanDomain": 3650,
      "untablyGenerated": 3651,
      "C₂": 3652,
      "u✝": 3653,
      "(has": 3654,
      "u'}": 3655,
      "pullback.fst": 3656,
      "hisker": 3657,
      "FG": 3658,
      "_mul,": 3659,
      "_coe,": 3660,
      "f.natDegree": 3661,
      "yting": 3662,
      "φ.": 3663,
      "pol": 3664,
      "otom": 3665,
      "image]": 3666,
      "preΨ": 3667,
      "Bilin": 3668,
      "positivity": 3669,
      ".c": 3670,
      "a]": 3671,
      "ple": 3672,
      ".non": 3673,
      "_iff_ne_": 3674,
      "zero_le": 3675,
      "[Finset.": 3676,
      "↑A": 3677,
      "edi": 3678,
      "irc": 3679,
      ".forall": 3680,
      "a..b,": 3681,
      "ZNum": 3682,
      "[coeff_": 3683,
      "b⟩": 3684,
      "hG": 3685,
      "weighted": 3686,
      ").Is": 3687,
      "anon": 3688,
      "ModuleCat": 3689,
      "lt_of_le": 3690,
      "SemilatticeInf": 3691,
      "Maximal": 3692,
      "f₀'": 3693,
      "Color": 3694,
      "Triangle": 3695,
      "X.toPresheafedSpace": 3696,
      "piecewise": 3697,
      "Sieve": 3698,
      "Solution": 3699,
      "fr": 3700,
      "v).": 3701,
      "u_4,": 3702,
      "Category.{u_4,": 3703,
      "f.Is": 3704,
      "Atom": 3705,
      "K'": 3706,
      "Two": 3707,
      "o).": 3708,
      "{i": 3709,
      "Γ'": 3710,
      "ν)": 3711,
      "nontrivial": 3712,
      "bt": 3713,
      "bin": 3714,
      "spec": 3715,
      "ua": 3716,
      "composition": 3717,
      "↑(-": 3718,
      "mk]": 3719,
      ".bit": 3720,
      "Finset.univ": 3721,
      "atTop]": 3722,
      "eventually_": 3723,
      "((f": 3724,
      "hp.": 3725,
      "commut": 3726,
      "associ": 3727,
      "(⇑f": 3728,
      "Ultrafilter": 3729,
      "q,": 3730,
      "support": 3731,
      "⟨a": 3732,
      "emann": 3733,
      "Init": 3734,
      "_le_of_": 3735,
      "Refl": 3736,
      "jacobiSym": 3737,
      "padicValNat": 3738,
      ".unit": 3739,
      "o₂": 3740,
      "κ₁": 3741,
      "edup": 3742,
      "AddOfLE": 3743,
      "s.ncard": 3744,
      "Cocone": 3745,
      "Category.{v',": 3746,
      "_of_not_": 3747,
      "(shiftFunctor": 3748,
      "DerivAt_": 3749,
      "_natCast]": 3750,
      "ExistsAddOfLE": 3751,
      "Rank": 3752,
      "_zero]": 3753,
      "ℝ]": 3754,
      "mul_cancel": 3755,
      "hx₂": 3756,
      "le_one": 3757,
      "Poly": 3758,
      "ytingAlgebra": 3759,
      "(K": 3760,
      "(Quot.mk": 3761,
      ".op": 3762,
      "[Set.": 3763,
      "linder": 3764,
      "verse_": 3765,
      "(pullback": 3766,
      "Quasi": 3767,
      "Edist": 3768,
      "[le_": 3769,
      "ve_": 3770,
      "κ₂": 3771,
      "Subring": 3772,
      "range]": 3773,
      "↑↑X.toPresheafedSpace": 3774,
      "(o": 3775,
      "(Set.": 3776,
      "+1]": 3777,
      ".tail": 3778,
      "QP": 3779,
      "⊤)": 3780,
      "log_": 3781,
      "Semi": 3782,
      "1)).": 3783,
      "izer": 3784,
      "ducing": 3785,
      "Decomposition": 3786,
      "(γ": 3787,
      "HEq": 3788,
      "sur": 3789,
      "Projective": 3790,
      "sub]": 3791,
      "TopologicalGroup": 3792,
      "SimplicialObject": 3793,
      "Completion": 3794,
      "(adj": 3795,
      "Symm": 3796,
      "lope": 3797,
      "comp,": 3798,
      "inv]": 3799,
      "((algebraMap": 3800,
      "Biproduct": 3801,
      "Memℒ": 3802,
      "Semiconj": 3803,
      "1Space": 3804,
      "[zero_": 3805,
      "ural": 3806,
      "↑c": 3807,
      "inr.inr": 3808,
      "_left]": 3809,
      "jacobiTheta₂": 3810,
      "Core": 3811,
      "Associates.": 3812,
      "')": 3813,
      "(D": 3814,
      "Not": 3815,
      "fle": 3816,
      "(bit": 3817,
      "lt]": 3818,
      "CountableTopology": 3819,
      "radical": 3820,
      "Homeomorph": 3821,
      "Founded": 3822,
      "[𝕜]": 3823,
      "⟨c,": 3824,
      "conver": 3825,
      "simp_all": 3826,
      ".factors": 3827,
      "snd✝": 3828,
      "Subsem": 3829,
      "ighborSet": 3830,
      "periodic": 3831,
      "r).": 3832,
      "tra": 3833,
      "→.": 3834,
      "mul_inv_": 3835,
      "Multiplicity": 3836,
      "Coproduct": 3837,
      "Prepartition": 3838,
      "lt_succ": 3839,
      ".digits": 3840,
      "hd2": 3841,
      "h.e'_4": 3842,
      "rootMultiplicity": 3843,
      "Clas": 3844,
      "Antitone": 3845,
      "emannZeta": 3846,
      "(closure": 3847,
      "R,": 3848,
      "[b": 3849,
      "_succ,": 3850,
      "uss": 3851,
      "_iff_not_": 3852,
      "Partition": 3853,
      "Seminorm": 3854,
      "Module.Finite": 3855,
      "bot,": 3856,
      "ext_iff]": 3857,
      "True": 3858,
      "ichotom": 3859,
      ".pi": 3860,
      "I.Is": 3861,
      "dor": 3862,
      "f]": 3863,
      "fect": 3864,
      "eth": 3865,
      "toIco": 3866,
      "usdor": 3867,
      "trichotom": 3868,
      "↑(π": 3869,
      "OfFin": 3870,
      "(Ici": 3871,
      "(RatFunc": 3872,
      "DF": 3873,
      "disjoint": 3874,
      "IsFractionRing": 3875,
      "AddSubmonoid": 3876,
      "le_total": 3877,
      "LieIdeal": 3878,
      "powers": 3879,
      "¬Is": 3880,
      "⟨p,": 3881,
      "map₂": 3882,
      "_smul]": 3883,
      "ental": 3884,
      "Equiv.symm": 3885,
      ".factorization": 3886,
      "uniformity": 3887,
      "ichlet": 3888,
      "Corner": 3889,
      ">>": 3890,
      "F''": 3891,
      "Rˣ": 3892,
      "i),": 3893,
      "k✝": 3894,
      "mγ": 3895,
      "y}": 3896,
      "Ordinal.{u_4}": 3897,
      "head✝": 3898,
      "lift.{v,": 3899,
      "conv_rhs": 3900,
      "Place": 3901,
      "urality": 3902,
      "γ₂": 3903,
      "two]": 3904,
      "hurwitzZeta": 3905,
      "Value": 3906,
      "aleph0": 3907,
      "DifferentiableAt": 3908,
      "2Space": 3909,
      "Canon": 3910,
      "_smul": 3911,
      "lt_or": 3912,
      "Normalized": 3913,
      "_comp_": 3914,
      "Initial": 3915,
      "Canonically": 3916,
      "Pushout": 3917,
      "p))": 3918,
      "act_": 3919,
      "hn,": 3920,
      "CompleteLinearOrder": 3921,
      "iterated": 3922,
      "ability": 3923,
      "R).": 3924,
      "_subtype": 3925,
      "fp": 3926,
      "hX": 3927,
      "uR": 3928,
      "ud": 3929,
      "mulIndicator": 3930,
      "∂μ,": 3931,
      "IntegrableOn": 3932,
      "(W.": 3933,
      "SL(2,": 3934,
      "[Z": 3935,
      "inst✝¹⁴": 3936,
      "(fst": 3937,
      "↑(m": 3938,
      "Equiv.refl": 3939,
      "ContinuousMap": 3940,
      "h.e'_5": 3941,
      "Probability": 3942,
      "Solution₁": 3943,
      "ij": 3944,
      "α},": 3945,
      "σ₁": 3946,
      "FiniteKernel": 3947,
      "LinearOrderedCommGroup": 3948,
      "G₀'": 3949,
      "[sub_eq_add_neg,": 3950,
      "b]": 3951,
      "medi": 3952,
      "next": 3953,
      "⟨s,": 3954,
      ".toFun": 3955,
      "ateField": 3956,
      "atTop,": 3957,
      "Intermedi": 3958,
      "CauSeq": 3959,
      "AdjoinRoot": 3960,
      "btw": 3961,
      "trichotomy": 3962,
      "IntermediateField": 3963,
      "_dvd": 3964,
      "dam": 3965,
      "ih,": 3966,
      "snorm": 3967,
      "eq_comm]": 3968,
      "casesOn": 3969,
      "_iff.2": 3970,
      "Iso.hom": 3971,
      "Chart": 3972,
      "cosh": 3973,
      "Restrict": 3974,
      "centralizer": 3975,
      "(↥": 3976,
      "Lev": 3977,
      "o₁": 3978,
      "pp": 3979,
      "{n": 3980,
      "simple": 3981,
      "compact": 3982,
      ".split": 3983,
      "le_add_": 3984,
      "rfl]": 3985,
      "HasLimit": 3986,
      "hn]": 3987,
      "(↑a": 3988,
      "(List.map": 3989,
      "usdorff": 3990,
      "(@": 3991,
      "(σ": 3992,
      "ts": 3993,
      "ug": 3994,
      "letI": 3995,
      ".from": 3996,
      "x.val": 3997,
      "aux": 3998,
      "nonempty_": 3999,
      "NNReal.coe_": 4000,
      "bit0": 4001,
      "smul_eq_mul,": 4002,
      "damental": 4003,
      "T2Space": 4004,
      "b_pos": 4005,
      "iam": 4006,
      "tj": 4007,
      "x⟩": 4008,
      "→ₛ": 4009,
      "ieltj": 4010,
      ".toNat": 4011,
      "inj'": 4012,
      "AddMonoidHom": 4013,
      "(L": 4014,
      "(κ": 4015,
      "<+": 4016,
      "[L": 4017,
      "r.": 4018,
      "arget": 4019,
      "ha⟩": 4020,
      "(f'": 4021,
      "Nat.find": 4022,
      "transpose": 4023,
      "LeftMoves": 4024,
      "SeminormedCommGroup": 4025,
      "Separable": 4026,
      "ieltjes": 4027,
      ".inv_": 4028,
      "Deg": 4029,
      "SFinite": 4030,
      "hle": 4031,
      "Ω)": 4032,
      "_eq_one_": 4033,
      "p.leadingCoeff": 4034,
      "HomologyMap": 4035,
      "[*]": 4036,
      "Dirichlet": 4037,
      "DirichletCharacter": 4038,
      "(is": 4039,
      "((a": 4040,
      "ENNReal": 4041,
      "_add,": 4042,
      "del": 4043,
      "direction": 4044,
      "fb": 4045,
      "xl": 4046,
      "arrier": 4047,
      "IsIntegral": 4048,
      "irth": 4049,
      "decode": 4050,
      "Separated": 4051,
      "Associates": 4052,
      ".range": 4053,
      "G.map": 4054,
      "Lim": 4055,
      "dArrow": 4056,
      "q.num": 4057,
      "toNat": 4058,
      "mul_one,": 4059,
      "hf]": 4060,
      "h.a": 4061,
      "(Ioi": 4062,
      "OrderedSub": 4063,
      "M.Base": 4064,
      "generaliz": 4065,
      "(eqToHom": 4066,
      "*ᵥ": 4067,
      "hickening": 4068,
      "shiftFunctor": 4069,
      "⌋₊": 4070,
      "cthickening": 4071,
      "mul_le_mul_": 4072,
      "iltr": 4073,
      "of_pos": 4074,
      "h_real": 4075,
      "separable": 4076,
      "iltration": 4077,
      "?m": 4078,
      "Filtration": 4079,
      "hN": 4080,
      "↑X": 4081,
      "Fin2": 4082,
      ")),": 4083,
      "add_cancel": 4084,
      "(Iic": 4085,
      "measurableSet": 4086,
      "inverse": 4087,
      "Formula": 4088,
      "ihilator": 4089,
      "K))": 4090,
      "UB": 4091,
      "nodup": 4092,
      "y⟫_𝕜": 4093,
      "γ₁": 4094,
      "Algebraic": 4095,
      "HasKernel": 4096,
      "hcd": 4097,
      "Submodule.span": 4098,
      "(Y": 4099,
      "J.": 4100,
      "[norm": 4101,
      "_prime": 4102,
      "Inducing": 4103,
      "posite": 4104,
      "_of_mem_": 4105,
      "olute": 4106,
      "dist_eq_": 4107,
      "AffineSubspace": 4108,
      "[mul_comm]": 4109,
      "_right,": 4110,
      "wards": 4111,
      "Squarefree": 4112,
      "(B": 4113,
      "a|": 4114,
      "gauge": 4115,
      "xr": 4116,
      "inclusion": 4117,
      "round": 4118,
      "complet": 4119,
      "WithCorner": 4120,
      "[ZMOD": 4121,
      "WithCorners": 4122,
      "Ore": 4123,
      "a0": 4124,
      "fa": 4125,
      "p2": 4126,
      "↑a)": 4127,
      "⇑g": 4128,
      "⟨⟩": 4129,
      "or_nonempty": 4130,
      "upwards": 4131,
      "zeroLocus": 4132,
      "(i,": 4133,
      "Abs_": 4134,
      "descFactorial": 4135,
      "sublists": 4136,
      "filter_upwards": 4137,
      "ussian": 4138,
      "R[": 4139,
      "c]": 4140,
      "{0}": 4141,
      "√(1": 4142,
      "attac": 4143,
      "ung": 4144,
      "Additive": 4145,
      "ineMap": 4146,
      "((map": 4147,
      "riemannZeta": 4148,
      "l.Nodup": 4149,
      "NormalizedGCDMonoid": 4150,
      "delta": 4151,
      "(con": 4152,
      "-x": 4153,
      "F₂": 4154,
      "e₁": 4155,
      "ib": 4156,
      "k'": 4157,
      "IsCy": 4158,
      "ha)": 4159,
      ".map'": 4160,
      "Opens.": 4161,
      "Uniformly": 4162,
      ".comp_": 4163,
      "Clique": 4164,
      "SimplexCategory": 4165,
      "(id": 4166,
      ".mono": 4167,
      ".unop": 4168,
      "_succ": 4169,
      "_coe_": 4170,
      "lhs": 4171,
      "y]": 4172,
      "α).": 4173,
      "_nhds_": 4174,
      ".next": 4175,
      "a.x": 4176,
      "Local": 4177,
      "strictMono": 4178,
      "bernoulli": 4179,
      "Trail": 4180,
      ")⁻¹": 4181,
      "F₁": 4182,
      "op.": 4183,
      "→ᵇ": 4184,
      "NormedAlgebra": 4185,
      "(neg": 4186,
      "mem_singleton": 4187,
      "Real.sin": 4188,
      "_of_ne_zero": 4189,
      "hy,": 4190,
      "modEq": 4191,
      "exists_eq_": 4192,
      "QPF": 4193,
      "generalizing": 4194,
      "Weight": 4195,
      "Commut": 4196,
      "gene": 4197,
      "u_3}": 4198,
      "hausdorff": 4199,
      "Nat.succ": 4200,
      "HasF": 4201,
      ".ne_": 4202,
      "(pre": 4203,
      "intro.intro.intro.intro": 4204,
      "FloorSemiring": 4205,
      "(μ.restrict": 4206,
      "matri": 4207,
      "BilinForm": 4208,
      "geneous": 4209,
      "fig": 4210,
      "hlt": 4211,
      "show": 4212,
      "w.Is": 4213,
      "whisker": 4214,
      "≠]": 4215,
      "duce": 4216,
      "mul_zero,": 4217,
      "Cokernel": 4218,
      "Real.Angle": 4219,
      "b₂)": 4220,
      "and]": 4221,
      "Bijective": 4222,
      "zero_lt_one": 4223,
      "TypeVec.{u_1}": 4224,
      "Self": 4225,
      "_co": 4226,
      "_card": 4227,
      "w}": 4228,
      "zpow_": 4229,
      "ε'": 4230,
      ").Nonempty": 4231,
      "s.prod": 4232,
      "le_or_lt": 4233,
      "((↑": 4234,
      "one_mul,": 4235,
      "univ_": 4236,
      "nonpos": 4237,
      "powersetCard": 4238,
      "cave": 4239,
      "ProbabilityMeasure": 4240,
      "Finpartition": 4241,
      "s.tail": 4242,
      "HasStrict": 4243,
      "((monomial": 4244,
      "lt_trichotomy": 4245,
      "(s₁": 4246,
      "G.Color": 4247,
      "clic": 4248,
      "sqrt_": 4249,
      "Arrows": 4250,
      "↑q.den": 4251,
      "Memℒp": 4252,
      ".ext": 4253,
      "[[": 4254,
      "e]": 4255,
      "ein": 4256,
      "f₃": 4257,
      "noc": 4258,
      "≤ᶠ": 4259,
      "onti": 4260,
      ").re": 4261,
      "_iff.mp": 4262,
      "UnitAddCircle": 4263,
      "h₁,": 4264,
      "(Ioc": 4265,
      "cons]": 4266,
      "append,": 4267,
      "indep": 4268,
      "affineSpan": 4269,
      "ontier": 4270,
      "J✝": 4271,
      "K✝": 4272,
      "hn)": 4273,
      "n‖": 4274,
      "imp,": 4275,
      "Invariant": 4276,
      "hs'": 4277,
      "HasFinite": 4278,
      "bot]": 4279,
      ".const": 4280,
      "A).": 4281,
      "_).symm": 4282,
      "ff.": 4283,
      "wn": 4284,
      "_eq_zero]": 4285,
      "MapsTo": 4286,
      "one_eq_": 4287,
      "Finset.mem_": 4288,
      "calc": 4289,
      "ext_iff,": 4290,
      "CDF": 4291,
      "uler": 4292,
      "count_": 4293,
      "mul_left": 4294,
      "intros": 4295,
      "_sup": 4296,
      "hnm": 4297,
      "Filter.": 4298,
      "Roots": 4299,
      "padicValRat": 4300,
      "(⨆": 4301,
      "+ᵥ": 4302,
      "D.": 4303,
      "Grow": 4304,
      "[h.": 4305,
      "[atTop]": 4306,
      "dif_pos": 4307,
      "euler": 4308,
      "stabil": 4309,
      "Or.inl": 4310,
      "hf)": 4311,
      "vers": 4312,
      "ectorSpan": 4313,
      "(op": 4314,
      "-b": 4315,
      "vsub_": 4316,
      "ise_": 4317,
      "_sin": 4318,
      "add_comm]": 4319,
      "LinearOrderedSemiring": 4320,
      "erian": 4321,
      "Ico,": 4322,
      "and,": 4323,
      "Opposite": 4324,
      "Category.assoc,": 4325,
      "etherian": 4326,
      "PDF": 4327,
      "shift": 4328,
      "↑x✝": 4329,
      "≃o": 4330,
      "IsZero": 4331,
      "AddSubgroup": 4332,
      "easurable": 4333,
      "mul_right_": 4334,
      "_of_lt": 4335,
      "(padic": 4336,
      "Cofiber": 4337,
      "stabilizer": 4338,
      "H,": 4339,
      "_m": 4340,
      "↑i)": 4341,
      "alle": 4342,
      "this✝": 4343,
      "a.gcd": 4344,
      "(⇑f)": 4345,
      "LiftRel": 4346,
      "pullback.snd": 4347,
      "TypeVec.{u}": 4348,
      "differentiable": 4349,
      "h.e'_2.": 4350,
      "(ρ": 4351,
      "LSeries": 4352,
      "[neg_": 4353,
      "_subset_": 4354,
      "q'": 4355,
      "son": 4356,
      "x⟫_𝕜": 4357,
      "¬IsUnit": 4358,
      "Compos": 4359,
      "mul_assoc]": 4360,
      "thickening": 4361,
      "propert": 4362,
      "_iff.1": 4363,
      "OrderedAddCommGroup": 4364,
      "and_iff_": 4365,
      "foldr": 4366,
      "Preserv": 4367,
      "toIocMod": 4368,
      "Level": 4369,
      "Composable": 4370,
      "Mas": 4371,
      "[not_": 4372,
      "Π₀": 4373,
      "oni": 4374,
      "eroni": 4375,
      "equalizer": 4376,
      "(span": 4377,
      "cheroni": 4378,
      "hyz": 4379,
      "getEle": 4380,
      "NNRat": 4381,
      "VectorMeasure": 4382,
      "Walking": 4383,
      "Classical.": 4384,
      "Theory.": 4385,
      "aesop_": 4386,
      "Mascheroni": 4387,
      "Om": 4388,
      "d✝": 4389,
      "{f": 4390,
      "αˣ": 4391,
      "replicate": 4392,
      "edMeasure": 4393,
      "Inverse": 4394,
      "x.2)": 4395,
      "CompletePartialOrder": 4396,
      "SuccOrder": 4397,
      "StrongRank": 4398,
      "egaCompletePartialOrder": 4399,
      "p.toReal": 4400,
      "PartENat.": 4401,
      "hμν": 4402,
      "ascPochhammer": 4403,
      "eulerMascheroni": 4404,
      "OmegaCompletePartialOrder": 4405,
      "StrongRankCondition": 4406,
      "(⋂": 4407,
      "A.det": 4408,
      "He": 4409,
      "x✝²": 4410,
      "Concave": 4411,
      "HasDerivWithinAt": 4412,
      "(↑n)": 4413,
      "Step": 4414,
      "OnePow": 4415,
      "minpoly": 4416,
      "AddMonoidWithOne": 4417,
      "generateFrom": 4418,
      "ConditionallyCompleteLinearOrder": 4419,
      "ComposableArrows": 4420,
      "(F.": 4421,
      "T.": 4422,
      "par": 4423,
      "geom": 4424,
      "two_mul,": 4425,
      "SignedMeasure": 4426,
      "Int.negSucc": 4427,
      "Associates.mk": 4428,
      "(Co": 4429,
      "_one,": 4430,
      "graph": 4431,
      "tensor": 4432,
      "~ᵤ": 4433,
      "μ₃": 4434,
      ").coeff": 4435,
      "(f₁": 4436,
      "prod,": 4437,
      "singular": 4438,
      "Ordinal.": 4439,
      "aesop_cat": 4440,
      ".sum": 4441,
      "[map": 4442,
      "dedup": 4443,
      "yoneda": 4444,
      "unpair": 4445,
      ".factorMultiset": 4446,
      "Quotient.mk''": 4447,
      "CoxeterMatrix": 4448,
      "CoxeterSystem": 4449,
      "(prod": 4450,
      "_is": 4451,
      "_sum": 4452,
      "μ.Is": 4453,
      "‖a": 4454,
      "ypero": 4455,
      "artial": 4456,
      "zero_or": 4457,
      "peration": 4458,
      "ne_of_": 4459,
      "_ne_top": 4460,
      "iInf,": 4461,
      "yperoperation": 4462,
      "R''": 4463,
      "_in": 4464,
      "b.re": 4465,
      "go": 4466,
      "target": 4467,
      "φ'": 4468,
      "flip": 4469,
      "support_": 4470,
      "real_": 4471,
      "mul_div_cancel": 4472,
      "polar": 4473,
      "2]": 4474,
      "_simp": 4475,
      "c₁₂": 4476,
      "lintegral_": 4477,
      "rincipal": 4478,
      "lex": 4479,
      "mabs": 4480,
      "a₂)": 4481,
      "Anti": 4482,
      "P.parts.card": 4483,
      "D)": 4484,
      "Forall": 4485,
      "Whi": 4486,
      "a}": 4487,
      "lor": 4488,
      "ode": 4489,
      "⋃₀": 4490,
      "erfect": 4491,
      "alanc": 4492,
      "Realize": 4493,
      "[mul_comm,": 4494,
      "Noetherian": 4495,
      "(comap": 4496,
      "H₁": 4497,
      "Lex": 4498,
      "_fst": 4499,
      "hσ": 4500,
      "q₂": 4501,
      "toDual": 4502,
      "CountablyGenerated": 4503,
      "ternat": 4504,
      "(abs": 4505,
      "p.Monic": 4506,
      "comp]": 4507,
      "x.arg": 4508,
      "f.hom": 4509,
      "LieSubalgebra": 4510,
      "OrderedAddCommMonoid": 4511,
      "Icc,": 4512,
      ").hom.app": 4513,
      "self,": 4514,
      "(Quotient.out": 4515,
      "TwoAdd": 4516,
      "(config": 4517,
      "property✝": 4518,
      "Red": 4519,
      "⟨f,": 4520,
      "(from": 4521,
      "(not_": 4522,
      "trace": 4523,
      "prop": 4524,
      "ne_top": 4525,
      "olutive": 4526,
      "n.factorization": 4527,
      "SmallCategory": 4528,
      "(Fintype.card": 4529,
      "α,": 4530,
      "⟨m,": 4531,
      "s.get": 4532,
      "hn⟩": 4533,
      "place": 4534,
      "length_": 4535,
      "Borno": 4536,
      "trans_le": 4537,
      "LawfulApplicative": 4538,
      "Bornology": 4539,
      "(equiv": 4540,
      "G.Is": 4541,
      "ONot": 4542,
      "Xgcd": 4543,
      "ae_": 4544,
      "hH": 4545,
      "la": 4546,
      "zi": 4547,
      "peat": 4548,
      "ore": 4549,
      "Int_": 4550,
      "hbc": 4551,
      "mooth": 4552,
      "ates": 4553,
      ").sign": 4554,
      "sert": 4555,
      "Interval": 4556,
      "SameRay": 4557,
      "ascFactorial": 4558,
      "monic": 4559,
      "XgcdType": 4560,
      "0))": 4561,
      "n₁₂": 4562,
      "Γ(X,": 4563,
      "↑(x": 4564,
      "√x": 4565,
      "Equ": 4566,
      "s.length": 4567,
      ".basicOpen": 4568,
      "a.y": 4569,
      "Homogeneous": 4570,
      "[a]": 4571,
      "[add_comm]": 4572,
      "[*,": 4573,
      "Blocks": 4574,
      "Bounds": 4575,
      "LinearOrderedCommGroupWithZero": 4576,
      "(4": 4577,
      ".closure": 4578,
      "1Lift": 4579,
      "2).": 4580,
      "C_mul_": 4581,
      "Centr": 4582,
      "e₂": 4583,
      "h.symm": 4584,
      "oangle_": 4585,
      "λ_": 4586,
      "ℚ≥0": 4587,
      "ross": 4588,
      "isClosed": 4589,
      "NormedDivisionRing": 4590,
      "(frobenius": 4591,
      "trim": 4592,
      "HasHomotopy": 4593,
      "(↑f": 4594,
      "(some": 4595,
      "const]": 4596,
      "PartialHomeomorph": 4597,
      "DivisionMonoid": 4598,
      "→ₗ⁅": 4599,
      "CircleDeg": 4600,
      "Associated": 4601,
      "Period": 4602,
      "(minpoly": 4603,
      "convergen": 4604,
      "Central": 4605,
      "HasHomotopyCofiber": 4606,
      "CircleDeg1Lift": 4607,
      "hδ": 4608,
      "eric": 4609,
      "a✝)": 4610,
      "pend_": 4611,
      "def_": 4612,
      "one_le_": 4613,
      "inr.inl": 4614,
      "cylinder": 4615,
      "MonoidHomClass": 4616,
      "push_": 4617,
      "ConcaveOn": 4618,
      "Hull": 4619,
      "Lin": 4620,
      "Thr": 4621,
      "[m": 4622,
      "_sub": 4623,
      "_congr": 4624,
      "ll": 4625,
      ".{u,": 4626,
      "Substructure": 4627,
      "add_right_": 4628,
      "abs,": 4629,
      "AddGroupHom": 4630,
      "indelo": 4631,
      "not]": 4632,
      "$α": 4633,
      "(st": 4634,
      ".Nonempty": 4635,
      "cau": 4636,
      "dirac": 4637,
      "uD": 4638,
      "«$α": 4639,
      "»)": 4640,
      "Δ'": 4641,
      "Ω'": 4642,
      "ωSup": 4643,
      "ₜ[R]": 4644,
      "len": 4645,
      "inst✝¹⁵": 4646,
      "CommRingCat": 4647,
      "add_comm,": 4648,
      "⋯⟩)": 4649,
      "uniformSpace": 4650,
      "LinearMap.range": 4651,
      "nndist": 4652,
      "Multiplicative": 4653,
      ".sqrt": 4654,
      "nth_rw": 4655,
      "«$α»)": 4656,
      "H₂": 4657,
      "_z": 4658,
      "cf": 4659,
      "van": 4660,
      "↑N": 4661,
      "alIdeal": 4662,
      "re,": 4663,
      "hb]": 4664,
      "(↑m": 4665,
      "abel": 4666,
      "Abs.": 4667,
      ".ball": 4668,
      "Stieltjes": 4669,
      "iUnion,": 4670,
      "Cardinal.{?u.2": 4671,
      "leadingCoeff_": 4672,
      "Extension": 4673,
      "[div_eq_mul_inv,": 4674,
      "ternating": 4675,
      "carrier": 4676,
      "k))": 4677,
      "mt": 4678,
      "‖z‖": 4679,
      "repr": 4680,
      "NormedAddGroupHom": 4681,
      "mul_right": 4682,
      "s.toFinset": 4683,
      "MulZeroClass": 4684,
      "mk.mk": 4685,
      "RightMoves": 4686,
      "eraseLe": 4687,
      "AddGroupWithOne": 4688,
      "t.Finite": 4689,
      "update_": 4690,
      "gaussian": 4691,
      "exists_prop,": 4692,
      "(mul_": 4693,
      "(cos": 4694,
      ".zero": 4695,
      ".coeff": 4696,
      ".cycleType": 4697,
      "[Int.": 4698,
      "lsub": 4699,
      "size": 4700,
      "γ'": 4701,
      "append_": 4702,
      "imp]": 4703,
      "_nil": 4704,
      "Mul.h": 4705,
      "ordConnected": 4706,
      "WellFounded": 4707,
      "Mul.hMul": 4708,
      "(o.oangle": 4709,
      ".st": 4710,
      "Def": 4711,
      "Tim": 4712,
      "[prod_": 4713,
      "_of": 4714,
      "cmp": 4715,
      "ne'": 4716,
      "uA": 4717,
      "ust": 4718,
      "ᵥ*": 4719,
      "⟨u,": 4720,
      "reverse_": 4721,
      "ingTim": 4722,
      "p.length": 4723,
      "pow_zero,": 4724,
      "IsSFiniteKernel": 4725,
      "cancel_": 4726,
      "true]": 4727,
      "DistribLattice": 4728,
      "ConvexOn": 4729,
      "truncate": 4730,
      "ONote": 4731,
      "(x✝": 4732,
      "K,": 4733,
      "Scalar": 4734,
      "_map": 4735,
      "_sub_": 4736,
      "_ih": 4737,
      "j))": 4738,
      "IsBounded": 4739,
      "irreducible": 4740,
      "hp₁": 4741,
      "exists,": 4742,
      "(cy": 4743,
      "Within_": 4744,
      "StarModule": 4745,
      "Numbers": 4746,
      "Polynomial.eval": 4747,
      "conv_lhs": 4748,
      "→ₐ[R]": 4749,
      "ReflTransGen": 4750,
      ".ker": 4751,
      "Ba": 4752,
      "J),": 4753,
      "[@": 4754,
      "e✝": 4755,
      "gt_": 4756,
      "hM": 4757,
      "i_1": 4758,
      "¬n": 4759,
      "φ).": 4760,
      ").get": 4761,
      "mem_nhds": 4762,
      "pose_": 4763,
      "one_iff_": 4764,
      "zero_mul,": 4765,
      "G'.": 4766,
      "Polynomial.map": 4767,
      "hPz": 4768,
      "mem_support_": 4769,
      "eulerMascheroniSeq": 4770,
      "push_cast": 4771,
      "Thru": 4772,
      ".arg": 4773,
      "Ed": 4774,
      "T'": 4775,
      "Y,": 4776,
      "_1)": 4777,
      "γ✝": 4778,
      "⊗ₜ[R]": 4779,
      "pact_": 4780,
      "l.prod": 4781,
      "RingHom.id": 4782,
      "CancelCommMonoid": 4783,
      "(last": 4784,
      "Finsupp.single": 4785,
      "m.Coprime": 4786,
      "(G.map": 4787,
      "BddBelow": 4788,
      ".indicator": 4789,
      "ishing": 4790,
      "Series.": 4791,
      "bination": 4792,
      "SemiconjBy": 4793,
      "completed": 4794,
      "Edge": 4795,
      "<<": 4796,
      "I'": 4797,
      "Rep": 4798,
      "e,": 4799,
      "kh": 4800,
      "IsLimit": 4801,
      "mul_zero]": 4802,
      "exponent": 4803,
      "verts": 4804,
      "orphisms": 4805,
      "ceil": 4806,
      "h.e'_6": 4807,
      "self]": 4808,
      "sOfShape": 4809,
      "Int.natCast": 4810,
      "(o.": 4811,
      "(convex": 4812,
      "Jo": 4813,
      "[of": 4814,
      "_coe": 4815,
      "q₁": 4816,
      "η)": 4817,
      "↑S": 4818,
      "cof": 4819,
      "Sur": 4820,
      "s.erase": 4821,
      "alize_": 4822,
      "f')": 4823,
      "hrink": 4824,
      "inv_mul_cancel": 4825,
      "FractionalIdeal": 4826,
      "ModelWithCorners": 4827,
      "Join": 4828,
      "(Q": 4829,
      "(λ_": 4830,
      ".subtype": 4831,
      "Seg": 4832,
      "S.f": 4833,
      "VSub": 4834,
      "ty": 4835,
      "s.sup": 4836,
      "s₂)": 4837,
      "LeftHomologyData": 4838,
      "Subsingleton.elim": 4839,
      "MinAbs": 4840,
      "pos.2": 4841,
      "B₁": 4842,
      "ENat": 4843,
      "H1": 4844,
      "Shrink": 4845,
      "_inst": 4846,
      "d'": 4847,
      "hal": 4848,
      "¬P": 4849,
      "τ₁₂": 4850,
      "IsG": 4851,
      ".{u}": 4852,
      "ized": 4853,
      ".bodd": 4854,
      "insert,": 4855,
      "h)]": 4856,
      "MvPower": 4857,
      "_eq_zero_iff_": 4858,
      "InfinitePlace": 4859,
      "ym2": 4860,
      "ishingIdeal": 4861,
      "(deriv": 4862,
      "(Int.cast": 4863,
      "bdd": 4864,
      "s}": 4865,
      "⋯,": 4866,
      "or,": 4867,
      "id_": 4868,
      "OrderTop": 4869,
      "MeasurableSingleton": 4870,
      "Category.{?u.1": 4871,
      "_of_is": 4872,
      "add_sub_cancel": 4873,
      "ContinuousWithinAt": 4874,
      "factorMultiset": 4875,
      "Element": 4876,
      "constantCoeff": 4877,
      "MeasurableSingletonClass": 4878,
      "(star": 4879,
      "I₁": 4880,
      "Perfect": 4881,
      "[S": 4882,
      "q.den": 4883,
      "x₃": 4884,
      "Nat.cast": 4885,
      "Concrete": 4886,
      ".injective": 4887,
      "(ofFn": 4888,
      ".lift_": 4889,
      "Diagram": 4890,
      "&&": 4891,
      "((x": 4892,
      "Bl": 4893,
      "Bot_": 4894,
      "E),": 4895,
      "Z)": 4896,
      "hac": 4897,
      "uence": 4898,
      "{x,": 4899,
      "𝕜₃": 4900,
      "LinearIndependent": 4901,
      "(-a)": 4902,
      "s).prod": 4903,
      "RingHom.map_": 4904,
      "BoundedOrder": 4905,
      "Cycles": 4906,
      "→L[ℝ]": 4907,
      "Exponent": 4908,
      "structuredArrow": 4909,
      "IsLUB": 4910,
      "infer_inst": 4911,
      "(ρ_": 4912,
      "W.b": 4913,
      "p₀": 4914,
      "eq_self_": 4915,
      "p.2)": 4916,
      "_iff.mpr": 4917,
      "Numeric": 4918,
      "Formal": 4919,
      "ringChar": 4920,
      "Involutive": 4921,
      "OpensMeasurableSpace": 4922,
      "Function.comp_apply,": 4923,
      "(N": 4924,
      "(⨅": 4925,
      "EMetric": 4926,
      "Fq": 4927,
      "ling": 4928,
      "nfp": 4929,
      "α₂": 4930,
      "ℤ√": 4931,
      "Top.": 4932,
      "Or.inr": 4933,
      "s.s": 4934,
      "ht,": 4935,
      "typein": 4936,
      "a✝).": 4937,
      "neg]": 4938,
      "divInt_": 4939,
      "DivisionSemiring": 4940,
      "iSup_": 4941,
      "icontinuous": 4942,
      "TwoAddSeries": 4943,
      "T1Space": 4944,
      "[x]": 4945,
      "b0": 4946,
      "b}": 4947,
      "f^[n]": 4948,
      "lb": 4949,
      "sphere": 4950,
      "⟨↑": 4951,
      "isL": 4952,
      "IsColimit": 4953,
      "mem,": 4954,
      "ofDual": 4955,
      "add_zero]": 4956,
      "Set.Icc": 4957,
      "F.F": 4958,
      "CancelAddCommMonoid": 4959,
      "infEdist": 4960,
      ".inductionOn": 4961,
      "[sub_eq_add_neg]": 4962,
      "LipschitzWith": 4963,
      "Blank": 4964,
      "FormalMultilinear": 4965,
      "deg": 4966,
      "slope": 4967,
      "stein": 4968,
      "_nn": 4969,
      "sub_iff_": 4970,
      "n✝)": 4971,
      "Complement": 4972,
      "_equiv": 4973,
      "Finset.sum_": 4974,
      "IsSepar": 4975,
      "intro.intro.intro": 4976,
      "SameCycle": 4977,
      "presheaf": 4978,
      "infer_instance": 4979,
      "(List.": 4980,
      ".exists_": 4981,
      "I₂": 4982,
      "PFunctor": 4983,
      "X).": 4984,
      "_injective": 4985,
      "cb": 4986,
      "clog": 4987,
      "¬∃": 4988,
      "IsAffine": 4989,
      "Content": 4990,
      "a.succ": 4991,
      "sup_eq_": 4992,
      "S.g": 4993,
      "Constant": 4994,
      "alanced": 4995,
      "eraseLead": 4996,
      ".head": 4997,
      "3,": 4998,
      "For": 4999,
      "Ta": 5000,
      "_range": 5001,
      "g.comp": 5002,
      "oung": 5003,
      "sel": 5004,
      "refle": 5005,
      "((to": 5006,
      "one_ne_zero": 5007,
      "PartialEquiv": 5008,
      "_ne_zero]": 5009,
      "oldr": 5010,
      "BoundedFormula": 5011,
      "reduce": 5012,
      "traverse": 5013,
      "As": 5014,
      "H✝": 5015,
      "Hal": 5016,
      "R⁆": 5017,
      "Young": 5018,
      "_one": 5019,
      "_one]": 5020,
      "k.": 5021,
      "t]": 5022,
      "infinite": 5023,
      "OrderIso": 5024,
      "hx0": 5025,
      ".singleton": 5026,
      "ifford": 5027,
      "IsoOf": 5028,
      "urren": 5029,
      ".neighborSet": 5030,
      "Q(Type": 5031,
      "Subsemiring": 5032,
      "mul_inv_cancel": 5033,
      ".cast_": 5034,
      "π₁": 5035,
      "≃ₗ": 5036,
      "⌊a": 5037,
      "⦃a": 5038,
      "assum": 5039,
      "IsNormal": 5040,
      "coprime": 5041,
      "_eq_iff_": 5042,
      "ses": 5043,
      "prev": 5044,
      "hc,": 5045,
      "primeFactors": 5046,
      "sin_": 5047,
      "Option.map": 5048,
      "bound": 5049,
      "rotation": 5050,
      "monomial,": 5051,
      "{b}": 5052,
      "(Prod.map": 5053,
      "pi_div_two": 5054,
      "assumption": 5055,
      "[P": 5056,
      "ak": 5057,
      "y⟩": 5058,
      "↑v": 5059,
      "ingular": 5060,
      "id)": 5061,
      "val]": 5062,
      "Fundamental": 5063,
      "hp1": 5064,
      "_iff_forall": 5065,
      "pow_succ,": 5066,
      "Modular": 5067,
      "_ne_zero,": 5068,
      "preimage,": 5069,
      "n.factorMultiset": 5070,
      "Antidiagonal": 5071,
      ".index": 5072,
      "(𝓝[≠]": 5073,
      "(cyclotomic": 5074,
      "urrence": 5075,
      "(Rel": 5076,
      "Single": 5077,
      "_vars": 5078,
      "ν✝": 5079,
      "⊤.": 5080,
      "AddZeroClass": 5081,
      "toList": 5082,
      "le_add": 5083,
      "HasProd": 5084,
      "distrib": 5085,
      "not_iff_": 5086,
      "not_false_": 5087,
      "l.get": 5088,
      "l₁✝": 5089,
      "Row": 5090,
      "struct": 5091,
      "_symm,": 5092,
      "cs.length": 5093,
      "vanishingIdeal": 5094,
      "(inl": 5095,
      "0),": 5096,
      "[i]": 5097,
      "_image": 5098,
      "hi,": 5099,
      "i‖": 5100,
      "κ✝": 5101,
      "reate": 5102,
      "Cons": 5103,
      ".basis": 5104,
      "L.Substructure": 5105,
      "factored": 5106,
      "iUnion]": 5107,
      "hasSum": 5108,
      "n.succ)": 5109,
      "det_": 5110,
      "choose_spec": 5111,
      "field_simp": 5112,
      "ConcreteCategory": 5113,
      "FormalMultilinearSeries": 5114,
      "reatest": 5115,
      "((forget": 5116,
      "10": 5117,
      "E₂": 5118,
      "Rᵐᵒᵖ": 5119,
      "[neg": 5120,
      "↑k)": 5121,
      "⦃x": 5122,
      "mul_self_": 5123,
      "(fib": 5124,
      "appro": 5125,
      "hom_id": 5126,
      "(Ioo": 5127,
      "RightHomologyData": 5128,
      "foldl": 5129,
      "ENNReal.coe_": 5130,
      "upperClosure": 5131,
      "Terminal": 5132,
      "irthd": 5133,
      "(mul": 5134,
      "_coe]": 5135,
      "hyperoperation": 5136,
      "ies": 5137,
      "₀)": 5138,
      "⟨0,": 5139,
      "edIn": 5140,
      "IsD": 5141,
      "eq_zero_or": 5142,
      "mul_lt_": 5143,
      "destruct": 5144,
      "OpenEmbedding": 5145,
      "distri": 5146,
      "infsep": 5147,
      "toFinsupp✝": 5148,
      "associated": 5149,
      "OfFinOrder": 5150,
      "ChartedSpace": 5151,
      "HasStrictDerivAt": 5152,
      "Forall₂": 5153,
      "cauchy": 5154,
      "(MvPolynomial": 5155,
      "M₄": 5156,
      "Z).hom": 5157,
      "[div_": 5158,
      "_))": 5159,
      "_map_": 5160,
      "nhds_": 5161,
      "↑s)": 5162,
      ".toMatrix": 5163,
      "hb⟩": 5164,
      "G.obj": 5165,
      "a₁✝": 5166,
      "cancel_mono": 5167,
      "NonUnitalSemiring": 5168,
      ".homEquiv": 5169,
      "(padicNorm": 5170,
      "Preserving": 5171,
      "Immer": 5172,
      "K₂": 5173,
      "o)": 5174,
      "↑H": 5175,
      "orthogonalProjection": 5176,
      "col": 5177,
      "powHal": 5178,
      "invFun": 5179,
      "h.2": 5180,
      "hy⟩": 5181,
      "max_eq_": 5182,
      "top_": 5183,
      "hr,": 5184,
      "_1,": 5185,
      "Subgroupoid": 5186,
      "Ordinal.{u})": 5187,
      "Ann": 5188,
      "_lt_one": 5189,
      "l).length": 5190,
      "clotomicExtension": 5191,
      "PiSystem": 5192,
      "utations": 5193,
      "W.a₃": 5194,
      "ircum": 5195,
      "weightedVSub": 5196,
      "nontriviality": 5197,
      "(Int.castRingHom": 5198,
      "Immersion": 5199,
      "-[n": 5200,
      "Big": 5201,
      "[zpow": 5202,
      "ih]": 5203,
      "δ)": 5204,
      "π₂": 5205,
      "↥A": 5206,
      "Group.": 5207,
      "hx'": 5208,
      "(pi": 5209,
      "Std.": 5210,
      ").toFinset": 5211,
      "Num.": 5212,
      "Absolute": 5213,
      "Compacts": 5214,
      "X.δ": 5215,
      "Fiber": 5216,
      "indelof": 5217,
      "-[n+1]": 5218,
      "BigO": 5219,
      "(T": 5220,
      "(dist": 5221,
      "(update": 5222,
      "(le_of_lt": 5223,
      "C]": 5224,
      "F[X]": 5225,
      "J(a": 5226,
      "bes": 5227,
      "gcongr": 5228,
      "hy)": 5229,
      "hler": 5230,
      "iation": 5231,
      "q.degree": 5232,
      "|a|": 5233,
      "asIdeal": 5234,
      "inst✝¹⁶": 5235,
      "toNNReal": 5236,
      "cop": 5237,
      "(factor": 5238,
      "MulOpposite": 5239,
      "HomClass": 5240,
      "one_of_": 5241,
      "pi_pos": 5242,
      "zero_add]": 5243,
      "hi⟩": 5244,
      "l₂✝": 5245,
      "(e.symm": 5246,
      "PeriodicPt": 5247,
      "LimZero": 5248,
      "OreSet": 5249,
      "iffordAlgebra": 5250,
      "besg": 5251,
      "(hx": 5252,
      "(const": 5253,
      "(Equiv.": 5254,
      "Eigen": 5255,
      "L₄": 5256,
      "[inst": 5257,
      "_mem_": 5258,
      "_const": 5259,
      "g⁻¹": 5260,
      "g.support": 5261,
      "i}": 5262,
      "p1": 5263,
      "w.im": 5264,
      "∅,": 5265,
      "⟨j,": 5266,
      "onorm": 5267,
      "simp)": 5268,
      "irkh": 5269,
      "thonorm": 5270,
      "((starRingEnd": 5271,
      "add_left_": 5272,
      "ContinuousSMul": 5273,
      "[add_comm,": 5274,
      "[disjoint_": 5275,
      "Recurrence": 5276,
      "jacobiSymNat": 5277,
      "IsCyclotomicExtension": 5278,
      "getElem": 5279,
      "irkhoff": 5280,
      "thonormal": 5281,
      "Hol": 5282,
      "Iff.": 5283,
      "Over": 5284,
      "[p": 5285,
      "lable": 5286,
      "r.sign": 5287,
      "vBy": 5288,
      "⬝ᵥ": 5289,
      ").app": 5290,
      ").length": 5291,
      "IsNoetherian": 5292,
      "exact_": 5293,
      "Under": 5294,
      "_snd": 5295,
      "comp_apply,": 5296,
      "h.1": 5297,
      ".nil": 5298,
      "univ)": 5299,
      "[s]": 5300,
      "(𝟙_": 5301,
      "congr_fun": 5302,
      "Points": 5303,
      "arccos": 5304,
      "cyclesMap": 5305,
      "Reflection": 5306,
      "[div_eq_mul_inv]": 5307,
      "Symmetric": 5308,
      "LSeriesSummable": 5309,
      "uster": 5310,
      "(Sym2": 5311,
      "Bicat": 5312,
      "E✝": 5313,
      "J,": 5314,
      "P).": 5315,
      "cale": 5316,
      "dif_neg": 5317,
      "h3": 5318,
      "vectorSpan": 5319,
      "¬f": 5320,
      "ℝ*": 5321,
      "𝓝ˢ": 5322,
      "or]": 5323,
      "rev,": 5324,
      "AddChar": 5325,
      "MulChar": 5326,
      "Cohe": 5327,
      "le_trans": 5328,
      ".rel": 5329,
      ".block": 5330,
      "(Iio": 5331,
      "partial": 5332,
      "Above_": 5333,
      "empty_or_nonempty": 5334,
      "Triple": 5335,
      "Weak": 5336,
      "bernoulli'": 5337,
      "setOf_eq,": 5338,
      "Subset.": 5339,
      "Bicategory": 5340,
      "(J": 5341,
      "(add": 5342,
      "(hd": 5343,
      ".equiv": 5344,
      "a),": 5345,
      "b1": 5346,
      "t.card": 5347,
      "tsum_": 5348,
      "↑m)": 5349,
      "≪≫": 5350,
      "alg": 5351,
      "s.get?": 5352,
      "Left_": 5353,
      "_le]": 5354,
      "_le_iff]": 5355,
      "iction": 5356,
      "LECancel": 5357,
      "NonUnitalNonAssocRing": 5358,
      "units": 5359,
      "contrad": 5360,
      "SqFac": 5361,
      "dualAnn": 5362,
      "LECancellable": 5363,
      "contradiction": 5364,
      "(𝓟": 5365,
      "(sum": 5366,
      "(l₁": 5367,
      "(Subtype.val": 5368,
      "FDeriv": 5369,
      "])": 5370,
      "basicOpen": 5371,
      "dBasis": 5372,
      "hh": 5373,
      "⟨f": 5374,
      "ithful": 5375,
      "_le,": 5376,
      "refl]": 5377,
      "false,": 5378,
      "not,": 5379,
      "CauchySeq": 5380,
      "Ideal.Quotient.mk": 5381,
      "Equicontinuous": 5382,
      "(hi": 5383,
      "I))": 5384,
      "[_root_.": 5385,
      "b.val": 5386,
      "→o": 5387,
      "ingle_": 5388,
      "Sets": 5389,
      "_span": 5390,
      "OfUnit": 5391,
      "W.a₁": 5392,
      "→ₗ[": 5393,
      "_).trans": 5394,
      "ernoulli": 5395,
      "Cardinal.": 5396,
      "isOpen_": 5397,
      "StieltjesFunction": 5398,
      "(take": 5399,
      "2⁻¹": 5400,
      "Sized": 5401,
      "cpow": 5402,
      "digits": 5403,
      "m.factorMultiset": 5404,
      "space": 5405,
      "uIcc": 5406,
      "⟨t,": 5407,
      "encard_": 5408,
      "pological": 5409,
      "tri": 5410,
      "hprime": 5411,
      "_of_neg": 5412,
      "hb)": 5413,
      "prod]": 5414,
      "Real.cos": 5415,
      "two_ne_zero": 5416,
      "_le_iff,": 5417,
      "subst_vars": 5418,
      "frontier": 5419,
      "SemiNormed": 5420,
      "ingTime": 5421,
      "iationOn": 5422,
      "CoheytingAlgebra": 5423,
      "Imp": 5424,
      "J'": 5425,
      "R))": 5426,
      "_union": 5427,
      "⌉₊": 5428,
      "IsSimple": 5429,
      "AddCommSemigroup": 5430,
      "tract": 5431,
      "HomLift": 5432,
      "↑(2": 5433,
      "ofList": 5434,
      "verage": 5435,
      "(-π)": 5436,
      "f.comp": 5437,
      "pliable": 5438,
      "ueDecomposition": 5439,
      "Submodule.": 5440,
      "Polynomial.map_": 5441,
      "Functor.map": 5442,
      "Lebesg": 5443,
      "LinearMap.ker": 5444,
      "f.IsCycle": 5445,
      "LebesgueDecomposition": 5446,
      "(‖x‖": 5447,
      ">]": 5448,
      "H]": 5449,
      "diff,": 5450,
      "j).": 5451,
      "uS": 5452,
      "π.app": 5453,
      "⇑f)": 5454,
      "multi": 5455,
      "cokernel": 5456,
      "eq_empty_or_nonempty": 5457,
      "(ab": 5458,
      "↑(μ": 5459,
      "hp0": 5460,
      "Measure.": 5461,
      "_iff_eq_": 5462,
      "Multiset.card": 5463,
      "orsion": 5464,
      "‖f‖": 5465,
      "inner_": 5466,
      "ugate": 5467,
      "→ₗ⁅R⁆": 5468,
      "SurjOn": 5469,
      "(Function.": 5470,
      "72": 5471,
      "Lean": 5472,
      "Padic": 5473,
      "ek": 5474,
      "t))": 5475,
      "ingDegree": 5476,
      "edek": 5477,
      "IsAtom": 5478,
      "compose": 5479,
      "p.Prime": 5480,
      "orderOf_": 5481,
      "indDomain": 5482,
      "LinearMap.id": 5483,
      "[Nat.cast_": 5484,
      "UpTo": 5485,
      "YoungDiagram": 5486,
      "Impartial": 5487,
      "Lean.": 5488,
      "edekindDomain": 5489,
      "((n": 5490,
      "16": 5491,
      "B,": 5492,
      "P₁": 5493,
      "P₂": 5494,
      "U,": 5495,
      "V,": 5496,
      "_assoc,": 5497,
      "cor": 5498,
      "o,": 5499,
      "uto": 5500,
      "⋯.": 5501,
      "hx1": 5502,
      "Cof": 5503,
      "mem]": 5504,
      "extual": 5505,
      "add_assoc,": 5506,
      "(↑x": 5507,
      "tauto": 5508,
      "_iff_is": 5509,
      "_iff_of_": 5510,
      "l₂)": 5511,
      "inter,": 5512,
      "strong": 5513,
      ".coe_mk,": 5514,
      "contextual": 5515,
      ".last": 5516,
      "condCountableTopology": 5517,
      "h.e'_3.": 5518,
      "divisor": 5519,
      "Reflect": 5520,
      "minimalPeriod": 5521,
      "UniformlyOn": 5522,
      "IsDedekindDomain": 5523,
      "(inr": 5524,
      "[List.": 5525,
      "sα": 5526,
      "↑b)": 5527,
      "↑Γ(X,": 5528,
      "√↑": 5529,
      "⟨r,": 5530,
      "replace": 5531,
      "IsPeriodicPt": 5532,
      "enter": 5533,
      "AddLECancellable": 5534,
      "EqOn": 5535,
      "Equation": 5536,
      "List.map": 5537,
      "card_eq_": 5538,
      "ection": 5539,
      "↑(s": 5540,
      "mk_eq_": 5541,
      "h_bot": 5542,
      "ermite": 5543,
      "interval": 5544,
      ").inv.app": 5545,
      "iSup,": 5546,
      "Presieve": 5547,
      "lowerClosure": 5548,
      "DifferentiableOn": 5549,
      "Q(CommSemiring": 5550,
      "Algebra.adjoin": 5551,
      "distrib,": 5552,
      "(𝓞": 5553,
      "=O": 5554,
      "Ak": 5555,
      "A₃": 5556,
      "Rad": 5557,
      "[log": 5558,
      "[inf_": 5559,
      "zzi": 5560,
      "φ₁": 5561,
      "↑J": 5562,
      "ative_": 5563,
      "im,": 5564,
      "raBa": 5565,
      "colimit": 5566,
      "eq_iff_": 5567,
      "ha'": 5568,
      "pow_succ": 5569,
      "a.h": 5570,
      "n.choose": 5571,
      "closure_": 5572,
      "S.HasHomology": 5573,
      "quadratic": 5574,
      "_id]": 5575,
      "ittVector": 5576,
      "GradedAlgebra": 5577,
      "CentralSeries": 5578,
      "AkraBa": 5579,
      "zziRecurrence": 5580,
      "AkraBazziRecurrence": 5581,
      "Se": 5582,
      "W)": 5583,
      "[exp": 5584,
      "aithful": 5585,
      "family": 5586,
      "fourier": 5587,
      "sol": 5588,
      "witt": 5589,
      "𝒰.": 5590,
      "imp_": 5591,
      "RingedSpace": 5592,
      "s.head": 5593,
      ".source": 5594,
      "↑(p": 5595,
      "hp]": 5596,
      "Int.natAbs": 5597,
      ".2,": 5598,
      "_ne_one": 5599,
      "quot_": 5600,
      "iUnion_": 5601,
      "MonotoneOn": 5602,
      "[L]": 5603,
      "SecondCountableTopology": 5604,
      "(⊤": 5605,
      "Aut": 5606,
      "En": 5607,
      "od_": 5608,
      "ℝ))": 5609,
      "↑w": 5610,
      "ped": 5611,
      "atom": 5612,
      "ediv": 5613,
      "isEmpty": 5614,
      "mul_add,": 5615,
      "inearMap": 5616,
      "_of_le_": 5617,
      "PrimePow": 5618,
      ".do": 5619,
      "(pure": 5620,
      "ContinuousMul": 5621,
      "comap,": 5622,
      "m.succ": 5623,
      "(p.coeff": 5624,
      "Reac": 5625,
      "trans_lt": 5626,
      "?m.1": 5627,
      "Lean.Level": 5628,
      "Cross": 5629,
      "HMul.hMul": 5630,
      "Right_": 5631,
      "X).hom": 5632,
      "h_s": 5633,
      "lue": 5634,
      ").det": 5635,
      "map'": 5636,
      "s.Countable": 5637,
      "Nat.sub_": 5638,
      "val✝,": 5639,
      ".restrict_": 5640,
      "key": 5641,
      "Stone": 5642,
      "n.divisors": 5643,
      "inter_eq_": 5644,
      "Arg": 5645,
      "fixed": 5646,
      "Splits": 5647,
      "offDiag": 5648,
      "(add_": 5649,
      "P1": 5650,
      "_]": 5651,
      "_app": 5652,
      "mid": 5653,
      "σ)": 5654,
      "orientation": 5655,
      "IsRight": 5656,
      "IsCompl": 5657,
      "IsAdjoinRoot": 5658,
      "e_a": 5659,
      "_eq_top": 5660,
      "MulZero": 5661,
      "MeasurableMul": 5662,
      "DivisionCommMonoid": 5663,
      "Equivalence": 5664,
      "Rotation": 5665,
      "(hom": 5666,
      ".Nodup": 5667,
      "4)": 5668,
      "96": 5669,
      "_map,": 5670,
      "c⁻¹": 5671,
      "curry": 5672,
      "floor": 5673,
      "ground": 5674,
      "pi,": 5675,
      "~r": 5676,
      "↑↑n": 5677,
      "∏ᶠ": 5678,
      "⟨g,": 5679,
      "u_14": 5680,
      "ha0": 5681,
      "Eq,": 5682,
      "s.val": 5683,
      "Coe.": 5684,
      "_single": 5685,
      "pos,": 5686,
      "lt_add": 5687,
      ".mk'": 5688,
      "[show": 5689,
      "_naturality": 5690,
      "RingHomClass": 5691,
      "FreeGroup": 5692,
      ".succAbove": 5693,
      "l).prod": 5694,
      "SetLike.mem_": 5695,
      "Semicontinuous": 5696,
      "(Sum.inr": 5697,
      "PFunctor.{u}": 5698,
      "powHalf": 5699,
      "(interior": 5700,
      "C_": 5701,
      "Diff_": 5702,
      "Diagonal": 5703,
      "_cons,": 5704,
      "dy": 5705,
      "ω)": 5706,
      "⇑e": 5707,
      "alternating": 5708,
      "rec'": 5709,
      "Combination": 5710,
      "empotent": 5711,
      "ormPerm": 5712,
      "coprime_": 5713,
      "hax": 5714,
      "OrderClosed": 5715,
      "s.Nontrivial": 5716,
      "TopologicalSemiring": 5717,
      "List.f": 5718,
      "hp₂": 5719,
      "::ᵥ": 5720,
      "n.minFac": 5721,
      "ermat": 5722,
      "_nat_": 5723,
      "W.Ψ": 5724,
      "v.tail": 5725,
      "Splitting": 5726,
      "σ₂₃": 5727,
      "cancel_epi": 5728,
      "eq_self_iff_": 5729,
      "OrderClosedTopology": 5730,
      "(ε": 5731,
      "AList": 5732,
      "A⁻¹": 5733,
      "S₄": 5734,
      "[this,": 5735,
      "_succ_": 5736,
      "ka": 5737,
      "l⟧": 5738,
      "reSym": 5739,
      "Category.{?u.2": 5740,
      "(sInf": 5741,
      ".inj": 5742,
      "OrderedSMul": 5743,
      "StrictOrderedSemiring": 5744,
      "WithBot.some": 5745,
      "iteratedDeriv": 5746,
      "allel": 5747,
      "self.": 5748,
      "(univ": 5749,
      "(K.": 5750,
      "Jord": 5751,
      "X).inv": 5752,
      "[rpow_": 5753,
      "aeval": 5754,
      "cent": 5755,
      "group": 5756,
      "nim": 5757,
      "ps": 5758,
      "spectrum": 5759,
      "v₃": 5760,
      "Ω),": 5761,
      "τ)": 5762,
      "∅)": 5763,
      "IsSet": 5764,
      "toSubmodule": 5765,
      "u_5,": 5766,
      "(sup": 5767,
      "Iso.inv_": 5768,
      "ernstein": 5769,
      "Products": 5770,
      ".symm,": 5771,
      "ne_eq,": 5772,
      "p.total": 5773,
      "ConstSMul": 5774,
      "(↑a)⁻¹": 5775,
      "versable": 5776,
      "Jordan": 5777,
      "(pow_": 5778,
      "(tendsto_": 5779,
      "A,": 5780,
      "L,": 5781,
      "Mˣ": 5782,
      "[min": 5783,
      "[Ne,": 5784,
      "b),": 5785,
      "mb": 5786,
      "y.1": 5787,
      "↑l": 5788,
      "pot": 5789,
      "IsTrans": 5790,
      "IsRegular": 5791,
      "IsInitial": 5792,
      "AddHom": 5793,
      "mulRight": 5794,
      "set_": 5795,
      "OrderHom": 5796,
      "_eq_iff_eq_": 5797,
      "Category.{u_5,": 5798,
      "le_sup": 5799,
      "Nonsingular": 5800,
      "(sSup": 5801,
      "ContinuousConstSMul": 5802,
      "filter,": 5803,
      "(Prod.mk": 5804,
      "push": 5805,
      "MultilinearMap": 5806,
      "DirectedOn": 5807,
      "(adj.homEquiv": 5808,
      "matrix": 5809,
      "While": 5810,
      "#ι": 5811,
      "(ν": 5812,
      "(L.": 5813,
      "=o": 5814,
      "first": 5815,
      "k₁": 5816,
      "lintegral": 5817,
      "l.reverse": 5818,
      "pushout": 5819,
      "↥s": 5820,
      "⟨val✝,": 5821,
      "IsProbabilityMeasure": 5822,
      "irr": 5823,
      "TopologicalAddGroup": 5824,
      "All": 5825,
      "n)).": 5826,
      "s)⁻¹": 5827,
      "one_le": 5828,
      "prod_eq_": 5829,
      "zero_mul]": 5830,
      "UniformFun": 5831,
      ").toList": 5832,
      "OrderedCancelAddCommMonoid": 5833,
      "S.arrows": 5834,
      "derivative_": 5835,
      "SuccLimit": 5836,
      "PredOrder": 5837,
      "u.r": 5838,
      "ittle": 5839,
      "p.IsHomLift": 5840,
      "other": 5841,
      "triangle": 5842,
      "√↑5": 5843,
      "kahler": 5844,
      "(0,": 5845,
      "B.": 5846,
      "C).obj": 5847,
      "Ke": 5848,
      "[sup_": 5849,
      "i₁₂": 5850,
      "x),": 5851,
      "ℚ)": 5852,
      "↥H": 5853,
      "∃!": 5854,
      "ating": 5855,
      "repeat": 5856,
      "aris": 5857,
      "gend": 5858,
      "(f₂": 5859,
      "otProduct": 5860,
      "_of_nonpos": 5861,
      "add_assoc]": 5862,
      "(b₁": 5863,
      "Idempotent": 5864,
      "_neg_eq_": 5865,
      "closure,": 5866,
      "abs_of_nonneg": 5867,
      "radius": 5868,
      "pects": 5869,
      "BijOn": 5870,
      "X_pow_": 5871,
      "sublists'": 5872,
      "uced": 5873,
      "HasBinaryBiproduct": 5874,
      "LocalRing": 5875,
      "arison": 5876,
      "gendreSym": 5877,
      "(lt_of_": 5878,
      "/ₒ": 5879,
      "C),": 5880,
      "Man": 5881,
      "X))": 5882,
      "aro": 5883,
      "f.symm": 5884,
      "fract": 5885,
      "uT": 5886,
      "urwitzZeta": 5887,
      "injective_": 5888,
      "legendreSym": 5889,
      "countable": 5890,
      "s.Nodup": 5891,
      "apply_symm": 5892,
      "hs)": 5893,
      "ofFinsupp": 5894,
      "(↑n).": 5895,
      "one_smul]": 5896,
      "u₂,": 5897,
      ".IsLimit": 5898,
      ").toNat": 5899,
      "(hermite": 5900,
      "factors_": 5901,
      "StarOrderedRing": 5902,
      "(diagonal": 5903,
      "inf_le_": 5904,
      "ByMonic": 5905,
      "App": 5906,
      "AngleRotation": 5907,
      "enumOrd": 5908,
      "iterate_succ": 5909,
      "(PrimeSpectrum": 5910,
      ".add": 5911,
      "[lt_": 5912,
      "[sub_": 5913,
      "[inv_": 5914,
      "e.to": 5915,
      "eigen": 5916,
      "same": 5917,
      "torsion": 5918,
      "₄,": 5919,
      "↑⊥": 5920,
      "⇑φ": 5921,
      "⟦l⟧": 5922,
      "leph": 5923,
      "(ne_of_": 5924,
      "(aleph": 5925,
      "proper": 5926,
      ".ncard": 5927,
      "Multiset.map_": 5928,
      "h_comm": 5929,
      "(cexp": 5930,
      "1)))": 5931,
      "heaf.": 5932,
      "f₂'": 5933,
      "sq,": 5934,
      "infDist": 5935,
      "[pow_succ,": 5936,
      "Classical.not_": 5937,
      "(adjoin": 5938,
      "f.toMap": 5939,
      "Multipliable": 5940,
      "GaloisCategory": 5941,
      "⟨a',": 5942,
      "hurwitzZetaEven": 5943,
      "(cast": 5944,
      ".le_": 5945,
      "[mul": 5946,
      "[insert_": 5947,
      "hf_": 5948,
      "opt": 5949,
      "inc": 5950,
      ").mpr": 5951,
      "covBy": 5952,
      "Finset.filter": 5953,
      "(a₁": 5954,
      "HomEquiv": 5955,
      "Comparison": 5956,
      "negY": 5957,
      "neg_neg": 5958,
      ".inner": 5959,
      ".dec": 5960,
      "f.range": 5961,
      "const,": 5962,
      "IsOpenImmersion": 5963,
      "hasBasis": 5964,
      "cyclic": 5965,
      "_symm]": 5966,
      "upperBounds": 5967,
      "contract": 5968,
      "Classical.dec": 5969,
      "connectedComponent": 5970,
      "TotalSpace": 5971,
      "Ordering.lt": 5972,
      "Reduced": 5973,
      "AbsoluteValue": 5974,
      "#↑(": 5975,
      "(P.": 5976,
      "(uncurry": 5977,
      "*]": 5978,
      ".sub": 5979,
      "Bin": 5980,
      "Dvd": 5981,
      "Var": 5982,
      "_prod_": 5983,
      "meas": 5984,
      "x.fst": 5985,
      "y.2": 5986,
      "μ'": 5987,
      "φ✝": 5988,
      "eq_or_": 5989,
      "ht'": 5990,
      "p.den": 5991,
      ".ne'": 5992,
      "AtFilter": 5993,
      "a₂✝": 5994,
      "untrop": 5995,
      "S.Exact": 5996,
      "Absor": 5997,
      "continuousAt_": 5998,
      ")).comp": 5999,
      ".iso": 6000,
      "Trunc": 6001,
      "Haus": 6002,
      "S₁.HomologyData": 6003,
      "Iso.hom_inv_": 6004,
      "IntervalIntegrable": 6005,
      "eq_zero_or_pos": 6006,
      ".con": 6007,
      ".pred": 6008,
      "24": 6009,
      "58": 6010,
      "Fermat": 6011,
      "WittVector": 6012,
      "_ext": 6013,
      "j₂": 6014,
      "sPolynomial": 6015,
      "t1": 6016,
      "π,": 6017,
      "𝒜)": 6018,
      "𝓝[s]": 6019,
      ").im": 6020,
      "ListBlank": 6021,
      "hb₁": 6022,
      "(↑s).": 6023,
      "_iff_dvd": 6024,
      "rightHomology": 6025,
      "expMap": 6026,
      "odal": 6027,
      "limit.π": 6028,
      "continuousAt": 6029,
      "Haar": 6030,
      "(norm_nonneg": 6031,
      "functor.obj": 6032,
      "points": 6033,
      "S₂.HomologyData": 6034,
      "IsoOfEq": 6035,
      "sPolynomially": 6036,
      "Lp.": 6037,
      "Pret": 6038,
      "S),": 6039,
      "[Set.mem_": 6040,
      "[Pi.": 6041,
      "four": 6042,
      "ixed": 6043,
      "uE": 6044,
      "ubi": 6045,
      "ι.app": 6046,
      "⟨w,": 6047,
      "onent_": 6048,
      "u_15": 6049,
      "atic": 6050,
      "three": 6051,
      "(f.comp": 6052,
      "s.indicator": 6053,
      "(sin": 6054,
      "div2": 6055,
      "divInt": 6056,
      "chrom": 6057,
      "left✝": 6058,
      ".bo": 6059,
      "(g.comp": 6060,
      ").toFun": 6061,
      "Finset.coe_": 6062,
      "F.B": 6063,
      "neg_mul,": 6064,
      "Compactum": 6065,
      "_eq_zero_iff]": 6066,
      "Aux_": 6067,
      "limsup": 6068,
      "^[k]": 6069,
      "present": 6070,
      "aroubi": 6071,
      "optParam": 6072,
      "aticNumber": 6073,
      "chromaticNumber": 6074,
      "(ha": 6075,
      "(iso": 6076,
      "[G": 6077,
      "_pow_": 6078,
      "dim": 6079,
      "iqu": 6080,
      "mass": 6081,
      "¬q": 6082,
      "↑B": 6083,
      "√5": 6084,
      "re]": 6085,
      "IsLeft": 6086,
      "IsOfFinOrder": 6087,
      "Proper": 6088,
      "hx₀": 6089,
      "(b.digits": 6090,
      "f.eraseLead": 6091,
      "_negSucc": 6092,
      "_apply_": 6093,
      "LinearOrderedAddCommMonoid": 6094,
      "icator_": 6095,
      "[smul_": 6096,
      "_compl,": 6097,
      "edges": 6098,
      "num_": 6099,
      "DiscreteTopology": 6100,
      "quotient": 6101,
      "(fst✝,": 6102,
      "dualAnnihilator": 6103,
      "ittleO": 6104,
      "eq_or_lt_of_le": 6105,
      "(angle": 6106,
      "I₁₂": 6107,
      "K₀": 6108,
      "Null": 6109,
      "_fin": 6110,
      "ce.": 6111,
      "j.succ": 6112,
      "l₃": 6113,
      "sa": 6114,
      "Compact_": 6115,
      "OrthogonalProjection": 6116,
      "↑(F.obj": 6117,
      "_spec": 6118,
      "ofCo": 6119,
      "HasOrthogonalProjection": 6120,
      "((shiftFunctor": 6121,
      "Matrix_": 6122,
      "G.Impartial": 6123,
      "_pos,": 6124,
      "RingHom.ker": 6125,
      "hq,": 6126,
      "andard": 6127,
      "(Finsup": 6128,
      "StarAddMonoid": 6129,
      "Transform": 6130,
      "Localization.": 6131,
      "X.A": 6132,
      "biprod": 6133,
      "RecOn": 6134,
      "(⋃₀": 6135,
      "Fixed": 6136,
      "match": 6137,
      "(Measure.map": 6138,
      "I.IsPrime": 6139,
      "GrowsPolynomially": 6140,
      "IsAffineOpen": 6141,
      "Radical": 6142,
      "Encodable": 6143,
      "ique_": 6144,
      "(τ": 6145,
      "(ascPochhammer": 6146,
      "Balanced": 6147,
      "Von": 6148,
      "Y₁": 6149,
      "[mem_s": 6150,
      "aeval_": 6151,
      "bif": 6152,
      "f⟩": 6153,
      "f⁻¹": 6154,
      "hV": 6155,
      "hpos": 6156,
      "met": 6157,
      "nt": 6158,
      "vil": 6159,
      "↑y)": 6160,
      "↑p)": 6161,
      "→+": 6162,
      "⟨z,": 6163,
      "Inst": 6164,
      "_not": 6165,
      "(fourier": 6166,
      "CompHaus": 6167,
      "hp'": 6168,
      "HasLeft": 6169,
      "veLebesgueDecomposition": 6170,
      "hbdd": 6171,
      "(↑θ": 6172,
      "(-b)": 6173,
      "const_": 6174,
      "G.edgeSet": 6175,
      "[nhds": 6176,
      "sum_range_": 6177,
      "Torsion": 6178,
      "HaveLebesgueDecomposition": 6179,
      "Units.val_": 6180,
      "m).gcd": 6181,
      "sqrtTwoAddSeries": 6182,
      "inferInst": 6183,
      "(ComplexShape": 6184,
      "A.Is": 6185,
      "H).": 6186,
      "PNat": 6187,
      "X.map": 6188,
      "h))": 6189,
      "j₁": 6190,
      "xgcd": 6191,
      "z]": 6192,
      "⟪y,": 6193,
      "requ": 6194,
      ").val": 6195,
      ").op": 6196,
      "ithmet": 6197,
      "_nhd": 6198,
      "sub_nonneg": 6199,
      "ently": 6200,
      "keys": 6201,
      "maxPow": 6202,
      "rfl⟩,": 6203,
      "Prod.mk": 6204,
      "Arithmet": 6205,
      "∂μ)": 6206,
      "InterFilter": 6207,
      "unit.app": 6208,
      "ofNat,": 6209,
      "conj_": 6210,
      "↑(n.choose": 6211,
      "Cluster": 6212,
      "even_": 6213,
      "updateRow": 6214,
      "by_contra!": 6215,
      "ville": 6216,
      "requently": 6217,
      "maxPowDiv": 6218,
      "Arithmetic": 6219,
      "(hf.": 6220,
      "-,": 6221,
      ".desc": 6222,
      "G.degree": 6223,
      "G.dist": 6224,
      "Y).hom": 6225,
      "Z).inv": 6226,
      "_›": 6227,
      "diag": 6228,
      "hi)": 6229,
      "l]": 6230,
      "lip": 6231,
      "w]": 6232,
      "}.to": 6233,
      "↑U": 6234,
      "IsRel": 6235,
      "Orthonormal": 6236,
      "mem_of_": 6237,
      "Nonneg": 6238,
      "(bif": 6239,
      "(ball": 6240,
      "(-2": 6241,
      ".IsNilpotent": 6242,
      "Integer": 6243,
      "_nat,": 6244,
      "Primrec": 6245,
      "[degree_": 6246,
      "MonoidHom.range": 6247,
      ".eq_or_lt": 6248,
      "HasPullbacks": 6249,
      "{y}": 6250,
      "toIocDiv": 6251,
      "toIcoMod": 6252,
      "ENNReal.toReal": 6253,
      "approx": 6254,
      "..": 6255,
      "H2": 6256,
      "N,": 6257,
      "Rack": 6258,
      "_obj": 6259,
      "l))": 6260,
      "nd_": 6261,
      "w.re": 6262,
      "{1}": 6263,
      "ord_": 6264,
      "lyOrdered": 6265,
      "IsLowerSet": 6266,
      "enn": 6267,
      "1)!": 6268,
      "hp⟩": 6269,
      "LinearIsometry": 6270,
      "negOnePow": 6271,
      "Measure.map": 6272,
      "add_comm": 6273,
      "leftHomology": 6274,
      "(-1": 6275,
      "s✝¹": 6276,
      "f.op": 6277,
      "Ordinal.{u_2}": 6278,
      "h₂⟩": 6279,
      "hm)": 6280,
      "Finset.prod_": 6281,
      "hz,": 6282,
      "abs]": 6283,
      "and_comm]": 6284,
      "alizedFactors": 6285,
      "Eventually": 6286,
      "gcd_dvd_": 6287,
      "SignType": 6288,
      "maximals": 6289,
      "dist_eq_norm_": 6290,
      "ArithmeticFunction": 6291,
      "G).": 6292,
      "Karoubi": 6293,
      "Some": 6294,
      "[fin": 6295,
      "_int": 6296,
      "fg": 6297,
      "hτ": 6298,
      "ment_": 6299,
      "τ₂": 6300,
      "↑s.card": 6301,
      "continu": 6302,
      "(nat": 6303,
      "exacts": 6304,
      "Category.{u₂,": 6305,
      "MeasurePreserving": 6306,
      "((-": 6307,
      "(↑b": 6308,
      "tay": 6309,
      "utter": 6310,
      "OrdConnected": 6311,
      "map_mul,": 6312,
      "(c.": 6313,
      "e.hom": 6314,
      "roots_": 6315,
      "countP": 6316,
      "interior_": 6317,
      "Chain'": 6318,
      "DenselyOrdered": 6319,
      "destutter": 6320,
      "formPerm": 6321,
      "ples": 6322,
      "commutator": 6323,
      "[[a,": 6324,
      "tensorHom": 6325,
      "pectsIso": 6326,
      "IsRelPrime": 6327,
      "(lt_": 6328,
      "NBounded": 6329,
      "[this]": 6330,
      "_one_": 6331,
      "b_1": 6332,
      "c‖": 6333,
      "circle": 6334,
      "v‖": 6335,
      "xs)": 6336,
      "zpowers": 6337,
      "⌈a": 6338,
      ").mp": 6339,
      "IsPreconnected": 6340,
      "cofinite": 6341,
      "hfc": 6342,
      "pos_iff_": 6343,
      "add_mul,": 6344,
      "(I.": 6345,
      "inter]": 6346,
      "Infty": 6347,
      "iSup]": 6348,
      "false]": 6349,
      "[pow_zero,": 6350,
      "Colum": 6351,
      "WithTop.some": 6352,
      "SimplexCategory.": 6353,
      "Commutative": 6354,
      "≤ᶠ[l]": 6355,
      "C_mul_X_": 6356,
      "factoredNumbers": 6357,
      "irthday": 6358,
      "ircumcenter": 6359,
      "push_neg": 6360,
      "Classical.decEq": 6361,
      "VonNBounded": 6362,
      "(Classical.": 6363,
      "First": 6364,
      "HAdd": 6365,
      "S).": 6366,
      "[hf": 6367,
      "[lift": 6368,
      "[0]": 6369,
      "cd": 6370,
      "step": 6371,
      "omeg": 6372,
      "eq_comm": 6373,
      "try": 6374,
      "Coe": 6375,
      "↑(I": 6376,
      "_of_dvd": 6377,
      "WithTop.": 6378,
      "h.h.": 6379,
      "hg]": 6380,
      "not_forall": 6381,
      "[].": 6382,
      "oldMap": 6383,
      "Symb": 6384,
      "hk,": 6385,
      "Limits.": 6386,
      "adj2": 6387,
      "preimage]": 6388,
      "dual_": 6389,
      "conj,": 6390,
      ".hAdd": 6391,
      "Scheme.": 6392,
      "Arrow.mk": 6393,
      "sublistsLen": 6394,
      "HAdd.hAdd": 6395,
      "#↑s": 6396,
      "(setOf": 6397,
      "0Space": 6398,
      "5,": 6399,
      "Des": 6400,
      "I]": 6401,
      "b]]": 6402,
      "γ),": 6403,
      "ι₁": 6404,
      "φ₂": 6405,
      "∃ᶠ": 6406,
      "etr": 6407,
      "unction": 6408,
      "s.Infinite": 6409,
      "hs₁": 6410,
      "HasPushout": 6411,
      "(↑0": 6412,
      ".formPerm": 6413,
      "Submodule.map": 6414,
      "SMulRegular": 6415,
      "LeftInverse": 6416,
      "atTop_": 6417,
      "Normalization": 6418,
      "Rat.cast": 6419,
      "toIcoDiv": 6420,
      "iteratedFDeriv": 6421,
      "σ₁₃": 6422,
      "nonempty_fintype": 6423,
      "G.Colorable": 6424,
      "HeytingAlgebra": 6425,
      "(equivShrink": 6426,
      "weightedVSubOf": 6427,
      "Column": 6428,
      "Symbol": 6429,
      "(Algebra": 6430,
      "(mulSupport": 6431,
      "(l.rotate": 6432,
      "-π": 6433,
      "11": 6434,
      "J₂": 6435,
      "K]": 6436,
      "Ra": 6437,
      "_mk": 6438,
      "hsum": 6439,
      "ke_": 6440,
      "q.natDegree": 6441,
      "ued": 6442,
      "x.to": 6443,
      "ᵒᵈ": 6444,
      "‹_›": 6445,
      "↑θ": 6446,
      "⟨n": 6447,
      "under": 6448,
      "lying": 6449,
      "s.direction": 6450,
      "lete": 6451,
      "((ι": 6452,
      "umer": 6453,
      "add_zero,": 6454,
      "ationary": 6455,
      "_iff_mul_": 6456,
      "OfNat": 6457,
      ".dvd": 6458,
      "Derivation": 6459,
      "ne_zero,": 6460,
      "minSqFac": 6461,
      "rowLen": 6462,
      "StarConvex": 6463,
      "left_inv": 6464,
      "μ.withDensity": 6465,
      "hvw": 6466,
      "modByMonic": 6467,
      ".ofHom": 6468,
      "(colimit": 6469,
      "H.Normal": 6470,
      "P.parts": 6471,
      "ConditionallyCompleteLattice": 6472,
      "vecCons": 6473,
      "measurableSet_": 6474,
      "FirstCountableTopology": 6475,
      "underlying": 6476,
      "(Polynomial.": 6477,
      "(Opens.": 6478,
      ".erase": 6479,
      "40": 6480,
      "Supp": 6481,
      "Y₂": 6482,
      "dom": 6483,
      "hL": 6484,
      "h𝒜": 6485,
      "lm": 6486,
      "pmap": 6487,
      "put": 6488,
      "t2": 6489,
      "α))": 6490,
      "σ.cycleType": 6491,
      "ised": 6492,
      "multiset": 6493,
      "RingEquiv": 6494,
      "eq_comm,": 6495,
      "↑(k": 6496,
      "hba": 6497,
      "iffFinset": 6498,
      "lt_top": 6499,
      "(↑p": 6500,
      "(-f)": 6501,
      "(-↑n)": 6502,
      "Multiset.map": 6503,
      "f.app": 6504,
      "Metric.": 6505,
      "UniformGroup": 6506,
      "RightHomology": 6507,
      "Quotient.inductionOn": 6508,
      "n).coeff": 6509,
      "rootSet": 6510,
      "c.ord": 6511,
      "1).choose": 6512,
      "Classical.choose": 6513,
      "{i}": 6514,
      "inferInstance": 6515,
      "(ω": 6516,
      "(unpair": 6517,
      "(Quotient.mk''": 6518,
      "Hin": 6519,
      "Sep": 6520,
      "Word": 6521,
      "Wbtw": 6522,
      "[bit": 6523,
      "_val,": 6524,
      "bd": 6525,
      "n.sqrt": 6526,
      "χ₄": 6527,
      "⟨h": 6528,
      "⟨1,": 6529,
      "unop.": 6530,
      "toProd": 6531,
      "sets": 6532,
      ".{v,": 6533,
      "Profinite": 6534,
      "_eq_abs,": 6535,
      "memℒ": 6536,
      "FintypeCat": 6537,
      "range_eq_": 6538,
      "Liou": 6539,
      "(↑a).": 6540,
      "(show": 6541,
      "Set.image_": 6542,
      ".drop": 6543,
      "hy]": 6544,
      "zero_le_one": 6545,
      "orphic": 6546,
      "Prod.fst": 6547,
      "s).get": 6548,
      "Ioc,": 6549,
      "continuousOn": 6550,
      "_eq_of_le": 6551,
      "W.a₄": 6552,
      "Traversable": 6553,
      "Series_": 6554,
      "N.Normal": 6555,
      "disj": 6556,
      "MulZeroOneClass": 6557,
      "Coe.coe": 6558,
      "(subset_": 6559,
      "Y),": 6560,
      "[Real.": 6561,
      "[norm_": 6562,
      "^[n": 6563,
      "_op": 6564,
      "a₃": 6565,
      "b.digits": 6566,
      ").elim": 6567,
      "mul'": 6568,
      "hable": 6569,
      "mem_iff_": 6570,
      "hp_prime": 6571,
      "HasCokernel": 6572,
      "(↑f)": 6573,
      ".diam": 6574,
      "(mat": 6575,
      "transpose_": 6576,
      "f₂)": 6577,
      ".factorial": 6578,
      "ieves": 6579,
      "div_eq_mul_inv,": 6580,
      "pos.mpr": 6581,
      "enumFrom": 6582,
      "maximalIdeal": 6583,
      "Classes": 6584,
      "HomologyMap'": 6585,
      "copy": 6586,
      "oldMapIdx": 6587,
      "Raised": 6588,
      "Liouville": 6589,
      "(limit": 6590,
      "EPair": 6591,
      "FEPair": 6592,
      "H0": 6593,
      "J₁": 6594,
      "Tran": 6595,
      "Y.": 6596,
      "[add": 6597,
      "einfsep": 6598,
      "f''": 6599,
      "mble": 6600,
      "y⟧": 6601,
      "ε)": 6602,
      "ℕ},": 6603,
      "ork": 6604,
      "emeasurable": 6605,
      "mul_one": 6606,
      "Count": 6607,
      "x)⁻¹": 6608,
      "neg_neg]": 6609,
      "((exp": 6610,
      "_of_Z": 6611,
      "_of_ne": 6612,
      "a)]": 6613,
      "hnk": 6614,
      "h.mk": 6615,
      "(-(π": 6616,
      ".insert": 6617,
      "pow_one]": 6618,
      "pred_": 6619,
      "elfAdjoint": 6620,
      "b₁)": 6621,
      "h.e'_1": 6622,
      "_le_card": 6623,
      "inf_eq_": 6624,
      "Monad": 6625,
      "biInter": 6626,
      "X_sub_": 6627,
      "TensorProduct": 6628,
      "Plan": 6629,
      "exists_prop]": 6630,
      "HasFDerivAt": 6631,
      "OfUnity": 6632,
      "umerable": 6633,
      "ED": 6634,
      "c))": 6635,
      "f.map_": 6636,
      "f^[": 6637,
      "uF": 6638,
      "uish": 6639,
      "δ✝": 6640,
      "√(2": 6641,
      "ath": 6642,
      "inguish": 6643,
      ").f": 6644,
      "IsConnected": 6645,
      ".shift": 6646,
      "Point_": 6647,
      "image_eq_": 6648,
      "sum]": 6649,
      "normalize": 6650,
      "ess": 6651,
      "congr'": 6652,
      "OrderedCommGroup": 6653,
      "R✝[X]": 6654,
      "hq]": 6655,
      "ring_n": 6656,
      "(mk'": 6657,
      ".lcm": 6658,
      "ickson": 6659,
      "(ren": 6660,
      "Denumerable": 6661,
      "Termin": 6662,
      ".sqrt_": 6663,
      "mp.intro": 6664,
      "w.IsReal": 6665,
      "G.Coloring": 6666,
      ".down": 6667,
      "inguished": 6668,
      "(inclusion": 6669,
      ".conj": 6670,
      "Glue": 6671,
      "W✝": 6672,
      "[(": 6673,
      "a.natAbs": 6674,
      "r⁻¹": 6675,
      "{z": 6676,
      "‖z": 6677,
      "₂]": 6678,
      "↑G": 6679,
      "↑u.": 6680,
      "ulus": 6681,
      "loop": 6682,
      "Equalizer": 6683,
      "_nsmul,": 6684,
      "⁻¹ᵁ": 6685,
      "div_iff": 6686,
      "_iff_le_": 6687,
      "(-b": 6688,
      "utable": 6689,
      "pow_zero]": 6690,
      ".IsLocalization": 6691,
      "Divisor": 6692,
      "[])": 6693,
      "[].length": 6694,
      "L.BoundedFormula": 6695,
      "W.Nonsingular": 6696,
      "huv": 6697,
      ".coe_to": 6698,
      "ellin": 6699,
      "entries": 6700,
      "o).oangle": 6701,
      "((↑)": 6702,
      "MvPowerSeries": 6703,
      "(typein": 6704,
      ".up": 6705,
      "Herm": 6706,
      "T0Space": 6707,
      "bn": 6708,
      "fs": 6709,
      "y),": 6710,
      "{c": 6711,
      "∂ν": 6712,
      "𝒰.map": 6713,
      "alc": 6714,
      "itian": 6715,
      "idence": 6716,
      "Proj": 6717,
      "_nth": 6718,
      "(a_1": 6719,
      "ht]": 6720,
      "↑(range": 6721,
      "Fun,": 6722,
      "pow_succ]": 6723,
      "(measurable": 6724,
      "zero_add,": 6725,
      "map_zero": 6726,
      "hr]": 6727,
      "s')": 6728,
      "singleton,": 6729,
      "hk⟩": 6730,
      "List.oldMapIdx": 6731,
      "content": 6732,
      "t).Nonempty": 6733,
      "Trivial": 6734,
      "NFA": 6735,
      "central": 6736,
      "lt_or_eq_of_le": 6737,
      "le_add_right": 6738,
      "geometric": 6739,
      "gaussianPDF": 6740,
      "mem_support_iff,": 6741,
      "presheaf.map": 6742,
      "eq_self_iff_true,": 6743,
      "expMapCircle": 6744,
      "Hermitian": 6745,
      "(one_": 6746,
      "(iterate": 6747,
      "(Ideal.Quotient.mk": 6748,
      "39": 6749,
      "Y''": 6750,
      "b_lt_one": 6751,
      "mΩ": 6752,
      "meval": 6753,
      "uK": 6754,
      "vsub": 6755,
      "yOn": 6756,
      "‖)": 6757,
      "→g": 6758,
      "→ₙ": 6759,
      "IsRat": 6760,
      "IsPiSystem": 6761,
      "concat": 6762,
      "_eq_empty": 6763,
      "valuation": 6764,
      "_of_subset": 6765,
      "s_mble": 6766,
      "iff.1": 6767,
      "(b'": 6768,
      ".nth": 6769,
      "take_": 6770,
      "f.coeff": 6771,
      "raph.": 6772,
      "dist,": 6773,
      "Standard": 6774,
      "nonzero": 6775,
      "Prod.swap": 6776,
      "neg_one_": 6777,
      "Adic": 6778,
      "Cardinal.{v}": 6779,
      "hasF": 6780,
      "basis_": 6781,
      "annihilator": 6782,
      "smul_eq_mul]": 6783,
      "ighbor": 6784,
      "permutations": 6785,
      "≃ₗ[R]": 6786,
      "CrossingTime": 6787,
      "Keys": 6788,
      "StandardBorelSpace": 6789,
      "Calc": 6790,
      "LB": 6791,
      "PE": 6792,
      "_h": 6793,
      "_succ]": 6794,
      "zsmul_": 6795,
      "⟨by": 6796,
      "stdBasis": 6797,
      "eta,": 6798,
      "armonic": 6799,
      "ray": 6800,
      "IsSMulRegular": 6801,
      "Subfamily": 6802,
      "le_rfl": 6803,
      "Computable": 6804,
      "((2": 6805,
      "((mk": 6806,
      "(b,": 6807,
      ".biUnion": 6808,
      "hc]": 6809,
      "natTrail": 6810,
      "h₂,": 6811,
      ".symm]": 6812,
      "subset,": 6813,
      "SMulWithZero": 6814,
      "nonneg_": 6815,
      "quasi": 6816,
      "head_": 6817,
      "cycleRange": 6818,
      "Ioi_inter_": 6819,
      "conjTrans": 6820,
      "mem_span": 6821,
      "TopCat).map": 6822,
      "DifferentiableWithinAt": 6823,
      "zero_lt_two": 6824,
      "minimals": 6825,
      "(Option.map": 6826,
      "HasImages": 6827,
      "Antiperiodic": 6828,
      "sub_iff_add_": 6829,
      "PadicSeq": 6830,
      "(rename": 6831,
      "Calculus": 6832,
      "(closedBall": 6833,
      "(constantCoeff": 6834,
      "-(π": 6835,
      ".v": 6836,
      "42": 6837,
      "Aᵀ": 6838,
      "C.": 6839,
      "K.d": 6840,
      "Q.": 6841,
      "[re": 6842,
      "[succ": 6843,
      "[k]": 6844,
      "b.to": 6845,
      "dec": 6846,
      "dotProduct": 6847,
      "trop": 6848,
      "xive": 6849,
      "x).toReal": 6850,
      "¬r": 6851,
      "β))": 6852,
      "↑μ": 6853,
      "↑‖f": 6854,
      "∏'": 6855,
      "◃⁻¹": 6856,
      "⟨x": 6857,
      "inl.": 6858,
      "IsUpperSet": 6859,
      "(a₁,": 6860,
      "Nat.succ_": 6861,
      "ZeroDivisors": 6862,
      "p.num": 6863,
      "Fintype.of": 6864,
      ".top": 6865,
      "↑n.succ": 6866,
      "Iso.inv": 6867,
      "norm,": 6868,
      "pi]": 6869,
      "Basis.": 6870,
      "s).card": 6871,
      "(Finsupp": 6872,
      "→ₗ[𝕜]": 6873,
      "iableChange": 6874,
      "Path.": 6875,
      "q.Monic": 6876,
      "E'''": 6877,
      "le_add_left": 6878,
      "ingularPart": 6879,
      "(antidiagonal": 6880,
      "B₂": 6881,
      "Bum": 6882,
      "DFinsupp": 6883,
      "EReal.": 6884,
      "X.basicOpen": 6885,
      "_comm]": 6886,
      "cr": 6887,
      "h).symm": 6888,
      "k₀": 6889,
      "m))": 6890,
      "pk": 6891,
      "sl": 6892,
      "{m": 6893,
      "σ'": 6894,
      "↑‖": 6895,
      "≃ₐ": 6896,
      "u_16": 6897,
      "atter": 6898,
      "Induction": 6899,
      "ha.": 6900,
      "Prod_": 6901,
      "think": 6902,
      ".seq": 6903,
      "Unbounded": 6904,
      "mem'": 6905,
      "invOf_": 6906,
      "HasProduct": 6907,
      "iff.2": 6908,
      "(bind": 6909,
      "rightAngleRotation": 6910,
      "(-y)": 6911,
      "pow_le_": 6912,
      "hdvd": 6913,
      "distinguished": 6914,
      ".blsub": 6915,
      "a.obj": 6916,
      "zero_le_": 6917,
      "hm,": 6918,
      "singleton]": 6919,
      "p₂)": 6920,
      "MulActionWithZero": 6921,
      "(zip": 6922,
      "t.Nonempty": 6923,
      "x₂)": 6924,
      "FractPair": 6925,
      "Part_": 6926,
      "descPochhammer": 6927,
      "append]": 6928,
      "![0,": 6929,
      "Homotopic": 6930,
      "principal,": 6931,
      "oneda.obj": 6932,
      "ContDiffAt": 6933,
      "eq_zero_of_": 6934,
      "nonempty_iff_ne_": 6935,
      "(Sum.inl": 6936,
      "Rotate": 6937,
      "isClosed_": 6938,
      "convergent": 6939,
      "Tail": 6940,
      "pologicalClosure": 6941,
      "multiples": 6942,
      "quadraticChar": 6943,
      "SetLike.mem_coe,": 6944,
      "(‖": 6945,
      "(erase": 6946,
      "(cond": 6947,
      ".Finite": 6948,
      "Cart": 6949,
      "P.Is": 6950,
      "[dist_": 6951,
      "[lt_iff_": 6952,
      "diam": 6953,
      "ix": 6954,
      "tᶜ": 6955,
      "well": 6956,
      "xy": 6957,
      "|f": 6958,
      "α).symm": 6959,
      "μ.restrict": 6960,
      "orem": 6961,
      "or_iff_not_": 6962,
      "Fin.val": 6963,
      "IsAbsoluteValue": 6964,
      "Inseparable": 6965,
      "haar": 6966,
      "mul_of_": 6967,
      "_eq_one": 6968,
      "CategoryTheory": 6969,
      "x✝³": 6970,
      "Category.{w,": 6971,
      "card,": 6972,
      "↑(Nat.": 6973,
      "(-π": 6974,
      ".incl": 6975,
      "iff_of_": 6976,
      "Metric.ball": 6977,
      "0)]": 6978,
      "Sups": 6979,
      "IsSheaf": 6980,
      "Icc]": 6981,
      "exists_and_": 6982,
      "heafify": 6983,
      "[mul_assoc,": 6984,
      "b).card": 6985,
      ".denom": 6986,
      "Gammaℝ": 6987,
      "fromBlocks": 6988,
      "le_iff_le_": 6989,
      "convexHull": 6990,
      "Resolution": 6991,
      "HasBinaryProduct": 6992,
      "CliqueFree": 6993,
      "property✝⟩": 6994,
      "FiberFunctor": 6995,
      ".cons": 6996,
      "12": 6997,
      "CL": 6998,
      "Height": 6999,
      "L).": 7000,
      "[List": 7001,
      "_map]": 7002,
      "_union_": 7003,
      "fac": 7004,
      "hY": 7005,
      "ient_": 7006,
      "pa": 7007,
      "tone_": 7008,
      "⁅x,": 7009,
      "↑F": 7010,
      "↑e": 7011,
      "↑|": 7012,
      "ariant": 7013,
      "edCategory": 7014,
      "ide": 7015,
      "super": 7016,
      "fun_": 7017,
      "mulLeft": 7018,
      "mul_neg,": 7019,
      "section": 7020,
      "of'": 7021,
      "(↑k": 7022,
      "IntFractPair": 7023,
      "y)⁻¹": 7024,
      "Body": 7025,
      ".inc": 7026,
      "Iso]": 7027,
      ").source": 7028,
      "DivInv": 7029,
      "Quotient.": 7030,
      "QuotientAddGroup": 7031,
      "x‖₊": 7032,
      "cept": 7033,
      "_le_one": 7034,
      "Positive": 7035,
      "BoundedSMul": 7036,
      "exists]": 7037,
      "Represent": 7038,
      "index,": 7039,
      ".rnDeriv": 7040,
      "v.head": 7041,
      "[eq_comm,": 7042,
      "Fib": 7043,
      "denom✝": 7044,
      "IsLindelof": 7045,
      "Int.natAbs_": 7046,
      "AntitoneOn": 7047,
      "transpose,": 7048,
      "IsSeparable": 7049,
      "ofColex": 7050,
      "ationaryPoint": 7051,
      "(card": 7052,
      "CG": 7053,
      "DFunLike": 7054,
      "J.s": 7055,
      "K).": 7056,
      "PUnit": 7057,
      "X₃": 7058,
      "lie": 7059,
      "mirr": 7060,
      "ning": 7061,
      "n_1": 7062,
      "n.bodd": 7063,
      "r.size": 7064,
      "sInf_": 7065,
      "uC": 7066,
      "{t": 7067,
      "¬b": 7068,
      "mul_apply,": 7069,
      "x.Infinite": 7070,
      ".dbl": 7071,
      "exp,": 7072,
      "OrderedCommMonoid": 7073,
      "[Rat": 7074,
      "SubmonoidClass": 7075,
      "Sum.inl": 7076,
      "and_congr_": 7077,
      "hIJ": 7078,
      "contDiff": 7079,
      "igits_": 7080,
      "ofNat]": 7081,
      "↑q.num": 7082,
      "(forget₂": 7083,
      "K.HasHomology": 7084,
      "_subset_iff]": 7085,
      "[G]": 7086,
      "or_iff_not_imp": 7087,
      "DivInvMonoid": 7088,
      "(Finset.": 7089,
      "-f": 7090,
      "31": 7091,
      "==": 7092,
      "K₁": 7093,
      "M.to": 7094,
      "_x": 7095,
      "hψ": 7096,
      "o.card": 7097,
      "vadd_": 7098,
      "w₃": 7099,
      "y₃": 7100,
      "¬z": 7101,
      "↑R": 7102,
      "IsAn": 7103,
      "mulVec": 7104,
      "cot": 7105,
      "(find": 7106,
      "add'": 7107,
      "s.pi": 7108,
      "hfi": 7109,
      "hts": 7110,
      "(x.": 7111,
      "(x_1": 7112,
      "↑(Fintype.card": 7113,
      "iff.mp": 7114,
      "(snd": 7115,
      "_iff_exists_": 7116,
      "x.coeff": 7117,
      "Set.Ioc": 7118,
      "Set.InjOn": 7119,
      "pow_pos": 7120,
      "ContinuousLinearMap": 7121,
      "subset_iff,": 7122,
      "auren": 7123,
      "(cs.": 7124,
      "LeftFraction": 7125,
      "S.X₂": 7126,
      "tible": 7127,
      "berSubfamily": 7128,
      "antorSet": 7129,
      "m.mod": 7130,
      "terminal": 7131,
      "Hahn": 7132,
      "q.leadingCoeff": 7133,
      "f.support.card": 7134,
      "(K.X": 7135,
      "centroid": 7136,
      "taylor": 7137,
      "Bump": 7138,
      ".dual": 7139,
      "Cec": 7140,
      "C.d": 7141,
      "[𝓝": 7142,
      "_zero_": 7143,
      "a⟩": 7144,
      "a.re": 7145,
      "b.factors": 7146,
      "p3": 7147,
      "{g": 7148,
      "θ)": 7149,
      "⟨d,": 7150,
      "ators": 7151,
      "edBy": 7152,
      "issa": 7153,
      "Coset": 7154,
      "HasCoproduct": 7155,
      "((s": 7156,
      "OfAbs": 7157,
      ".rev": 7158,
      "essSup": 7159,
      "a.Coprime": 7160,
      "not_le": 7161,
      "SMulZeroClass": 7162,
      "n.descFactorial": 7163,
      "h_top": 7164,
      "{x})": 7165,
      "Functor.": 7166,
      "g')": 7167,
      "continuousOn_": 7168,
      "right_of_": 7169,
      "IsOpenMap": 7170,
      "ker,": 7171,
      "List.mem_": 7172,
      "bool": 7173,
      "LocalizationMap": 7174,
      "scale": 7175,
      "norm_num)": 7176,
      "two_mul]": 7177,
      "_compl]": 7178,
      "⋯).op": 7179,
      "Weights": 7180,
      "w.IsComplex": 7181,
      "‖a‖": 7182,
      "Segment": 7183,
      "MeasurableMul₂": 7184,
      "dimH": 7185,
      "destutter'": 7186,
      "ighborFinset": 7187,
      "(Finsupp.single": 7188,
      "Cech": 7189,
      "issaOfAbs": 7190,
      "issaOfAbsCon": 7191,
      "(trunc": 7192,
      "(head✝": 7193,
      "2),": 7194,
      "?m.": 7195,
      "A),": 7196,
      "CantorSet": 7197,
      "F,": 7198,
      "Section": 7199,
      "[inv": 7200,
      "[get": 7201,
      "[hx,": 7202,
      "f).to": 7203,
      "hre": 7204,
      "k[G]": 7205,
      "z))": 7206,
      "z.arg": 7207,
      "{X": 7208,
      "{a,": 7209,
      "τ₁": 7210,
      "ψ)": 7211,
      "ℕ]": 7212,
      "revert": 7213,
      "Orient": 7214,
      "↑(map": 7215,
      "HasEqualizer": 7216,
      "(iSup": 7217,
      "hnire": 7218,
      "coe_inj,": 7219,
      "n✝¹": 7220,
      ".dom": 7221,
      "f.Disjoint": 7222,
      "Iso.refl": 7223,
      "preCantorSet": 7224,
      ":::": 7225,
      ").sup": 7226,
      "hg)": 7227,
      "IsSelfAdjoint": 7228,
      "F.Preserves": 7229,
      "[sq": 7230,
      "and_congr": 7231,
      "head!": 7232,
      "x✝¹)": 7233,
      "Module.Orient": 7234,
      "sub_eq_zero]": 7235,
      "(Gamma": 7236,
      "refl,": 7237,
      "I.radical": 7238,
      "(replicate": 7239,
      "WithBot.coe_": 7240,
      "annDensity": 7241,
      "hQz": 7242,
      "hausdorffDist": 7243,
      "μ.IsMul": 7244,
      "Holder": 7245,
      "NullMeasurableSet": 7246,
      "lmannDensity": 7247,
      "((expand": 7248,
      "hnirelmannDensity": 7249,
      "Module.Oriented": 7250,
      "(dvd_": 7251,
      ".trans_le": 7252,
      "E).": 7253,
      "Principal": 7254,
      "b|": 7255,
      "ds": 7256,
      "rite": 7257,
      "tsub": 7258,
      "ytic": 7259,
      "κ)": 7260,
      "₁.": 7261,
      "↥M": 7262,
      "√2": 7263,
      "≃*": 7264,
      "or_iff_": 7265,
      "alytic": 7266,
      "inst✝¹⁷": 7267,
      "AddCancelCommMonoid": 7268,
      "istic": 7269,
      "zero_apply,": 7270,
      "Mod_": 7271,
      "hxs": 7272,
      "memPartition": 7273,
      "Lists'": 7274,
      "succAbove": 7275,
      ".toEReal": 7276,
      "(sq": 7277,
      ".bot_": 7278,
      "hg,": 7279,
      "not_and_": 7280,
      "n.minSqFac": 7281,
      "(hs.": 7282,
      "L.Theory": 7283,
      "insertNth": 7284,
      "Sum.inr": 7285,
      "Subtype.coe_": 7286,
      "inf,": 7287,
      "(drop": 7288,
      "PosSMul": 7289,
      "_eq_zero_iff": 7290,
      "ropical": 7291,
      "reduc": 7292,
      "(s.erase": 7293,
      "SemilinearMap": 7294,
      "reverse,": 7295,
      "comp_id]": 7296,
      "airwise_": 7297,
      "updateColumn": 7298,
      "iInf]": 7299,
      "StrictMonoOn": 7300,
      "(μ.prod": 7301,
      "(μ.withDensity": 7302,
      "Reflexive": 7303,
      "Triangles": 7304,
      "QuasiSeparated": 7305,
      "?m.2": 7306,
      "_card,": 7307,
      "Scalars": 7308,
      "ClusterPt": 7309,
      "Cub": 7310,
      "[card_": 7311,
      "_pow": 7312,
      "beq": 7313,
      "c).": 7314,
      "h),": 7315,
      "i1": 7316,
      "ule": 7317,
      "¬0": 7318,
      "omorphic": 7319,
      "IsLocally": 7320,
      "IsFundamental": 7321,
      "toQuot": 7322,
      "of_not_": 7323,
      "NatTrans": 7324,
      "MeasurableEmbedding": 7325,
      "hf⟩": 7326,
      "Cos": 7327,
      "x)]": 7328,
      "MeasureTheory.": 7329,
      "add_one_": 7330,
      "x.2))": 7331,
      "Filtered": 7332,
      "PrimeMultiset": 7333,
      "f.ker": 7334,
      "OpenCover": 7335,
      "ciSup": 7336,
      "Emb": 7337,
      "fst✝": 7338,
      "subset_def,": 7339,
      "MonCat": 7340,
      "Complex.ofReal_": 7341,
      "↑(norm": 7342,
      "InvertedBy": 7343,
      "W.a₆": 7344,
      "relindex": 7345,
      "IsPrincipal": 7346,
      "nhdsWithin_": 7347,
      "mul_le_mul_left": 7348,
      "bernoulliFun": 7349,
      "Binom": 7350,
      "memℒp_": 7351,
      "(zipWith": 7352,
      "Cubic": 7353,
      "$$>": 7354,
      "(in": 7355,
      "(M.": 7356,
      "(RingHom.id": 7357,
      "<$$>": 7358,
      "H⟩": 7359,
      "P✝": 7360,
      "Seq_": 7361,
      "Smooth": 7362,
      "V1": 7363,
      "[Function.": 7364,
      "[continuous": 7365,
      "[abs_": 7366,
      "_a": 7367,
      "a.factorization": 7368,
      "cissaOfAbsCon": 7369,
      "dlookup": 7370,
      "hort": 7371,
      "so": 7372,
      "sUnion": 7373,
      "way": 7374,
      "αᵒᵈ": 7375,
      "inst₁": 7376,
      "eromorphic": 7377,
      "imum": 7378,
      "IsPrimePow": 7379,
      "anti": 7380,
      "cover": 7381,
      "hab,": 7382,
      "add_of_": 7383,
      ".sigma": 7384,
      "p.reverse": 7385,
      "Measure.restrict_": 7386,
      "pos]": 7387,
      "pos_of_ne_zero": 7388,
      ".fz": 7389,
      ".induce": 7390,
      "ContinuousAdd": 7391,
      ").sin": 7392,
      "_pos]": 7393,
      "W.a₂": 7394,
      "i.hom": 7395,
      "abscissaOfAbsCon": 7396,
      "Rat.cast_": 7397,
      "and_imp,": 7398,
      "NonUnitalRing": 7399,
      "(dirac": 7400,
      "_eq_zero_of_": 7401,
      "h⟩)": 7402,
      "reverse]": 7403,
      "sub_eq_add_neg,": 7404,
      "volume_": 7405,
      "invertible": 7406,
      "charpoly": 7407,
      "iInter]": 7408,
      "RespectsIso": 7409,
      "HasColimitsOfShape": 7410,
      ".unit.app": 7411,
      "surjective_": 7412,
      "Subsemigroup": 7413,
      ">>>": 7414,
      "Fin2.fz": 7415,
      "HasKernels": 7416,
      "J.Cover": 7417,
      "<<<": 7418,
      "caleRoots": 7419,
      ".blocks": 7420,
      ".Hom": 7421,
      ".Rel": 7422,
      "71": 7423,
      "82": 7424,
      "E₃": 7425,
      "Fst": 7426,
      "G))": 7427,
      "P.to": 7428,
      "[one_mul]": 7429,
      "[max_": 7430,
      "a.factors": 7431,
      "cf.": 7432,
      "n.bit": 7433,
      "r]": 7434,
      "rary": 7435,
      "u₄": 7436,
      "ω))": 7437,
      "₂.": 7438,
      "↑𝒜": 7439,
      "⟨h,": 7440,
      "im]": 7441,
      "arbit": 7442,
      "eqv": 7443,
      "isation": 7444,
      "IsIdempotent": 7445,
      "toFractionRing": 7446,
      "(fold": 7447,
      "s.sum": 7448,
      "ite,": 7449,
      "((1": 7450,
      "add_one,": 7451,
      "(↑1": 7452,
      "coe_eq_": 7453,
      "pow_add,": 7454,
      "(p'": 7455,
      "Abs)": 7456,
      "not_le,": 7457,
      "Derived": 7458,
      "ne_zero]": 7459,
      "S.LocalizationMap": 7460,
      "neg_inj,": 7461,
      "angent": 7462,
      "(∀ᶠ": 7463,
      "hIX": 7464,
      "codisjoint_": 7465,
      ".ofAdd": 7466,
      "Data.": 7467,
      "(vec": 7468,
      "inaryRec": 7469,
      "Three": 7470,
      "(witt": 7471,
      "encodeCode": 7472,
      ".len": 7473,
      "EuclideanSpace": 7474,
      "ConjExponent": 7475,
      "GradedObject": 7476,
      "Class.": 7477,
      "Multiplicative.ofAdd": 7478,
      "ℤ√d": 7479,
      "List.foldr": 7480,
      "ernsteinPolynomial": 7481,
      "ring_nf": 7482,
      "SemilinearMapClass": 7483,
      "arbitrary": 7484,
      "(Mul": 7485,
      "(LinearMap": 7486,
      "(Embedding": 7487,
      "(∑'": 7488,
      ".mul_": 7489,
      ".pow_": 7490,
      ".iUnion": 7491,
      ".withDensity": 7492,
      "Enum": 7493,
      "FAE": 7494,
      "Rev": 7495,
      "TFAE": 7496,
      "[g": 7497,
      "[gcd_": 7498,
      "n}": 7499,
      "v))": 7500,
      "write": 7501,
      "ζ'": 7502,
      "ᶜᶜ": 7503,
      "ₘ[": 7504,
      "￢￢": 7505,
      "𝒟ᵒ": 7506,
      "und_": 7507,
      "idx": 7508,
      "toLex": 7509,
      "_eq_map,": 7510,
      "Finset.sup": 7511,
      "hx✝": 7512,
      "CostructuredArrow": 7513,
      "Category.{u_6": 7514,
      "Real.toEReal": 7515,
      "s_1": 7516,
      "(↑π": 7517,
      "x.im": 7518,
      ".inf": 7519,
      "norm]": 7520,
      "a.1": 7521,
      "hgf": 7522,
      "natAbs_": 7523,
      "n.testBit": 7524,
      "allyDis": 7525,
      "↑a).": 7526,
      "singleton_": 7527,
      "Iic,": 7528,
      "adjugate": 7529,
      "Ioo,": 7530,
      "div_eq_inv_": 7531,
      "self_of_": 7532,
      "inner_eq_zero": 7533,
      "Theorem": 7534,
      "baseChange": 7535,
      "rootsOfUnity": 7536,
      "Isometric": 7537,
      "Extend": 7538,
      ".smul_def,": 7539,
      "quotient_": 7540,
      "LastTheorem": 7541,
      "nhdsWithin": 7542,
      "jacobiTheta₂_": 7543,
      "hausdorffEdist": 7544,
      "Stonean": 7545,
      "torsionBy": 7546,
      "cott": 7547,
      "Category.{u_6,": 7548,
      "allyDisconnected": 7549,
      "(le_of_": 7550,
      "Frobenius": 7551,
      "Faithful": 7552,
      "Meromorphic": 7553,
      "R1Space": 7554,
      "S[X]": 7555,
      "[order": 7556,
      "[deriv": 7557,
      "[Equiv.": 7558,
      "[Filter.": 7559,
      "a''": 7560,
      "hι": 7561,
      "¬IsSquare": 7562,
      "φ,": 7563,
      "₂Sq": 7564,
      "ℂ),": 7565,
      "↑V": 7566,
      "⟨l,": 7567,
      "omorphisms": 7568,
      "accept": 7569,
      "IsVonNBounded": 7570,
      "zero_eq,": 7571,
      "Subfield": 7572,
      "Coalgebra": 7573,
      "ht)": 7574,
      "mmand": 7575,
      "p.map": 7576,
      ".toPresheafedSpace": 7577,
      "one_add_": 7578,
      "prod.fst": 7579,
      "Multiset.mem_": 7580,
      "EquivLike": 7581,
      "opped": 7582,
      "(mt": 7583,
      ").snd": 7584,
      "hm⟩": 7585,
      "rfl⟩⟩": 7586,
      "Prod.map": 7587,
      "W.preΨ": 7588,
      "P.a": 7589,
      "c.length": 7590,
      "o.Dom": 7591,
      "b).val": 7592,
      "sSup_": 7593,
      "Iio,": 7594,
      "mem_support": 7595,
      "Associative": 7596,
      "Integral_": 7597,
      "two_pi_pos": 7598,
      "restriction": 7599,
      "Least": 7600,
      "Opcycles": 7601,
      "_inv,": 7602,
      "cs.Is": 7603,
      "↥S),": 7604,
      "W'.dbl": 7605,
      "(𝓝[>]": 7606,
      "_prod,": 7607,
      "R[ℕ]": 7608,
      "SemiNormedGrp": 7609,
      "SimplexCategory.δ": 7610,
      "Trans.": 7611,
      "centralBinom": 7612,
      "(encode": 7613,
      ".m": 7614,
      ".image": 7615,
      "Dep": 7616,
      "F⟮": 7617,
      "Ver": 7618,
      "[inter_": 7619,
      "_or": 7620,
      "_open": 7621,
      "b_ne_one": 7622,
      "g).hom": 7623,
      "harmonic": 7624,
      "s1": 7625,
      "¬c": 7626,
      "μ.to": 7627,
      "πi": 7628,
      "⟦a✝": 7629,
      "itPlan": 7630,
      "icone": 7631,
      "simp⟩": 7632,
      "_eq_coe,": 7633,
      ".support_": 7634,
      "Cocycle": 7635,
      "value": 7636,
      "hsc": 7637,
      "HasLift": 7638,
      "_of_forall": 7639,
      "h.h.a": 7640,
      "lt_one": 7641,
      "right✝": 7642,
      "OfElement": 7643,
      ".def": 7644,
      ".IsCycle": 7645,
      "a.cast": 7646,
      "Function.swap": 7647,
      ".comp_apply,": 7648,
      "Ico]": 7649,
      "tient_": 7650,
      "f).obj": 7651,
      "[mul_comm": 7652,
      "(lineMap": 7653,
      "LieAlgebra.IsNilpotent": 7654,
      "_).2": 7655,
      "ne_zero.2": 7656,
      "Ici_inter_": 7657,
      "rpow_of_": 7658,
      ".toFinset.card": 7659,
      "(image2": 7660,
      "zipWith": 7661,
      ".induction_on'": 7662,
      "colimit.ι": 7663,
      "solve_": 7664,
      "Reachable": 7665,
      "_negSucc,": 7666,
      "idenceSet": 7667,
      "BodySum": 7668,
      "⟦a✝⟧": 7669,
      "(δ": 7670,
      "(hy": 7671,
      ".eval": 7672,
      "33": 7673,
      "And": 7674,
      "Bis": 7675,
      "C'": 7676,
      "T⁻¹": 7677,
      "aForm": 7678,
      "aemeasurable": 7679,
      "bc": 7680,
      "oadd": 7681,
      "xᶜ": 7682,
      "{α": 7683,
      "↑M": 7684,
      "↑a✝¹": 7685,
      "end_": 7686,
      "s.mulIndicator": 7687,
      "submodule": 7688,
      "pher": 7689,
      "oose": 7690,
      "comap]": 7691,
      "true)": 7692,
      "(⇑(frobenius": 7693,
      "_ne,": 7694,
      "NoMax": 7695,
      "areaForm": 7696,
      "sub_eq_iff_eq_": 7697,
      "pred'": 7698,
      "Nat.cast_one,": 7699,
      "_sq,": 7700,
      "exp_log": 7701,
      "Nat.add_sub_cancel": 7702,
      "[count_": 7703,
      "supported": 7704,
      "≤ᶠ[ae": 7705,
      "MulOpposite.op": 7706,
      ".relindex": 7707,
      "Terminates": 7708,
      "distinguishedTriangles": 7709,
      "CLM": 7710,
      "abscissaOfAbsConv": 7711,
      "NoMaxOrder": 7712,
      "-x)": 7713,
      "44": 7714,
      "55": 7715,
      "Hb": 7716,
      "[cast_": 7717,
      "[cond": 7718,
      "germ": 7719,
      "h_eq": 7720,
      "psub": 7721,
      "r}": 7722,
      "rt,": 7723,
      "ted": 7724,
      "ve_of_": 7725,
      "{v": 7726,
      "₂⟩": 7727,
      "⊥)": 7728,
      "ome_": 7729,
      "ator_": 7730,
      "CommSq": 7731,
      "ideal": 7732,
      "thicken": 7733,
      "Uniq": 7734,
      "Real.toNNReal": 7735,
      "Contract": 7736,
      "p.maxPowDiv": 7737,
      "hs).": 7738,
      "OnWith": 7739,
      "pos_iff_ne_": 7740,
      "WithLp": 7741,
      "WithLp.": 7742,
      "commute": 7743,
      "(↑r": 7744,
      "(↑u": 7745,
      "hom_inv_": 7746,
      "prod.snd": 7747,
      "Abs,": 7748,
      "sub_zero,": 7749,
      "a')": 7750,
      "CharP.": 7751,
      "noncomm": 7752,
      "div_le_": 7753,
      "Sequence": 7754,
      "[nhds_": 7755,
      "sq]": 7756,
      "right_iff]": 7757,
      "_eq_zero_iff,": 7758,
      "Above_of_": 7759,
      "inter_subset": 7760,
      "(β_": 7761,
      "↑↑Y": 7762,
      "uniformContinuous": 7763,
      "aleph'": 7764,
      "bind,": 7765,
      "Subtype.val)": 7766,
      "PairwiseDisjoint": 7767,
      "defaul": 7768,
      "A₁'": 7769,
      "AdjointUniq": 7770,
      "finset_": 7771,
      "homologyMap": 7772,
      "cfc": 7773,
      "EdgeSet": 7774,
      "cokernel.π": 7775,
      "stronglyMeasurable": 7776,
      "divisors,": 7777,
      "GlueData": 7778,
      "thickened": 7779,
      "(inv_": 7780,
      "(ContinuousOn": 7781,
      "(Equiv.refl": 7782,
      ".other": 7783,
      "1‖": 7784,
      ";T⁻¹": 7785,
      "Center": 7786,
      "Game": 7787,
      "T;T⁻¹": 7788,
      "_b": 7789,
      "_i": 7790,
      "fderiv": 7791,
      "simal": 7792,
      "ε0": 7793,
      "ᵒᶠ": 7794,
      "≃+*": 7795,
      "⟨rfl,": 7796,
      "red": 7797,
      ").sum": 7798,
      "elper": 7799,
      "Super": 7800,
      "s.piecewise": 7801,
      "↑(if": 7802,
      "Map,": 7803,
      "delete": 7804,
      "ame_": 7805,
      "monotone": 7806,
      "Real.arctan": 7807,
      "tich": 7808,
      "l.NeBot": 7809,
      "(mapRingHom": 7810,
      "comapDomain": 7811,
      "OrderedCommRing": 7812,
      "Prod.": 7813,
      "Ico_": 7814,
      "x).2": 7815,
      "(Cl": 7816,
      "Generate": 7817,
      "predAbove": 7818,
      "↑(filter": 7819,
      "p).coeff": 7820,
      "g.op": 7821,
      "^[0]": 7822,
      "q).degree": 7823,
      "cs.simple": 7824,
      "(imageSubobject": 7825,
      "CanonicallyOrderedAddCommMonoid": 7826,
      "R[T;T⁻¹": 7827,
      "→ₗ[K]": 7828,
      "cyclicPerm": 7829,
      "R[T;T⁻¹]": 7830,
      "(hb": 7831,
      "(G.": 7832,
      "(l.": 7833,
      "(Quotient.mk": 7834,
      "-(x": 7835,
      "EDist": 7836,
      "[-": 7837,
      "[hx]": 7838,
      "_empty": 7839,
      "g).support": 7840,
      "hκ": 7841,
      "li": 7842,
      "pBis": 7843,
      "s⁻¹": 7844,
      "uM": 7845,
      "xs.length": 7846,
      "‖Polynomial.eval": 7847,
      "ₗ[": 7848,
      "↑⌊": 7849,
      "↑↑x": 7850,
      "↑p.den": 7851,
      "atBot_": 7852,
      "ifi": 7853,
      "lyContinuous": 7854,
      "Add'": 7855,
      "cobounded": 7856,
      "MonoidAlgebra": 7857,
      "_eq_iUnion]": 7858,
      "app,": 7859,
      "Nat.card_": 7860,
      "Nat.lt_succ": 7861,
      "le_and": 7862,
      "le_coe,": 7863,
      "rfl;": 7864,
      "astGrow": 7865,
      "_sdiff_": 7866,
      "hb0": 7867,
      "hb₀": 7868,
      "hnot_": 7869,
      "iff.mpr": 7870,
      ".nodup": 7871,
      "2)⁻¹": 7872,
      "EquivOf": 7873,
      "s₁,": 7874,
      "perpBis": 7875,
      "induction_on": 7876,
      "ModEq": 7877,
      "rank_": 7878,
      "F.M": 7879,
      "filtered": 7880,
      "exists_congr": 7881,
      ".map_mul,": 7882,
      "star_": 7883,
      "erase,": 7884,
      "dvd]": 7885,
      "hasDerivAt_": 7886,
      "Transitive": 7887,
      "Iio]": 7888,
      "ite_eq_": 7889,
      "eightSpace": 7890,
      "crete.": 7891,
      "Pi.single": 7892,
      "le_antisymm_iff,": 7893,
      "A₂'": 7894,
      "Special": 7895,
      "Subtype.range_": 7896,
      "CanonicallyLinearOrderedAddCommMonoid": 7897,
      "sizeOf": 7898,
      "properDivisors": 7899,
      "HaarMeasure": 7900,
      "permutationsAux": 7901,
      "HahnSeries": 7902,
      "astGrowing": 7903,
      "(Complex.": 7904,
      "(𝒰.map": 7905,
      "A))": 7906,
      "D₂": 7907,
      "PSet": 7908,
      "Support_": 7909,
      "WType": 7910,
      "[tan": 7911,
      "g''": 7912,
      "ph.": 7913,
      "θ.sign": 7914,
      "⇑(f": 7915,
      "orph.": 7916,
      "iding": 7917,
      "IsSt": 7918,
      "IsPullback": 7919,
      "toMultiset": 7920,
      "mapIdx": 7921,
      "s.eq_empty_or_nonempty": 7922,
      "MeasurableSet.": 7923,
      "sub_self,": 7924,
      "hx).": 7925,
      "braiding": 7926,
      "Continu": 7927,
      "↑(Iic": 7928,
      "hp)": 7929,
      "(↑α": 7930,
      "(↑x)": 7931,
      "f.SameCycle": 7932,
      "Iso_hom": 7933,
      ".bsup": 7934,
      "hi]": 7935,
      "down": 7936,
      "↑a.natAbs": 7937,
      "_left₀": 7938,
      ")).prod": 7939,
      "(lp": 7940,
      "fiber": 7941,
      "cycleFactors": 7942,
      "FreeCommRing": 7943,
      "ares": 7944,
      "adj1": 7945,
      "(kernelSubobject": 7946,
      "lt_of_le_of_lt": 7947,
      "CliffordAlgebra": 7948,
      "OuterMeasureClass": 7949,
      "(singleObj": 7950,
      "p.IsConjExponent": 7951,
      "principal]": 7952,
      "Homeomorph.": 7953,
      "(ULift": 7954,
      "size✝": 7955,
      "IsSetSemiring": 7956,
      "Iso.inv_hom_id": 7957,
      "(ne_of_gt": 7958,
      "FermatLastTheorem": 7959,
      "(Opens.map": 7960,
      "(match": 7961,
      "Fintype.ofFinite": 7962,
      "aurent": 7963,
      "thickenedIndicator": 7964,
      "(as": 7965,
      "(rexp": 7966,
      "(ModuleCat": 7967,
      ".castSucc": 7968,
      ".center": 7969,
      "Away": 7970,
      "Bicone": 7971,
      "Helper": 7972,
      "Pa": 7973,
      "Yoneda": 7974,
      "[mk": 7975,
      "[integral": 7976,
      "[range_": 7977,
      "_set": 7978,
      "_inj": 7979,
      "_aux": 7980,
      "t₀": 7981,
      "t),": 7982,
      "uB": 7983,
      "wf": 7984,
      "zmultiples": 7985,
      "↑T": 7986,
      "↑j": 7987,
      "↑x,": 7988,
      "start": 7989,
      "res": 7990,
      ").cos": 7991,
      "emod": 7992,
      "anl": 7993,
      "top.": 7994,
      "coprod": 7995,
      "eq_univ": 7996,
      "AddCommGrp": 7997,
      "Summand": 7998,
      "s.centralizer": 7999,
      "mk0": 8000,
      "((α": 8001,
      "x.1,": 8002,
      "Set.Ioo": 8003,
      "f.val": 8004,
      "exponent_": 8005,
      ".2]": 8006,
      "(Nat.pair": 8007,
      "h_add": 8008,
      "LeftEmbedding": 8009,
      "inv_inv]": 8010,
      "S.LeftHomologyData": 8011,
      "min'": 8012,
      "h']": 8013,
      "ofReal,": 8014,
      "hz]": 8015,
      "(Fin.cast": 8016,
      "clique": 8017,
      "Cardinal.{max": 8018,
      "plicit": 8019,
      "x).1": 8020,
      "FreeMonoid": 8021,
      "Cochain.ofHom": 8022,
      "Analytic": 8023,
      "preimage_eq_": 8024,
      "(A.": 8025,
      "[lift_": 8026,
      "[pow_zero]": 8027,
      "[isOpen": 8028,
      "hC.d": 8029,
      "period": 8030,
      "(expand": 8031,
      "integrableOn_": 8032,
      "Ordering.eq": 8033,
      "(hasSum": 8034,
      "x.valuation": 8035,
      "attach": 8036,
      "isLittleO": 8037,
      "quot_mk": 8038,
      "isEmpty_": 8039,
      "firstDiff": 8040,
      "superset": 8041,
      "WithLp.equiv": 8042,
      "ified": 8043,
      "Pairing": 8044,
      "(¬": 8045,
      "(Disjoint": 8046,
      "99": 8047,
      "Tropical": 8048,
      "[sin": 8049,
      "[ZMod": 8050,
      "[edist": 8051,
      "[e]": 8052,
      "cg": 8053,
      "diff]": 8054,
      "e.source": 8055,
      "f).hom": 8056,
      "tsub_cancel": 8057,
      "word": 8058,
      "y_1": 8059,
      "|rexp": 8060,
      "η.app": 8061,
      "μ).": 8062,
      "↑C": 8063,
      "↑↑(": 8064,
      "⊗'": 8065,
      "⟨b": 8066,
      "𝕜,": 8067,
      "let_": 8068,
      "le_iff": 8069,
      "als": 8070,
      "edFraction": 8071,
      "IsComplement": 8072,
      "loor_": 8073,
      "map_eq_": 8074,
      "illing": 8075,
      "hf0": 8076,
      ".snoc": 8077,
      "Codisjoint": 8078,
      "Category.{u_1": 8079,
      ".toEmbedding": 8080,
      "(↑↑": 8081,
      "one_lt": 8082,
      "↑n✝": 8083,
      ".realize_": 8084,
      "Iso,": 8085,
      "Struct": 8086,
      "not_lt,": 8087,
      "h_le": 8088,
      "Seq.seq": 8089,
      "Primrec'": 8090,
      "left_iff_": 8091,
      "mod_eq_of_": 8092,
      "(Pi": 8093,
      "(finRotate": 8094,
      "Iic]": 8095,
      "schnirelmannDensity": 8096,
      "PathConnected": 8097,
      "bot_iff]": 8098,
      "[pow_succ": 8099,
      "AlgEquiv": 8100,
      "![1,": 8101,
      "Stream'.": 8102,
      "↥(Lp": 8103,
      "AlgHom.id": 8104,
      "PreservesLimit": 8105,
      "intCast]": 8106,
      "Accum": 8107,
      "→ₛₗ[": 8108,
      "Real.Angle.induction_on": 8109,
      "one_iff_integrable": 8110,
      "728": 8111,
      ".box": 8112,
      "EDS": 8113,
      "natTrailingDegree": 8114,
      "memℒp_one_iff_integrable": 8115,
      "perpBisector": 8116,
      "ContinuedFraction": 8117,
      "let_fun": 8118,
      "()": 8119,
      "(∫": 8120,
      "(edist": 8121,
      "(orderOf": 8122,
      "C₃": 8123,
      "V2": 8124,
      "[abs": 8125,
      "_def": 8126,
      "d₀": 8127,
      "l.formPerm": 8128,
      "ndist": 8129,
      "ology": 8130,
      "p),": 8131,
      "s2": 8132,
      "}))": 8133,
      "⇑(algebraMap": 8134,
      "⋂₀": 8135,
      "⟂ₘ": 8136,
      "inst₂": 8137,
      "al⟩": 8138,
      "athe": 8139,
      "arathe": 8140,
      "edSeries": 8141,
      "if_": 8142,
      "counit": 8143,
      "eq_empty": 8144,
      "NormedLinearOrderedField": 8145,
      "mul_le_": 8146,
      "s.Subsingleton": 8147,
      "hx2": 8148,
      ".shiftFunctor": 8149,
      "pow_iff_": 8150,
      "pow_ne_zero": 8151,
      "↑(b": 8152,
      "hs⟩": 8153,
      "HasBiproduct": 8154,
      "extChart": 8155,
      "negSucc": 8156,
      "((y": 8157,
      "versch": 8158,
      "coe_nn": 8159,
      ".refine_": 8160,
      ".dis": 8161,
      "ductor": 8162,
      "getD": 8163,
      "RelSeries": 8164,
      "maximum": 8165,
      "Localized": 8166,
      "not_lt]": 8167,
      "(Nat.succ": 8168,
      "odory": 8169,
      "S.RightHomologyData": 8170,
      "_le_neg": 8171,
      "[symm": 8172,
      "[sUnion": 8173,
      "[sign": 8174,
      "vari": 8175,
      "and_assoc]": 8176,
      "μ.HaveLebesgueDecomposition": 8177,
      "_nonneg]": 8178,
      "_ne_zero.mpr": 8179,
      "ieb": 8180,
      "Nat.cast_zero,": 8181,
      "Nat.cast_add,": 8182,
      "monomial]": 8183,
      "BooleanRing": 8184,
      "(cokernel": 8185,
      "DiscreteQuotient": 8186,
      "presheaf.": 8187,
      "IsCountablyGenerated": 8188,
      "Multiset.prod_": 8189,
      "Equivalence.": 8190,
      ".nonempty": 8191,
      "commute_": 8192,
      "ThruImage": 8193,
      "PerfectRing": 8194,
      "reflect": 8195,
      "VariationOn": 8196,
      "aratheodory": 8197,
      "verschieb": 8198,
      "(Ring": 8199,
      ".cond": 8200,
      ".extend": 8201,
      "01": 8202,
      "87": 8203,
      "P3": 8204,
      "ULift": 8205,
      "Y).inv": 8206,
      "_rnDeriv": 8207,
      "b.factorization": 8208,
      "lineMap": 8209,
      "mor": 8210,
      "o),": 8211,
      "p₂,": 8212,
      "sigma": 8213,
      "{e": 8214,
      "stol": 8215,
      "arge": 8216,
      "idem": 8217,
      "IsUniform": 8218,
      "exfal": 8219,
      "explicit": 8220,
      "hag": 8221,
      "ha✝": 8222,
      "_null": 8223,
      "OrderEmbedding": 8224,
      "Multic": 8225,
      "app'": 8226,
      "(non": 8227,
      "Hom.app": 8228,
      "Nat.div_": 8229,
      "Nat.rec": 8230,
      "le_refl]": 8231,
      "↑(MonoidHom.range": 8232,
      "p.content": 8233,
      "Compares": 8234,
      "inv_smul_": 8235,
      "hb'": 8236,
      "?_).": 8237,
      "mem_coe,": 8238,
      "f✝¹": 8239,
      "const_mul_": 8240,
      "sub_zero]": 8241,
      ".bernoulli": 8242,
      "Real.exp": 8243,
      "Rel'": 8244,
      "Functions": 8245,
      "Left'": 8246,
      "gcd_eq_": 8247,
      "OrderedCommSemiring": 8248,
      "primes": 8249,
      "RightInverse": 8250,
      "M.E)": 8251,
      "neg_inj]": 8252,
      ").symm)": 8253,
      "Sum.elim": 8254,
      "MvQPF": 8255,
      "left_of_": 8256,
      "ringHom": 8257,
      "sub_eq_zero,": 8258,
      "rpow_le_": 8259,
      "edgeFinset": 8260,
      "convexJoin": 8261,
      "Independent_": 8262,
      "toFinset]": 8263,
      "generateMeasurable": 8264,
      "single_": 8265,
      "Bilimit": 8266,
      "piecewise_": 8267,
      "Sheafify": 8268,
      "nextCoeff": 8269,
      "_nil,": 8270,
      "Int.natCast_dvd": 8271,
      "(convexHull": 8272,
      "IsGδ": 8273,
      "IsGLB": 8274,
      "fixedBy": 8275,
      "Many": 8276,
      "NormalizationMonoid": 8277,
      "stolz": 8278,
      "exfalso": 8279,
      "36": 8280,
      "D₁": 8281,
      "Fan": 8282,
      "Germ": 8283,
      "G.neighborSet": 8284,
      "K),": 8285,
      "PEmpty": 8286,
      "S''": 8287,
      "V),": 8288,
      "W.Is": 8289,
      "g]": 8290,
      "ged": 8291,
      "u''": 8292,
      "y⁻¹": 8293,
      "⇑e)": 8294,
      "⥤q": 8295,
      "le'": 8296,
      "orel": 8297,
      "acc": 8298,
      "emb": 8299,
      "e_a.": 8300,
      "ha).": 8301,
      "(f✝": 8302,
      "addX": 8303,
      "TopologicalRing": 8304,
      "Real.sqrt_": 8305,
      "_support_": 8306,
      "hp_fst": 8307,
      ".toSubmodule": 8308,
      "(↑x✝": 8309,
      "div_iff_mul_": 8310,
      ".node": 8311,
      "x.re": 8312,
      "(-s)": 8313,
      "f.NeBot": 8314,
      "preNorm": 8315,
      "getLast": 8316,
      "sub_add_cancel": 8317,
      "map_map]": 8318,
      "transl": 8319,
      ".card_": 8320,
      "not_le]": 8321,
      "not_exists,": 8322,
      "coeff,": 8323,
      "agged": 8324,
      "W.Equation": 8325,
      "CountableInterFilter": 8326,
      "t.encard": 8327,
      ".snd)": 8328,
      "PowAssoc": 8329,
      "lt_of_lt_of_le": 8330,
      "MonoidalFunctor": 8331,
      "eval₂Hom": 8332,
      "IsCompactlyGenerated": 8333,
      "zpow_natCast,": 8334,
      "PrimeSpectrum.": 8335,
      "↑(abs": 8336,
      "summable_": 8337,
      ".forall,": 8338,
      "trail": 8339,
      "(fromBlocks": 8340,
      "(factors": 8341,
      "Vert": 8342,
      "hom_inv_id": 8343,
      "(CliffordAlgebra": 8344,
      "cycleFactorsFinset": 8345,
      "isEmpty_or_nonempty": 8346,
      ".prod_": 8347,
      ".ord": 8348,
      "L✝": 8349,
      "Rₐ": 8350,
      "Size": 8351,
      "Tagged": 8352,
      "[t": 8353,
      "[eval": 8354,
      "[degree": 8355,
      "[restrict_": 8356,
      "_image_": 8357,
      "eo": 8358,
      "i0": 8359,
      "iZ": 8360,
      "m),": 8361,
      "s(x,": 8362,
      "Γ''": 8363,
      "‖A": 8364,
      "↑Y)": 8365,
      "≃ₜ": 8366,
      "⟦a": 8367,
      "injection": 8368,
      ").HasBasis": 8369,
      "isLimit": 8370,
      "GroupHom": 8371,
      "t_1": 8372,
      "_eq_smul_": 8373,
      "_eq_card_": 8374,
      "(ne_": 8375,
      "CompTriple": 8376,
      "compare": 8377,
      "neg_eq_zero,": 8378,
      ".toList.": 8379,
      "hbot": 8380,
      "lt_ir": 8381,
      "divNat": 8382,
      "coe_inv": 8383,
      "coe_lt_": 8384,
      "(-a": 8385,
      "Set.Ico": 8386,
      "s✝.Nonempty": 8387,
      "sub_le_": 8388,
      "G.CliqueFree": 8389,
      "Submodule.comap": 8390,
      "OnePoint": 8391,
      "(c.next": 8392,
      "x)))": 8393,
      "antor": 8394,
      "inf]": 8395,
      "(ofNat": 8396,
      "equivFun": 8397,
      "_root_.id": 8398,
      "(Spec": 8399,
      "ofNat'": 8400,
      "rotate_": 8401,
      "inner_neg": 8402,
      "Mem.other": 8403,
      "sub_eq_add_neg]": 8404,
      "trans_eq": 8405,
      "(cocompact": 8406,
      "div_eq_mul_inv]": 8407,
      ".neighborFinset": 8408,
      "Function.comp_apply]": 8409,
      "rename": 8410,
      "tsub_add_cancel": 8411,
      "Multiset.count": 8412,
      "o).α": 8413,
      "QuasiIso": 8414,
      "D.J": 8415,
      "paralle": 8416,
      "not_false_eq_": 8417,
      "Std.Associative": 8418,
      "LocalizedModule": 8419,
      "Γ''₀": 8420,
      "tsub_add_cancel_of_le": 8421,
      "#β": 8422,
      "(decode": 8423,
      "(Or.inl": 8424,
      ".2)": 8425,
      ".cos": 8426,
      "0‖": 8427,
      "2‖": 8428,
      "Aga": 8429,
      "CNF": 8430,
      "E₁": 8431,
      "Line": 8432,
      "fer": 8433,
      "frobenius": 8434,
      "gp": 8435,
      "g).inv": 8436,
      "p₄": 8437,
      "seq": 8438,
      "sdiff,": 8439,
      "uγ": 8440,
      "uₒ": 8441,
      "uₘ": 8442,
      "uₙ": 8443,
      "yoneda.obj": 8444,
      "¬c.Rel": 8445,
      "‖y": 8446,
      "↑↑p": 8447,
      "∈+": 8448,
      "instNN": 8449,
      "ity)": 8450,
      "emod_": 8451,
      "idef": 8452,
      "Set.singleton": 8453,
      "IsChain": 8454,
      "ency": 8455,
      "ToKernel": 8456,
      "Semidef": 8457,
      "mul_iff_": 8458,
      "_eq_neg,": 8459,
      "NatTrans.": 8460,
      "sub_neg_eq_": 8461,
      "(nth": 8462,
      ".smul": 8463,
      "TopologicalBasis": 8464,
      "Sort.coe": 8465,
      "ZeroMorphisms": 8466,
      "p.mk": 8467,
      "p.obj": 8468,
      "ofLE": 8469,
      ".toRingHom": 8470,
      "?_).symm": 8471,
      "(-a).": 8472,
      ".rec": 8473,
      "pow_mul,": 8474,
      "ContinuousMultilinearMap": 8475,
      "s₂,": 8476,
      "coeFn": 8477,
      "doset": 8478,
      "two_mul_": 8479,
      "[span": 8480,
      "Submonoid.": 8481,
      "dvd_of_": 8482,
      "right_inv": 8483,
      "?_⟩,": 8484,
      "unitary": 8485,
      "StrictDerivAt_": 8486,
      "PosSemidef": 8487,
      "_root_.Disjoint": 8488,
      "x₁)": 8489,
      "(M.map": 8490,
      "mod_add_": 8491,
      "lowerCentralSeries": 8492,
      "_nhdsWithin": 8493,
      "true_and": 8494,
      "tilted": 8495,
      "testAga": 8496,
      "F).B": 8497,
      "IsPushout": 8498,
      "subsingleton]": 8499,
      "Int.negOfNat": 8500,
      "_not_mem": 8501,
      "linear_": 8502,
      "φ.order": 8503,
      "differentiableAt_": 8504,
      "(abs_nonneg": 8505,
      "(abs_": 8506,
      "corec": 8507,
      "potency": 8508,
      "ProperSpace": 8509,
      "(ComplexShape.up": 8510,
      "LiouvilleWith": 8511,
      "cf.encodeCode": 8512,
      "testAgainstNN": 8513,
      ".imp": 8514,
      ".add_": 8515,
      ".subset": 8516,
      "HurwitzZeta": 8517,
      "Tay": 8518,
      "Wequiv": 8519,
      "Zeta,": 8520,
      "[F": 8521,
      "[Matrix.": 8522,
      "_ball": 8523,
      "a‖": 8524,
      "ele": 8525,
      "girth": 8526,
      "greatest": 8527,
      "iX": 8528,
      "i⟩": 8529,
      "k.succ": 8530,
      "l.size": 8531,
      "option": 8532,
      "pb": 8533,
      "vd_": 8534,
      "ΨSq": 8535,
      "ι]": 8536,
      "arr": 8537,
      "addOrder": 8538,
      "of_mem": 8539,
      "s.to": 8540,
      "(n'": 8541,
      "(a✝": 8542,
      "mming": 8543,
      "succ)": 8544,
      "↑(sign": 8545,
      ".toOrderHom": 8546,
      "fin_": 8547,
      "decompose": 8548,
      ".inclusion": 8549,
      ".replicate": 8550,
      ".dvd_": 8551,
      "α✝¹": 8552,
      "ack_succ_": 8553,
      "Num.Is": 8554,
      "NormNum.Is": 8555,
      "S.Countable": 8556,
      "agInter": 8557,
      "_le_iff": 8558,
      "hab]": 8559,
      "RingHomCompTriple": 8560,
      "(y,": 8561,
      "FreeAbelian": 8562,
      "subset_ground": 8563,
      "Irred": 8564,
      "[add_comm": 8565,
      "lift.{max": 8566,
      "_inv]": 8567,
      "Exists.": 8568,
      "affineCombination": 8569,
      "(μ.rnDeriv": 8570,
      "bind_": 8571,
      "_of_not_mem": 8572,
      "periodicPt": 8573,
      "HasLimitsOfShape": 8574,
      "HomologyMapData": 8575,
      "(neg_": 8576,
      "(F.μ": 8577,
      "completedHurwitzZeta": 8578,
      "MvPowerSeries.": 8579,
      "Std.Commutative": 8580,
      "BigOWith": 8581,
      "cyclesMap'": 8582,
      "allelPair": 8583,
      "Metric.closedBall": 8584,
      "AdicCompletion": 8585,
      "inl.intro": 8586,
      "slitPlan": 8587,
      "tichoose": 8588,
      "Vertex": 8589,
      "FreeAbelianGroup": 8590,
      "#↑": 8591,
      "(ht": 8592,
      "(∫⁻": 8593,
      "(restrict": 8594,
      "(continuous_": 8595,
      "(Polynomial.map": 8596,
      "BFamily": 8597,
      "C).": 8598,
      "Ess": 8599,
      "L1": 8600,
      "P''": 8601,
      "Sent": 8602,
      "V✝": 8603,
      "[δ": 8604,
      "[le_iff_": 8605,
      "[ha,": 8606,
      "_comm": 8607,
      "_lift": 8608,
      "wise": 8609,
      "¬y": 8610,
      "ΓSpec": 8611,
      "Δ''": 8612,
      "θ,": 8613,
      "π))": 8614,
      "πi₁": 8615,
      "πi₂": 8616,
      "‖g": 8617,
      "→ₘ[": 8618,
      "lection": 8619,
      "lepi": 8620,
      "ulated": 8621,
      ").ne": 8622,
      "ement": 8623,
      "ific": 8624,
      "s.offDiag": 8625,
      ".single_": 8626,
      "Hom.id": 8627,
      "valMinAbs": 8628,
      "hp₀": 8629,
      "Algebra.Is": 8630,
      "neg_le_neg": 8631,
      "((X": 8632,
      "withTop": 8633,
      "riang": 8634,
      "one_div": 8635,
      "one_div,": 8636,
      "univ.pi": 8637,
      "(-x))": 8638,
      ".init": 8639,
      ".reduce": 8640,
      "normalizedFactors": 8641,
      "h₁₂": 8642,
      "max'": 8643,
      "[sdiff_": 8644,
      "Inf,": 8645,
      "s).Nonempty": 8646,
      "variationOn": 8647,
      "image_univ]": 8648,
      "dvd_iff]": 8649,
      "β✝¹": 8650,
      "subtype_": 8651,
      "spanSingleton": 8652,
      "K)ˣ": 8653,
      "X.OpenCover": 8654,
      "kernel.ι": 8655,
      "axFunctor": 8656,
      "a_1,": 8657,
      "✝¹,": 8658,
      "abs_mul_": 8659,
      "Collinear": 8660,
      "FromTo": 8661,
      "Small.{": 8662,
      "↑((orthogonalProjection": 8663,
      "derivative)": 8664,
      "(WType": 8665,
      ".finrank": 8666,
      "_prod]": 8667,
      "Γ'₀": 8668,
      "{0}ᶜ": 8669,
      "IsCyclic": 8670,
      "(CostructuredArrow": 8671,
      "oangle_rev,": 8672,
      "k.Coprime": 8673,
      "midpoint": 8674,
      "HasBinaryBiproducts": 8675,
      "Hinh": 8676,
      "wellFounded": 8677,
      "mirror": 8678,
      "cs.IsReflection": 8679,
      "riangulated": 8680,
      "variationOnFromTo": 8681,
      "([]": 8682,
      "(Perm": 8683,
      ".Countable": 8684,
      "G.inc": 8685,
      "[SetLike": 8686,
      "_add]": 8687,
      "gp.": 8688,
      "ihn": 8689,
      "iIndep": 8690,
      "pairwise_": 8691,
      "rontier": 8692,
      "zeta": 8693,
      "zsmul,": 8694,
      "φ.f": 8695,
      "ℤˣ": 8696,
      "∂κ": 8697,
      "⊥.": 8698,
      "stopped": 8699,
      "le_iff,": 8700,
      "rem": 8701,
      "OrEmpty": 8702,
      "hay": 8703,
      "ha₁": 8704,
      "hamming": 8705,
      "cone.": 8706,
      "zero_of_": 8707,
      "NormedCommRing": 8708,
      "NormedLattice": 8709,
      "of_le_": 8710,
      "_eq_span": 8711,
      "hf✝": 8712,
      "Unop": 8713,
      "p.roots": 8714,
      "i)!": 8715,
      "HasDistrib": 8716,
      "((⇑": 8717,
      "FiniteType": 8718,
      "this)": 8719,
      "x.1)": 8720,
      "one_pow,": 8721,
      "Primes": 8722,
      "prodComm": 8723,
      ".realize": 8724,
      "ContinuousFunction": 8725,
      "hy₂": 8726,
      "transfer": 8727,
      "hc⟩": 8728,
      "UniformInducing": 8729,
      "lift'": 8730,
      "l.tail": 8731,
      "(Nat.cast": 8732,
      "LeftInvariant": 8733,
      "(X.map'": 8734,
      "inter_iff,": 8735,
      "neg_zero]": 8736,
      "p₁)": 8737,
      "hz⟩": 8738,
      "Factorisation": 8739,
      "_root": 8740,
      "u.q": 8741,
      "y✝¹": 8742,
      "‖x‖)": 8743,
      "ENNReal.ofReal_": 8744,
      "X.σ": 8745,
      "locally": 8746,
      "PullbackCone": 8747,
      "_add_one": 8748,
      "Integral,": 8749,
      "↑f.support": 8750,
      "I.lower": 8751,
      "bot_eq_": 8752,
      "GeneralizedCoheytingAlgebra": 8753,
      "Term.realize": 8754,
      "ishSpace": 8755,
      ".finite_": 8756,
      "nonempty_iff_eq_": 8757,
      "(D.ι": 8758,
      ">>=": 8759,
      "lt_or_le": 8760,
      ".fromSpec": 8761,
      "transpose]": 8762,
      "PartENat.casesOn": 8763,
      "ne_of_gt": 8764,
      "Eigenspace": 8765,
      "Pretriangulated": 8766,
      "(Finsupp.total": 8767,
      "(bind₁": 8768,
      "CategoryTheory.shiftFunctor": 8769,
      "↑↑Y.toPresheafedSpace": 8770,
      "deleteEdge": 8771,
      "permutationsAux2": 8772,
      "hC.diffFinset": 8773,
      "explicitCokernel": 8774,
      "generateMeasurableRec": 8775,
      "NormedLatticeAddCommGroup": 8776,
      "HasDistribNeg": 8777,
      "(θ": 8778,
      "(head": 8779,
      "(⟨a',": 8780,
      ".w": 8781,
      ".unop.": 8782,
      "90": 8783,
      "By,": 8784,
      "M]": 8785,
      "Mₗ": 8786,
      "P.map": 8787,
      "R]": 8788,
      "[map,": 8789,
      "_at": 8790,
      "birkhoff": 8791,
      "g.hom": 8792,
      "hχ": 8793,
      "i2": 8794,
      "ior": 8795,
      "i_ih": 8796,
      "mn": 8797,
      "mδ": 8798,
      "n0": 8799,
      "ov": 8800,
      "t}": 8801,
      "thag": 8802,
      "ythag": 8803,
      "↑Y": 8804,
      "orean": 8805,
      "ress": 8806,
      "isSome": 8807,
      "ge_iff_": 8808,
      "IsSucc": 8809,
      "IsTerminal": 8810,
      "cos,": 8811,
      "_eq_iff]": 8812,
      "MulLo": 8813,
      "sub_self]": 8814,
      "↑(Nat.card": 8815,
      "LinearEquiv.": 8816,
      "a✝³": 8817,
      "OnFun": 8818,
      "((of": 8819,
      ".toMonoidHom": 8820,
      "h.le": 8821,
      "izable": 8822,
      "ifferentiable": 8823,
      "lt_zero": 8824,
      "(↑(n": 8825,
      "old_": 8826,
      "Board": 8827,
      "s✝,": 8828,
      "kew": 8829,
      ".IsDiag": 8830,
      "Real.tan": 8831,
      "Relation": 8832,
      "map_map,": 8833,
      "hg⟩": 8834,
      "dow": 8835,
      "hr⟩": 8836,
      "n.Coprime": 8837,
      "indicator_": 8838,
      "_nat]": 8839,
      "M₁'": 8840,
      "↑s),": 8841,
      "ZModPow": 8842,
      "and_assoc,": 8843,
      "Valid": 8844,
      "NonUnitalSubalgebra": 8845,
      "fix": 8846,
      "KernelCDF": 8847,
      "StrongEpi": 8848,
      "MinFac": 8849,
      "inner_smul_": 8850,
      "{a}).": 8851,
      "CondKernelCDF": 8852,
      "PiLp": 8853,
      "Separating": 8854,
      "LocallyFiniteOrderBot": 8855,
      "hμs": 8856,
      "PowerBasis": 8857,
      "PowerSeries": 8858,
      "toFinset,": 8859,
      "csInf_": 8860,
      ".smul_apply,": 8861,
      "(e.oadd": 8862,
      "intCast,": 8863,
      "vecMul": 8864,
      "p.toReal)": 8865,
      "&&&": 8866,
      "EMetric.diam": 8867,
      "Cofan": 8868,
      "_single,": 8869,
      "ennreal": 8870,
      "J.sieves": 8871,
      "reduced": 8872,
      "(asIso": 8873,
      "W.IsInvertedBy": 8874,
      "parallelepi": 8875,
      "potencyClass": 8876,
      "ythagorean": 8877,
      "IsSuccArchimedean": 8878,
      "MinFacHelper": 8879,
      "(χ": 8880,
      "(congr_arg": 8881,
      "(Module.rank": 8882,
      "(Function.swap": 8883,
      "-1)": 8884,
      "75": 8885,
      "C}": 8886,
      "C(↑": 8887,
      "Direct": 8888,
      "E.": 8889,
      "T,": 8890,
      "T₁": 8891,
      "T₂": 8892,
      "W₁": 8893,
      "[two_mul,": 8894,
      "_mk,": 8895,
      "a.to": 8896,
      "f.degree": 8897,
      "floor_": 8898,
      "i.2": 8899,
      "l.toFinset": 8900,
      "m1": 8901,
      "tX": 8902,
      "tY": 8903,
      "tZ": 8904,
      "uα": 8905,
      "uβ": 8906,
      "xor": 8907,
      "zy": 8908,
      "|b|": 8909,
      "ℕ⦄,": 8910,
      "⋯.choose": 8911,
      "⦃b": 8912,
      "orward": 8913,
      "Set,": 8914,
      "isIso": 8915,
      "IsMaximal": 8916,
      "IsLocal": 8917,
      "IsGroupHom": 8918,
      "eq_one_": 8919,
      "eq_bot_": 8920,
      "setL": 8921,
      "mul_nonneg": 8922,
      "_eq_biUnion": 8923,
      "Category.comp": 8924,
      "Coprime_": 8925,
      "(affine": 8926,
      "ht₁": 8927,
      "Nat.zero": 8928,
      "compress": 8929,
      "PreGaloisCategory": 8930,
      "extFree": 8931,
      "Set.Sized": 8932,
      "norm_eq_": 8933,
      "monotone_": 8934,
      "Finset.image": 8935,
      "sinh_": 8936,
      "[sSup": 8937,
      "n).testBit": 8938,
      "W.polynomial": 8939,
      "r)⁻¹": 8940,
      "Ioc]": 8941,
      "StarMul": 8942,
      ")).inv": 8943,
      "_ne_zero.2": 8944,
      "mod,": 8945,
      "Present": 8946,
      "tendsto_comap": 8947,
      "ipschitz": 8948,
      "(p.comp": 8949,
      "oangle_eq_": 8950,
      "oangle_neg_": 8951,
      "withDensity_apply": 8952,
      "ContextFree": 8953,
      "Int.cast_natCast,": 8954,
      "z₁.comp": 8955,
      "Cardinal.mk": 8956,
      "openSegment": 8957,
      "setOf_eq]": 8958,
      "positivity)": 8959,
      "hurwitzZetaOdd": 8960,
      "LeftMoves),": 8961,
      ".nextCoeff": 8962,
      "Commute.": 8963,
      "gaussianReal": 8964,
      "(x✝,": 8965,
      "Complemented": 8966,
      "Tape": 8967,
      "distrib]": 8968,
      "quot_mk_to": 8969,
      "wordProd": 8970,
      "periodicPts": 8971,
      ".unop.len": 8972,
      "(hg": 8973,
      "(Symbol": 8974,
      ".G": 8975,
      ".pos": 8976,
      "A₀": 8977,
      "H.Is": 8978,
      "Q))": 8979,
      "S]": 8980,
      "W₂": 8981,
      "[left": 8982,
      "[tendsto_": 8983,
      "^^": 8984,
      "a.toReal": 8985,
      "f),": 8986,
      "heq": 8987,
      "h.map": 8988,
      "h1,": 8989,
      "hchar": 8990,
      "nodal": 8991,
      "o.IsLimit": 8992,
      "rTensor": 8993,
      "u1": 8994,
      "u2": 8995,
      "uV": 8996,
      "‖↑f": 8997,
      "₁]": 8998,
      "₂'": 8999,
      "↑denom✝": 9000,
      "⊗[R]": 9001,
      "⟨fst": 9002,
      "⟨v,": 9003,
      "alCalculus": 9004,
      "inst✝¹⁸": 9005,
      "CommSemigroup": 9006,
      "IsGalois": 9007,
      "eq_or_lt": 9008,
      ".singularPart": 9009,
      ".scaleRoots": 9010,
      "pow_of_": 9011,
      "None": 9012,
      "hp2": 9013,
      "_of_ne_": 9014,
      "add_apply,": 9015,
      ".fs": 9016,
      "castPred": 9017,
      "Filter.comap": 9018,
      "OfIso": 9019,
      "ContinuousStar": 9020,
      "AtPlace": 9021,
      "(1,": 9022,
      ".symm.": 9023,
      "(g'": 9024,
      "div_lt_": 9025,
      ".naturality": 9026,
      "1))⁻¹": 9027,
      "n).factorMultiset": 9028,
      "union]": 9029,
      "continuousWithinAt_": 9030,
      "dvd_iff_": 9031,
      "[mul_one]": 9032,
      "LocallyRingedSpace": 9033,
      "StrictConvex": 9034,
      "parts": 9035,
      "(toDual": 9036,
      "Aux,": 9037,
      "SqLe": 9038,
      "talDegree": 9039,
      "forall_mem_": 9040,
      "lowerBounds": 9041,
      "hU.fromSpec": 9042,
      "HomologicalComplex.": 9043,
      "powersetAux": 9044,
      "Triang": 9045,
      "GeneralizedContinuedFraction": 9046,
      "}.Pairwise": 9047,
      "isUnit_": 9048,
      "pi_div_two]": 9049,
      "isOpen_compl": 9050,
      "ConjClasses": 9051,
      "IsCofiltered": 9052,
      "ValuationSubring": 9053,
      "ircul": 9054,
      "Symmetry": 9055,
      "[m+1]": 9056,
      "EMetric.ball": 9057,
      "s.sym2": 9058,
      "eigenspace": 9059,
      "IsLeftRegular": 9060,
      "[continuous_iff_": 9061,
      "Category.{u_1,": 9062,
      "TaggedPrepartition": 9063,
      "ContinuousFunctionalCalculus": 9064,
      "hchar✝": 9065,
      "(_root_": 9066,
      "-2": 9067,
      "E,": 9068,
      "Mᵀ": 9069,
      "[if_neg": 9070,
      "ae_eq_": 9071,
      "b‖": 9072,
      "b.natAbs": 9073,
      "ce_": 9074,
      "cle_": 9075,
      "frequently": 9076,
      "hD": 9077,
      "hzero": 9078,
      "i₂)": 9079,
      "lued": 9080,
      "uG": 9081,
      "y.denom": 9082,
      "↥(lp": 9083,
      "inable": 9084,
      "Finmap": 9085,
      "IsField": 9086,
      "IsAlg": 9087,
      "IsMax": 9088,
      "totient_": 9089,
      "zero_apply]": 9090,
      "SemiringAction": 9091,
      "s.biUnion": 9092,
      "CategoryTheory.": 9093,
      "Nat.mul_": 9094,
      "↑(⨅": 9095,
      "Func.": 9096,
      "_sigma": 9097,
      "'',": 9098,
      "((single": 9099,
      "ℝ≥0)": 9100,
      "(spectrum": 9101,
      "x.gcd": 9102,
      "(-o).oangle": 9103,
      ".induced": 9104,
      "zero_add": 9105,
      "map_zero]": 9106,
      "UniformOnFun": 9107,
      "(g✝": 9108,
      "subset]": 9109,
      "subset_iff]": 9110,
      "n.negOnePow": 9111,
      ").toFinsupp": 9112,
      "Finset.sum": 9113,
      "S.rightHomology": 9114,
      "min_eq_": 9115,
      "Right,": 9116,
      "mpr.intro": 9117,
      "n).choose": 9118,
      "n).Additive": 9119,
      "b')": 9120,
      "AddMonoidAlgebra": 9121,
      "hv,": 9122,
      "le_of_ne": 9123,
      "Transvers": 9124,
      "Localization.mk": 9125,
      "Complex.abs": 9126,
      "X.presheaf.map": 9127,
      "p')": 9128,
      "(p.copy": 9129,
      "kernelSubobject": 9130,
      "UniqueDiff": 9131,
      "inner_self_": 9132,
      ".inver": 9133,
[...]
