{
  "version": "1.0",
  "truncation": null,
  "padding": null,
  "added_tokens": [
    {
      "id": 0,
      "content": "[UNK]",
      "single_word": false,
      "lstrip": false,
      "rstrip": false,
      "normalized": false,
      "special": true
    },
    {
      "id": 1,
      "content": "[PAD]",
      "single_word": false,
      "lstrip": false,
      "rstrip": false,
      "normalized": false,
      "special": true
    },
    {
      "id": 2,
      "content": "[EOS]",
      "single_word": false,
      "lstrip": false,
      "rstrip": false,
      "normalized": false,
      "special": true
    },
    {
      "id": 3,
      "content": "[PROOFSTATE]",
      "single_word": false,
      "lstrip": false,
      "rstrip": false,
      "normalized": false,
      "special": true
    },
    {
      "id": 4,
      "content": "[PROOFSTEP]",
      "single_word": false,
      "lstrip": false,
      "rstrip": false,
      "normalized": false,
      "special": true
    },
    {
      "id": 5,
      "content": "[TACTICS]",
      "single_word": false,
      "lstrip": false,
      "rstrip": false,
      "normalized": false,
      "special": true
    },
    {
      "id": 6,
      "content": "[SEP]",
      "single_word": false,
      "lstrip": false,
      "rstrip": false,
      "normalized": false,
      "special": true
    },
    {
      "id": 7,
      "content": "[STATESEP]",
      "single_word": false,
      "lstrip": false,
      "rstrip": false,
      "normalized": false,
      "special": true
    },
    {
      "id": 8,
      "content": "[SUC]",
      "single_word": false,
      "lstrip": false,
      "rstrip": false,
      "normalized": false,
      "special": true
    },
    {
      "id": 9,
      "content": "[INC]",
      "single_word": false,
      "lstrip": false,
      "rstrip": false,
      "normalized": false,
      "special": true
    },
    {
      "id": 10,
      "content": "[INV]",
      "single_word": false,
      "lstrip": false,
      "rstrip": false,
      "normalized": false,
      "special": true
    }
  ],
  "normalizer": null,
  "pre_tokenizer": {
    "type": "Whitespace"
  },
  "post_processor": null,
  "decoder": null,
  "model": {
    "type": "BPE",
    "dropout": null,
    "unk_token": "[UNK]",
    "continuing_subword_prefix": null,
    "end_of_word_suffix": null,
    "fuse_unk": false,
    "byte_fallback": false,
    "ignore_merges": false,
    "vocab": {
      "[UNK]": 0,
      "[PAD]": 1,
      "[EOS]": 2,
      "[PROOFSTATE]": 3,
      "[PROOFSTEP]": 4,
      "[TACTICS]": 5,
      "[SEP]": 6,
      "[STATESEP]": 7,
      "[SUC]": 8,
      "[INC]": 9,
      "[INV]": 10,
      "!": 11,
      "#": 12,
      "$": 13,
      "%": 14,
      "'": 15,
      "(": 16,
      ")": 17,
      "*": 18,
      "+": 19,
      ",": 20,
      "-": 21,
      ".": 22,
      "/": 23,
      "0": 24,
      "1": 25,
      "2": 26,
      "3": 27,
      "4": 28,
      "5": 29,
      "6": 30,
      "7": 31,
      "8": 32,
      "9": 33,
      ":": 34,
      ";": 35,
      "<": 36,
      "=": 37,
      ">": 38,
      "?": 39,
      "@": 40,
      "A": 41,
      "B": 42,
      "C": 43,
      "D": 44,
      "E": 45,
      "F": 46,
      "G": 47,
      "H": 48,
      "I": 49,
      "J": 50,
      "K": 51,
      "L": 52,
      "M": 53,
      "N": 54,
      "O": 55,
      "P": 56,
      "Q": 57,
      "R": 58,
      "S": 59,
      "T": 60,
      "U": 61,
      "V": 62,
      "W": 63,
      "X": 64,
      "Y": 65,
      "Z": 66,
      "[": 67,
      "\\": 68,
      "]": 69,
      "^": 70,
      "_": 71,
      "a": 72,
      "b": 73,
      "c": 74,
      "d": 75,
      "e": 76,
      "f": 77,
      "g": 78,
      "h": 79,
      "i": 80,
      "j": 81,
      "k": 82,
      "l": 83,
      "m": 84,
      "n": 85,
      "o": 86,
      "p": 87,
      "q": 88,
      "r": 89,
      "s": 90,
      "t": 91,
      "u": 92,
      "v": 93,
      "w": 94,
      "x": 95,
      "y": 96,
      "z": 97,
      "{": 98,
      "|": 99,
      "}": 100,
      "~": 101,
      "«": 102,
      "¬": 103,
      "²": 104,
      "³": 105,
      "¹": 106,
      "»": 107,
      "×": 108,
      "ʷ": 109,
      "ʸ": 110,
      "ˢ": 111,
      "ˣ": 112,
      "Γ": 113,
      "Θ": 114,
      "Ι": 115,
      "Λ": 116,
      "Π": 117,
      "Σ": 118,
      "Φ": 119,
      "Ψ": 120,
      "Ω": 121,
      "α": 122,
      "β": 123,
      "γ": 124,
      "δ": 125,
      "ε": 126,
      "ζ": 127,
      "η": 128,
      "θ": 129,
      "ι": 130,
      "κ": 131,
      "λ": 132,
      "μ": 133,
      "ν": 134,
      "ξ": 135,
      "π": 136,
      "ρ": 137,
      "σ": 138,
      "τ": 139,
      "φ": 140,
      "χ": 141,
      "ψ": 142,
      "ω": 143,
      "ϕ": 144,
      "ᗮ": 145,
      "ᘁ": 146,
      "ᴴ": 147,
      "ᴸ": 148,
      "ᵀ": 149,
      "ᵁ": 150,
      "ᵃ": 151,
      "ᵇ": 152,
      "ᵈ": 153,
      "ᵐ": 154,
      "ᵒ": 155,
      "ᵖ": 156,
      "ᵛ": 157,
      "ᵢ": 158,
      "ᵤ": 159,
      "ᵥ": 160,
      "ᶜ": 161,
      "ᶠ": 162,
      "‖": 163,
      "•": 164,
      "‹": 165,
      "›": 166,
      "⁄": 167,
      "⁅": 168,
      "⁆": 169,
      "⁰": 170,
      "ⁱ": 171,
      "⁴": 172,
      "⁵": 173,
      "⁶": 174,
      "⁷": 175,
      "⁸": 176,
      "⁹": 177,
      "⁺": 178,
      "⁻": 179,
      "₀": 180,
      "₁": 181,
      "₂": 182,
      "₃": 183,
      "₄": 184,
      "₅": 185,
      "₆": 186,
      "₊": 187,
      "ₐ": 188,
      "ₒ": 189,
      "ₕ": 190,
      "ₖ": 191,
      "ₗ": 192,
      "ₘ": 193,
      "ₙ": 194,
      "ₚ": 195,
      "ₛ": 196,
      "ₜ": 197,
      "ℂ": 198,
      "ℍ": 199,
      "ℐ": 200,
      "ℒ": 201,
      "ℓ": 202,
      "ℕ": 203,
      "ℙ": 204,
      "ℚ": 205,
      "ℝ": 206,
      "ℤ": 207,
      "ℬ": 208,
      "ℱ": 209,
      "ℵ": 210,
      "⅟": 211,
      "←": 212,
      "↑": 213,
      "→": 214,
      "↓": 215,
      "↔": 216,
      "↗": 217,
      "↥": 218,
      "↦": 219,
      "↪": 220,
      "↾": 221,
      "⇑": 222,
      "⇒": 223,
      "∀": 224,
      "∂": 225,
      "∃": 226,
      "∅": 227,
      "∆": 228,
      "∈": 229,
      "∉": 230,
      "∏": 231,
      "∐": 232,
      "∑": 233,
      "∗": 234,
      "∘": 235,
      "∙": 236,
      "√": 237,
      "∞": 238,
      "∠": 239,
      "∡": 240,
      "∣": 241,
      "∧": 242,
      "∨": 243,
      "∩": 244,
      "∪": 245,
      "∫": 246,
      "∮": 247,
      "≃": 248,
      "≅": 249,
      "≈": 250,
      "≌": 251,
      "≠": 252,
      "≡": 253,
      "≤": 254,
      "≥": 255,
      "≪": 256,
      "≫": 257,
      "⊂": 258,
      "⊆": 259,
      "⊇": 260,
      "⊓": 261,
      "⊔": 262,
      "⊕": 263,
      "⊗": 264,
      "⊢": 265,
      "⊣": 266,
      "⊤": 267,
      "⊥": 268,
      "⊨": 269,
      "⊻": 270,
      "⊼": 271,
      "⋀": 272,
      "⋂": 273,
      "⋃": 274,
      "⋆": 275,
      "⋖": 276,
      "⋙": 277,
      "⋯": 278,
      "⌈": 279,
      "⌉": 280,
      "⌊": 281,
      "⌋": 282,
      "▷": 283,
      "▸": 284,
      "◁": 285,
      "◃": 286,
      "○": 287,
      "◫": 288,
      "✝": 289,
      "✶": 290,
      "⟂": 291,
      "⟦": 292,
      "⟧": 293,
      "⟨": 294,
      "⟩": 295,
      "⟪": 296,
      "⟫": 297,
      "⟮": 298,
      "⟯": 299,
      "⟶": 300,
      "⟹": 301,
      "⥤": 302,
      "⦃": 303,
      "⦄": 304,
      "⧏": 305,
      "⧸": 306,
      "⨁": 307,
      "⨂": 308,
      "⨅": 309,
      "⨆": 310,
      "⨍": 311,
      "⨯": 312,
      "⬝": 313,
      "￢": 314,
      "𝐞": 315,
      "𝒜": 316,
      "𝒞": 317,
      "𝒟": 318,
      "𝒢": 319,
      "𝒮": 320,
      "𝒰": 321,
      "𝒳": 322,
      "𝒴": 323,
      "𝓕": 324,
      "𝓘": 325,
      "𝓝": 326,
      "𝓞": 327,
      "𝓟": 328,
      "𝓢": 329,
      "𝓤": 330,
      "𝔖": 331,
      "𝔠": 332,
      "𝔸": 333,
      "𝕂": 334,
      "𝕊": 335,
      "𝕎": 336,
      "𝕜": 337,
      "𝕝": 338,
      "𝖣": 339,
      "𝟙": 340,
      "𝟭": 341,
      "in": 342,
      "st": 343,
      "inst": 344,
      "pe": 345,
      "ype": 346,
      "Type": 347,
      "u_": 348,
      "le": 349,
      "al": 350,
      "or": 351,
      "on": 352,
      "ro": 353,
      "om": 354,
      "as": 355,
      "ac": 356,
      "ed": 357,
      "er": 358,
      "re": 359,
      "at": 360,
      "et": 361,
      "un": 362,
      "pac": 363,
      "ra": 364,
      "Com": 365,
      "pace": 366,
      "Space": 367,
      "orm": 368,
      "int": 369,
      ").": 370,
      "Is": 371,
      "✝¹": 372,
      "it": 373,
      "ap": 374,
      "up": 375,
      "eas": 376,
      ":=": 377,
      "u_1": 378,
      "ble": 379,
      "easu": 380,
      "ar": 381,
      "ic": 382,
      "Comm": 383,
      "im": 384,
      "Measu": 385,
      "ing": 386,
      "),": 387,
      "Norm": 388,
      "dd": 389,
      "Set": 390,
      "el": 391,
      "Normed": 392,
      "))": 393,
      "en": 394,
      "ase": 395,
      "=>": 396,
      "Add": 397,
      "fun": 398,
      "is": 399,
      "intro": 400,
      "po": 401,
      "case": 402,
      "od": 403,
      "roup": 404,
      "lo": 405,
      "u_2": 406,
      "eg": 407,
      "em": 408,
      "Group": 409,
      "rable": 410,
      "✝²": 411,
      "To": 412,
      "ge": 413,
      "ly": 414,
      "Fin": 415,
      "ul": 416,
      "th": 417,
      "AddComm": 418,
      "ct": 419,
      "In": 420,
      "((": 421,
      "id": 422,
      "eal": 423,
      "AddCommGroup": 424,
      "ub": 425,
      "an": 426,
      "ion": 427,
      "iv": 428,
      "if": 429,
      "Ring": 430,
      "Measurable": 431,
      "ha": 432,
      "act": 433,
      "ine": 434,
      "✝³": 435,
      "to": 436,
      "eq": 437,
      "ule": 438,
      "odule": 439,
      "con": 440,
      "map": 441,
      "Measure": 442,
      "hf": 443,
      "Li": 444,
      "u_3": 445,
      "NormedAddCommGroup": 446,
      "of": 447,
      "ht": 448,
      "ex": 449,
      "hx": 450,
      "rw": 451,
      "Sub": 452,
      "ig": 453,
      "✝⁴": 454,
      "ite": 455,
      "log": 456,
      "_n": 457,
      "bra": 458,
      "gebra": 459,
      "NormedSpace": 460,
      "_m": 461,
      "ith": 462,
      "_s": 463,
      "cc": 464,
      "Int": 465,
      "co": 466,
      "polog": 467,
      "Topolog": 468,
      "iz": 469,
      "Real": 470,
      "pos": 471,
      "↑(": 472,
      "ical": 473,
      "Finite": 474,
      "ero": 475,
      "um": 476,
      "Module": 477,
      "ono": 478,
      "this": 479,
      "MeasurableSpace": 480,
      "_1": 481,
      "able": 482,
      "ric": 483,
      "ve": 484,
      "imp": 485,
      "mk": 486,
      "ec": 487,
      "ir": 488,
      "ran": 489,
      "Con": 490,
      "iel": 491,
      "ent": 492,
      "Topological": 493,
      "set": 494,
      "let": 495,
      "Eq": 496,
      "Id": 497,
      "Co": 498,
      "Ideal": 499,
      "iff": 500,
      "ern": 501,
      "hc": 502,
      "il": 503,
      "ft": 504,
      "us": 505,
      "fine": 506,
      "✝⁵": 507,
      "ernel": 508,
      "_eq": 509,
      "onoid": 510,
      "simp": 511,
      "TopologicalSpace": 512,
      "Comp": 513,
      "Mul": 514,
      "ield": 515,
      "hp": 516,
      "aliz": 517,
      "ight": 518,
      "inear": 519,
      "u_4": 520,
      "rict": 521,
      "Pro": 522,
      "Field": 523,
      ".{": 524,
      "intype": 525,
      "Al": 526,
      "Map": 527,
      "com": 528,
      "by": 529,
      "Fintype": 530,
      "Non": 531,
      "los": 532,
      "tr": 533,
      "strict": 534,
      "zero": 535,
      "Algebra": 536,
      "Lie": 537,
      "ob": 538,
      "ial": 539,
      "e_": 540,
      "der": 541,
      "art": 542,
      "es": 543,
      "Sem": 544,
      "✝⁶": 545,
      "have": 546,
      "refine": 547,
      "Or": 548,
      "Subm": 549,
      "Cat": 550,
      "hs": 551,
      "neg": 552,
      "Monoid": 553,
      "CommRing": 554,
      "restrict": 555,
      "pen": 556,
      "uo": 557,
      "On": 558,
      "Icc": 559,
      "ory": 560,
      "oc": 561,
      "Top": 562,
      "app": 563,
      "Fun": 564,
      "ma": 565,
      "⁻¹": 566,
      "Finset": 567,
      "uct": 568,
      "atTop": 569,
      "tin": 570,
      "ect": 571,
      "rim": 572,
      "norm": 573,
      "left": 574,
      "hm": 575,
      "pt": 576,
      "Dec": 577,
      "egory": 578,
      "hg": 579,
      "hn": 580,
      "Category": 581,
      "_of": 582,
      "mul": 583,
      "Hom": 584,
      "''": 585,
      "exact": 586,
      "idable": 587,
      "Decidable": 588,
      "List": 589,
      "mm": 590,
      "se": 591,
      "ation": 592,
      "At": 593,
      "Submodule": 594,
      "Of": 595,
      "Ten": 596,
      "with": 597,
      "Integ": 598,
      "With": 599,
      "DecidableEq": 600,
      "(↑": 601,
      "Sup": 602,
      "✝⁷": 603,
      "hom": 604,
      "_iff": 605,
      "mem": 606,
      "Part": 607,
      "mp": 608,
      "wap": 609,
      "kernel": 610,
      "ymm": 611,
      "obj": 612,
      "lete": 613,
      "u_5": 614,
      "Complete": 615,
      "ort": 616,
      "₁,": 617,
      "oo": 618,
      "Linear": 619,
      "lt": 620,
      "swap": 621,
      "ist": 622,
      "am": 623,
      "unt": 624,
      "Nat": 625,
      "Order": 626,
      "right": 627,
      "pty": 628,
      "ain": 629,
      "algebra": 630,
      "iring": 631,
      "↥(": 632,
      "Semiring": 633,
      "ind": 634,
      "uous": 635,
      "tinuous": 636,
      "ors": 637,
      "ng": 638,
      "pan": 639,
      "ard": 640,
      "losed": 641,
      "Po": 642,
      "ive": 643,
      "Sc": 644,
      "empty": 645,
      "und": 646,
      "Mult": 647,
      "Fact": 648,
      "ur": 649,
      "lim": 650,
      "symm": 651,
      "comp": 652,
      "apply": 653,
      "Sum": 654,
      "range": 655,
      "ract": 656,
      "ast": 657,
      "ure": 658,
      "ound": 659,
      "att": 660,
      "hb": 661,
      "inr": 662,
      "_zero": 663,
      "sto": 664,
      "rime": 665,
      "x_1": 666,
      "pro": 667,
      "fl": 668,
      "leng": 669,
      "length": 670,
      "ift": 671,
      "inv": 672,
      "Has": 673,
      "ert": 674,
      "de": 675,
      "yc": 676,
      "₁.": 677,
      "_mem": 678,
      "dsto": 679,
      "ucc": 680,
      "hy": 681,
      ")).": 682,
      "ci": 683,
      "row": 684,
      "✝⁸": 685,
      "max": 686,
      "Pa": 687,
      "ass": 688,
      "fst": 689,
      "add": 690,
      "_pos": 691,
      "hr": 692,
      "Le": 693,
      "ut": 694,
      "ode": 695,
      "jo": 696,
      "ri": 697,
      "cons": 698,
      "_mul": 699,
      "val": 700,
      "NN": 701,
      "only": 702,
      "all": 703,
      "Continuous": 704,
      "Un": 705,
      "sub": 706,
      "Dom": 707,
      "sup": 708,
      "Loc": 709,
      "₁)": 710,
      "ice": 711,
      "Fract": 712,
      "algebraMap": 713,
      "ux": 714,
      "mem_": 715,
      "h_": 716,
      "s_": 717,
      "NNReal": 718,
      "Ar": 719,
      "ph": 720,
      "red": 721,
      "IsP": 722,
      "u_6": 723,
      "eri": 724,
      "(-": 725,
      "Kernel": 726,
      "alar": 727,
      "attice": 728,
      "Aux": 729,
      "Scalar": 730,
      "₂.": 731,
      "Prod": 732,
      "MeasurableSet": 733,
      "Poly": 734,
      "alized": 735,
      "∫⁻": 736,
      "Prop": 737,
      "erm": 738,
      "Open": 739,
      "rfl": 740,
      "port": 741,
      "ially": 742,
      "[←": 743,
      "Nonempty": 744,
      "card": 745,
      "ctor": 746,
      "ner": 747,
      "_le": 748,
      "type": 749,
      "hd": 750,
      "ction": 751,
      "ch": 752,
      "a1": 753,
      "he": 754,
      "pend": 755,
      "✝⁹": 756,
      "sSup": 757,
      "rank": 758,
      "ot": 759,
      "univ": 760,
      "fin": 761,
      "'.": 762,
      "losure": 763,
      "ENNReal": 764,
      "sor": 765,
      "ts": 766,
      "ally": 767,
      "Integrable": 768,
      "nd": 769,
      "inl": 770,
      "ath": 771,
      "Tendsto": 772,
      "cases": 773,
      "₂,": 774,
      "ree": 775,
      "Compac": 776,
      "nom": 777,
      "Polynom": 778,
      "ins": 779,
      "Iso": 780,
      "ofReal": 781,
      "CompleteSpace": 782,
      "Lattice": 783,
      "Sig": 784,
      "one": 785,
      "b1": 786,
      "Zero": 787,
      "₂)": 788,
      "ycle": 789,
      "},": 790,
      "triv": 791,
      "_non": 792,
      "anc": 793,
      "_eq_": 794,
      "succ": 795,
      "h1": 796,
      "span": 797,
      "pow": 798,
      "ab": 799,
      "})": 800,
      "Pre": 801,
      "IsFinite": 802,
      "ue": 803,
      "Atom": 804,
      "Nontriv": 805,
      "IsAtom": 806,
      "Right": 807,
      "untable": 808,
      "cond": 809,
      "Left": 810,
      "',": 811,
      "joint": 812,
      "')": 813,
      "a2": 814,
      "hI": 815,
      "St": 816,
      "ext": 817,
      "prod": 818,
      "_to": 819,
      "b2": 820,
      "ae": 821,
      "Str": 822,
      "ad": 823,
      "h2": 824,
      "ilt": 825,
      "//": 826,
      "Closed": 827,
      "imal": 828,
      "pl": 829,
      "Perm": 830,
      "✝¹⁰": 831,
      "op": 832,
      "↑↑": 833,
      "Pair": 834,
      "insert": 835,
      "icat": 836,
      "Domain": 837,
      "m0": 838,
      "isjoint": 839,
      "min": 840,
      "ilter": 841,
      "ep": 842,
      "cast": 843,
      "orel": 844,
      "Diff": 845,
      "age": 846,
      "ff": 847,
      "bound": 848,
      "IH": 849,
      "closure": 850,
      "cd": 851,
      "NormedField": 852,
      "exp": 853,
      "egree": 854,
      "dist": 855,
      "hu": 856,
      "cl": 857,
      "pre": 858,
      "get": 859,
      "iso": 860,
      "Compact": 861,
      "IsOpen": 862,
      "div": 863,
      "Tensor": 864,
      "gs": 865,
      "ject": 866,
      "_2": 867,
      "Borel": 868,
      "_lt": 869,
      "BorelSpace": 870,
      "Arrow": 871,
      "per": 872,
      "Disjoint": 873,
      "image": 874,
      "tain": 875,
      "gcd": 876,
      "iallyNormedField": 877,
      "NontriviallyNormedField": 878,
      "Factors": 879,
      "fs": 880,
      "⁻¹'": 881,
      "IsLoc": 882,
      "‖₊": 883,
      "coe": 884,
      "LieRing": 885,
      "ome": 886,
      "uiv": 887,
      "_nonneg": 888,
      "mpr": 889,
      "ener": 890,
      "obtain": 891,
      "alizedFactors": 892,
      "Mod": 893,
      "(↑(": 894,
      "Rat": 895,
      "limit": 896,
      "ix": 897,
      "some": 898,
      "ol": 899,
      "RingHom": 900,
      "ens": 901,
      "uot": 902,
      "support": 903,
      "AddCommMonoid": 904,
      "ding": 905,
      "Quot": 906,
      "Node": 907,
      "(⇑": 908,
      "(∀": 909,
      "LinearOrder": 910,
      "closed": 911,
      "hi": 912,
      "ient": 913,
      "our": 914,
      "u_7": 915,
      "Ball": 916,
      ")))": 917,
      "Lp": 918,
      "di": 919,
      "✝¹¹": 920,
      "lb": 921,
      "gr": 922,
      "Integr": 923,
      "⋯)": 924,
      "eries": 925,
      "Product": 926,
      "ker": 927,
      "Scalars": 928,
      "ag": 929,
      "etric": 930,
      "CommSemiring": 931,
      "CompleteLattice": 932,
      "Series": 933,
      "orph": 934,
      "ian": 935,
      "Vect": 936,
      "Vector": 937,
      "mul_": 938,
      "LinearMap": 939,
      "_sub": 940,
      "congr": 941,
      "bed": 942,
      "map_": 943,
      "bedding": 944,
      "hab": 945,
      "Inner": 946,
      "closedBall": 947,
      "toReal": 948,
      "alizer": 949,
      "ack": 950,
      "ih": 951,
      "then": 952,
      "Polynomial": 953,
      "step": 954,
      "ten": 955,
      "Metric": 956,
      "ce": 957,
      "ilinear": 958,
      "FractPair": 959,
      "IntFractPair": 960,
      "fix": 961,
      "iat": 962,
      "wer": 963,
      "functor": 964,
      "Bim": 965,
      "Bimod": 966,
      "nat": 967,
      "alization": 968,
      "ition": 969,
      "snd": 970,
      "ie": 971,
      "AE": 972,
      "No": 973,
      "::": 974,
      "ize": 975,
      "Ch": 976,
      "Sign": 977,
      "hk": 978,
      "edMeasure": 979,
      "SignedMeasure": 980,
      "eR": 981,
      "Multilinear": 982,
      "subtype": 983,
      "Fraction": 984,
      "tf": 985,
      "else": 986,
      "ke": 987,
      "ifp": 988,
      "Equiv": 989,
      "node": 990,
      "RB": 991,
      "comm": 992,
      "redu": 993,
      "mer": 994,
      "Inde": 995,
      "incl": 996,
      "restrictScalars": 997,
      "Seq": 998,
      "_in": 999,
      "Boo": 1000,
      "Cl": 1001,
      "Val": 1002,
      "den": 1003,
      "_ne_": 1004,
      "rows": 1005,
      "nth": 1006,
      "normalizedFactors": 1007,
      "ffine": 1008,
      "const": 1009,
      "mα": 1010,
      "Prime": 1011,
      "hift": 1012,
      "Class": 1013,
      "mat": 1014,
      "Topology": 1015,
      "abs": 1016,
      "Form": 1017,
      "append": 1018,
      "ream": 1019,
      "match": 1020,
      "rans": 1021,
      "cycle": 1022,
      "ck": 1023,
      "As": 1024,
      "↑‖": 1025,
      "jective": 1026,
      "Countable": 1027,
      "lex": 1028,
      "SMul": 1029,
      "IsDomain": 1030,
      "uE": 1031,
      "tal": 1032,
      "order": 1033,
      "refine_1": 1034,
      "Gener": 1035,
      "IsC": 1036,
      "One": 1037,
      "IsIntegr": 1038,
      "ancel": 1039,
      "Inv": 1040,
      "⊗[": 1041,
      "Function": 1042,
      "Bool": 1043,
      "_right": 1044,
      "→+": 1045,
      "pendent": 1046,
      "filter": 1047,
      "measu": 1048,
      "He": 1049,
      "prime": 1050,
      "cont": 1051,
      "h3": 1052,
      "Col": 1053,
      "Ex": 1054,
      "refine_2": 1055,
      "LieAlgebra": 1056,
      "merge": 1057,
      "mβ": 1058,
      "Lift": 1059,
      "uF": 1060,
      "path": 1061,
      "hρ": 1062,
      "Quotient": 1063,
      "ver": 1064,
      "→+*": 1065,
      "leton": 1066,
      "ProductSpace": 1067,
      "InnerProductSpace": 1068,
      "iset": 1069,
      "Submonoid": 1070,
      "cible": 1071,
      "reducible": 1072,
      "count": 1073,
      "finrank": 1074,
      "Affine": 1075,
      "ated": 1076,
      "_apply": 1077,
      "hq": 1078,
      "ounded": 1079,
      "Multiset": 1080,
      "Io": 1081,
      "Ioi": 1082,
      "Vec": 1083,
      "GT": 1084,
      "rankGT": 1085,
      "_of_": 1086,
      "Sort": 1087,
      "hz": 1088,
      "habit": 1089,
      "Em": 1090,
      "Tower": 1091,
      "ScalarTower": 1092,
      "bound_": 1093,
      "ingleton": 1094,
      "Independent": 1095,
      "Struct": 1096,
      "tinu": 1097,
      "assoc": 1098,
      "habited": 1099,
      "IsFiniteMeasure": 1100,
      "Heap": 1101,
      "hT": 1102,
      "LieIdeal": 1103,
      "toFun": 1104,
      "MetricSpace": 1105,
      "inorm": 1106,
      "Seminorm": 1107,
      "ension": 1108,
      "using": 1109,
      "ers": 1110,
      "cycleOf": 1111,
      "ay": 1112,
      "✝¹²": 1113,
      "group": 1114,
      "TypeVec": 1115,
      "integ": 1116,
      "uG": 1117,
      "RBNode": 1118,
      "Mon": 1119,
      "Fin2": 1120,
      "onent": 1121,
      "ry": 1122,
      "Dim": 1123,
      "ensional": 1124,
      "Dimensional": 1125,
      "ae_": 1126,
      "FiniteDimensional": 1127,
      "equ": 1128,
      "Action": 1129,
      "utation": 1130,
      "Red": 1131,
      "linear": 1132,
      "⋯⟩": 1133,
      "onal": 1134,
      "Cont": 1135,
      "Within": 1136,
      "maximal": 1137,
      "ular": 1138,
      "stream": 1139,
      "Functor": 1140,
      "Pres": 1141,
      "IsFiniteKernel": 1142,
      "equalizer": 1143,
      "MonoidWith": 1144,
      "ple": 1145,
      "IsScalarTower": 1146,
      "finite": 1147,
      "soc": 1148,
      "Assoc": 1149,
      "alse": 1150,
      "_ne_zero": 1151,
      "dec": 1152,
      "pal": 1153,
      "rin": 1154,
      "cipal": 1155,
      "rincipal": 1156,
      "Subgroup": 1157,
      "WithC": 1158,
      "isors": 1159,
      "rect": 1160,
      "↑((": 1161,
      "condexp": 1162,
      "Lim": 1163,
      ")}": 1164,
      "heri": 1165,
      "etheri": 1166,
      "etherian": 1167,
      "elf": 1168,
      "Noetherian": 1169,
      "Embedding": 1170,
      "_left": 1171,
      "exist": 1172,
      "itt": 1173,
      "h4": 1174,
      "ong": 1175,
      "ise": 1176,
      "ieve": 1177,
      "h0": 1178,
      "ity": 1179,
      "L1": 1180,
      "ruct": 1181,
      "lock": 1182,
      "comap": 1183,
      "Ab": 1184,
      "fr": 1185,
      "plicat": 1186,
      "rcases": 1187,
      "Unit": 1188,
      "urry": 1189,
      "cyc": 1190,
      "rected": 1191,
      "lin": 1192,
      "Subtype": 1193,
      "WF": 1194,
      "Partial": 1195,
      "non": 1196,
      "IsPrincipal": 1197,
      "Bₘ": 1198,
      "ullb": 1199,
      "ullback": 1200,
      "nil": 1201,
      "LinearOrdered": 1202,
      "le_": 1203,
      "lyMeasurable": 1204,
      "onglyMeasurable": 1205,
      "orner": 1206,
      "Like": 1207,
      "maximalIdeal": 1208,
      "ource": 1209,
      "Structure": 1210,
      "Limit": 1211,
      "irw": 1212,
      "curry": 1213,
      "Total": 1214,
      "rintro": 1215,
      "degree": 1216,
      "icator": 1217,
      "irwise": 1218,
      "VectorMeasure": 1219,
      "WithCorner": 1220,
      "WithCorners": 1221,
      "_eq_zero": 1222,
      "Pairwise": 1223,
      "_neg": 1224,
      "indicator": 1225,
      "Degree": 1226,
      "perm": 1227,
      "Multi": 1228,
      "tfae_": 1229,
      "pi": 1230,
      "utations": 1231,
      "ate": 1232,
      "conv": 1233,
      "Tri": 1234,
      "size": 1235,
      "Rel": 1236,
      "✝¹³": 1237,
      "imple": 1238,
      "ow": 1239,
      "permutations": 1240,
      "edSpace": 1241,
      "ell": 1242,
      "Bl": 1243,
      "ang": 1244,
      "Sigma": 1245,
      "Star": 1246,
      "eval": 1247,
      "').": 1248,
      "Ioo": 1249,
      "Seminormed": 1250,
      "IsCycle": 1251,
      "}.": 1252,
      "itive": 1253,
      "for": 1254,
      "ace": 1255,
      "Sq": 1256,
      "CD": 1257,
      "block": 1258,
      "trans": 1259,
      "tom": 1260,
      "lotom": 1261,
      "lotomic": 1262,
      "join": 1263,
      "StronglyMeasurable": 1264,
      "Iic": 1265,
      "Sm": 1266,
      "cyclotomic": 1267,
      "alMultilinear": 1268,
      "_to_": 1269,
      "FormalMultilinear": 1270,
      "FormalMultilinearSeries": 1271,
      "Ordering": 1272,
      "SetIndependent": 1273,
      "'✝": 1274,
      "(∫⁻": 1275,
      "eL": 1276,
      "ean": 1277,
      "countable": 1278,
      "and": 1279,
      "xp": 1280,
      "rexp": 1281,
      "lyGener": 1282,
      "lyGenerated": 1283,
      "Grows": 1284,
      "Polynomially": 1285,
      "GrowsPolynomially": 1286,
      "Mv": 1287,
      "Collinear": 1288,
      "₃,": 1289,
      "Subalgebra": 1290,
      "ank": 1291,
      "mem_s": 1292,
      "FractionRing": 1293,
      "enc": 1294,
      "htt": 1295,
      "<|": 1296,
      "Aₘ": 1297,
      "hem": 1298,
      "Schem": 1299,
      "Scheme": 1300,
      "Partition": 1301,
      "source": 1302,
      "irreducible": 1303,
      "Component": 1304,
      "sig": 1305,
      "Mat": 1306,
      "simpa": 1307,
      "hJ": 1308,
      "toList": 1309,
      "sum": 1310,
      "ContDiff": 1311,
      "Cone": 1312,
      "tent": 1313,
      "potent": 1314,
      "hS": 1315,
      "ListBl": 1316,
      "countablePartition": 1317,
      "ListBlank": 1318,
      "SeminormedAddCommGroup": 1319,
      "Complex": 1320,
      "c1": 1321,
      "ta": 1322,
      "hB": 1323,
      "Nil": 1324,
      "Chart": 1325,
      "ves": 1326,
      ")]": 1327,
      "hι": 1328,
      "poly": 1329,
      "ifp_n": 1330,
      "₃)": 1331,
      "Nilpotent": 1332,
      "mable": 1333,
      "✝)": 1334,
      "allyClosed": 1335,
      "omorph": 1336,
      "lTensor": 1337,
      "IsPrime": 1338,
      "End": 1339,
      "False": 1340,
      "tendsto": 1341,
      "Meas": 1342,
      "def": 1343,
      "irreducibleComponent": 1344,
      "Ici": 1345,
      "actLeft": 1346,
      "Cast": 1347,
      "LieModule": 1348,
      "TotalSpace": 1349,
      "uction": 1350,
      "one_": 1351,
      "alize": 1352,
      "IsIntegrallyClosed": 1353,
      "Num": 1354,
      "₁}": 1355,
      "vd": 1356,
      "ants": 1357,
      "_meas": 1358,
      "Associat": 1359,
      "asis": 1360,
      "Inhabited": 1361,
      "esOf": 1362,
      "nthLe": 1363,
      "Path": 1364,
      "tj": 1365,
      "ieltj": 1366,
      "cut": 1367,
      "Coprime": 1368,
      "stieltj": 1369,
      "MeasurableRat": 1370,
      "esOfMeasurableRat": 1371,
      "stieltjesOfMeasurableRat": 1372,
      "Rₚ": 1373,
      "Mₚ": 1374,
      "tinuants": 1375,
      "_of_mem": 1376,
      "_self": 1377,
      "₁'": 1378,
      "irreducibleComponents": 1379,
      "_one": 1380,
      "arith": 1381,
      "linarith": 1382,
      "induction": 1383,
      "iq": 1384,
      "Shift": 1385,
      "SigmaFinite": 1386,
      "ral": 1387,
      "₂}": 1388,
      "rix": 1389,
      "unop": 1390,
      "plicative": 1391,
      "toSignedMeasure": 1392,
      "Re": 1393,
      "Multiplicative": 1394,
      "natDegree": 1395,
      "Cancel": 1396,
      "⋯,": 1397,
      "WithinAt": 1398,
      "sign": 1399,
      "Gam": 1400,
      "smul": 1401,
      "c2": 1402,
      "Nth": 1403,
      "Factor": 1404,
      "insertNth": 1405,
      "IsMultiplicative": 1406,
      "minpoly": 1407,
      "₁₂": 1408,
      "Support": 1409,
      "₁✝": 1410,
      "Matrix": 1411,
      "_inv": 1412,
      "old": 1413,
      "arian": 1414,
      "ariant": 1415,
      "₂).": 1416,
      "Tors": 1417,
      "continuants": 1418,
      "coeff": 1419,
      "continuantsAux": 1420,
      "inf": 1421,
      "AddTors": 1422,
      "AddTorsor": 1423,
      "Der": 1424,
      "object": 1425,
      "Deriv": 1426,
      "Subobject": 1427,
      "α_": 1428,
      "hf_": 1429,
      "hδ": 1430,
      "tail": 1431,
      "del": 1432,
      "hl": 1433,
      "⟩,": 1434,
      "hj": 1435,
      "CLike": 1436,
      "RCLike": 1437,
      "ique": 1438,
      "IsNilpotent": 1439,
      "by_": 1440,
      "CountableTopology": 1441,
      "_add": 1442,
      "ot_": 1443,
      "LieRingModule": 1444,
      "MulAction": 1445,
      "snorm": 1446,
      "₅,": 1447,
      "f_": 1448,
      "CompactSupport": 1449,
      "↥↑": 1450,
      "Div": 1451,
      "heq": 1452,
      "_succ": 1453,
      "trim": 1454,
      "proj": 1455,
      "agonal": 1456,
      "i_1": 1457,
      "alanc": 1458,
      "Ha": 1459,
      "coequalizer": 1460,
      "Invariant": 1461,
      "dg": 1462,
      "ism": 1463,
      "iform": 1464,
      "_subset": 1465,
      "witt": 1466,
      "IsLocalization": 1467,
      "lp": 1468,
      "IsD": 1469,
      "AEMeasurable": 1470,
      "orphism": 1471,
      "lift": 1472,
      "Bounded": 1473,
      "Min": 1474,
      "actRight": 1475,
      "top": 1476,
      "IsCompact": 1477,
      "_iff_": 1478,
      "hxy": 1479,
      "HasCompactSupport": 1480,
      "hlt": 1481,
      "∑'": 1482,
      "ax": 1483,
      "ev": 1484,
      "countablePartitionSet": 1485,
      "Basis": 1486,
      "Monic": 1487,
      "Ord": 1488,
      "kx": 1489,
      "supp": 1490,
      "ChartedSpace": 1491,
      "__s": 1492,
      "ooth": 1493,
      "IsFractionRing": 1494,
      "last": 1495,
      "d2": 1496,
      "tensor": 1497,
      "Haar": 1498,
      "measurable": 1499,
      "normalize": 1500,
      ")⁻¹": 1501,
      "dvd": 1502,
      "ach": 1503,
      "AddGroup": 1504,
      "erse": 1505,
      "Morphism": 1506,
      "d1": 1507,
      "eq_": 1508,
      "orderOf": 1509,
      "ek": 1510,
      "edek": 1511,
      "toFinset": 1512,
      "indDomain": 1513,
      "edekindDomain": 1514,
      "wo": 1515,
      "LinearOrderedField": 1516,
      "(((": 1517,
      "four": 1518,
      "₄}": 1519,
      "IsDedekindDomain": 1520,
      "expan": 1521,
      "expand": 1522,
      "rom": 1523,
      "fract": 1524,
      "_sum": 1525,
      "attach": 1526,
      "Unique": 1527,
      "u_8": 1528,
      "Triple": 1529,
      "Mono": 1530,
      "IdealRing": 1531,
      "IsPrincipalIdealRing": 1532,
      "hρ_zero": 1533,
      "kernelSubobject": 1534,
      "ha2": 1535,
      "‖)": 1536,
      "inj": 1537,
      "ere": 1538,
      "preimage": 1539,
      "wittStructure": 1540,
      "inverse": 1541,
      "Union": 1542,
      "✝¹⁴": 1543,
      "Classical": 1544,
      "}),": 1545,
      "Uniform": 1546,
      "HaarMeasure": 1547,
      "Tr": 1548,
      "ZMod": 1549,
      "Sam": 1550,
      "TensorBimod": 1551,
      "lpMeas": 1552,
      "LE": 1553,
      "Infinite": 1554,
      "a_1": 1555,
      "Cond": 1556,
      "vol": 1557,
      "ky": 1558,
      "IsNoetherian": 1559,
      "alk": 1560,
      "IsAdd": 1561,
      "lope": 1562,
      "construct": 1563,
      "constructor": 1564,
      "castRingHom": 1565,
      "Ico": 1566,
      "₂))": 1567,
      "uation": 1568,
      "CDF": 1569,
      "slope": 1570,
      "Preser": 1571,
      "Restrict": 1572,
      "Filter": 1573,
      "Well": 1574,
      "Di": 1575,
      "IsAddHaarMeasure": 1576,
      "by_cases": 1577,
      "({": 1578,
      "→.": 1579,
      "Abs": 1580,
      "exists_": 1581,
      "ant": 1582,
      "PF": 1583,
      "QPF": 1584,
      "ily": 1585,
      "oose": 1586,
      "amily": 1587,
      "integral": 1588,
      "base": 1589,
      "Exact": 1590,
      "¬(": 1591,
      "colimit": 1592,
      "eRay": 1593,
      "_rw": 1594,
      "_num": 1595,
      "L2": 1596,
      "₂✝": 1597,
      "Sieve": 1598,
      "IsRat": 1599,
      "volum": 1600,
      "Eu": 1601,
      "coe_": 1602,
      "divisors": 1603,
      "The": 1604,
      "eomorph": 1605,
      "ward": 1606,
      "decEq": 1607,
      "Theory": 1608,
      "dest": 1609,
      "Py": 1610,
      "orean": 1611,
      "thag": 1612,
      "Summable": 1613,
      "Pythag": 1614,
      "oreanTriple": 1615,
      "PythagoreanTriple": 1616,
      "Span": 1617,
      "Associates": 1618,
      "pullback": 1619,
      "MonoidWithZero": 1620,
      "Closure": 1621,
      "KernelCDF": 1622,
      "condKernel": 1623,
      "CondKernelCDF": 1624,
      "dsimp": 1625,
      "num": 1626,
      "Smooth": 1627,
      "Normal": 1628,
      "choose": 1629,
      "'⟩": 1630,
      "ier": 1631,
      "ren": 1632,
      "IsRatCondKernelCDF": 1633,
      "bind": 1634,
      "ne": 1635,
      "volume": 1636,
      "₂'": 1637,
      "CommMonoidWithZero": 1638,
      "ContDiffOn": 1639,
      "SameRay": 1640,
      "irst": 1641,
      "measure": 1642,
      "norm_num": 1643,
      "IsMul": 1644,
      "deriv": 1645,
      "IH1": 1646,
      "blocks": 1647,
      "blocksFun": 1648,
      "IsL": 1649,
      "𝒟ᵒ": 1650,
      "_comp": 1651,
      "IsG": 1652,
      "fourier": 1653,
      "hN": 1654,
      "Family": 1655,
      "refl": 1656,
      "idi": 1657,
      "ange": 1658,
      "simp_rw": 1659,
      "posPart": 1660,
      "'))": 1661,
      "hain": 1662,
      "plit": 1663,
      "his": 1664,
      "_i": 1665,
      "Compacts": 1666,
      "cmp": 1667,
      "hea": 1668,
      "Directed": 1669,
      "sa": 1670,
      "bl": 1671,
      "idiagonal": 1672,
      "Up": 1673,
      "_le_": 1674,
      "hv": 1675,
      "ually": 1676,
      "Homo": 1677,
      "Homeomorph": 1678,
      "_up": 1679,
      "radi": 1680,
      "radius": 1681,
      "det": 1682,
      "entually": 1683,
      "IsLocally": 1684,
      "OnCompacts": 1685,
      "IsFiniteMeasureOnCompacts": 1686,
      "CancelCommMonoidWithZero": 1687,
      "Gamma": 1688,
      "usion": 1689,
      "phere": 1690,
      "alanced": 1691,
      "AddMonoid": 1692,
      "bound_fs": 1693,
      "heaf": 1694,
      "bound_gs": 1695,
      "shift": 1696,
      "inclusion": 1697,
      "Ne": 1698,
      "Args": 1699,
      "HeapNode": 1700,
      "(∑": 1701,
      "inter": 1702,
      "Walk": 1703,
      "ersion": 1704,
      "Colimit": 1705,
      "An": 1706,
      "ization": 1707,
      "filter_up": 1708,
      "wards": 1709,
      "filter_upwards": 1710,
      "ute": 1711,
      "Ant": 1712,
      "pread": 1713,
      "__spread": 1714,
      "hZ": 1715,
      "diff": 1716,
      ";>": 1717,
      "<;>": 1718,
      "hds": 1719,
      "wittStructureInt": 1720,
      "hle": 1721,
      "hx_nonneg": 1722,
      "MultilinearMap": 1723,
      "embedding": 1724,
      "condexpL2": 1725,
      "(↥": 1726,
      "tendsto_": 1727,
      "Pi": 1728,
      "Value": 1729,
      "NormedAddTorsor": 1730,
      "SL": 1731,
      "ull": 1732,
      "Locally": 1733,
      "_c": 1734,
      "position": 1735,
      "elian": 1736,
      "assert": 1737,
      "shiftFunctor": 1738,
      "natAbs": 1739,
      "loor": 1740,
      "u_9": 1741,
      "Antidiagonal": 1742,
      "embeddingReal": 1743,
      "continuous": 1744,
      "Sup_s": 1745,
      "Man": 1746,
      "ifold": 1747,
      "SmoothMan": 1748,
      "ifoldWithCorners": 1749,
      "SmoothManifoldWithCorners": 1750,
      "_smul": 1751,
      "hK": 1752,
      "Valuation": 1753,
      "eric": 1754,
      "convert": 1755,
      "eventually": 1756,
      "sz": 1757,
      "ude": 1758,
      "conts": 1759,
      "MeasureTheory": 1760,
      "include": 1761,
      "includeRight": 1762,
      "UB": 1763,
      "sIn": 1764,
      "AEStronglyMeasurable": 1765,
      "IsCompactlyGenerated": 1766,
      "_of_lt": 1767,
      "zi": 1768,
      "Preserves": 1769,
      "Count": 1770,
      "MvQPF": 1771,
      "⟨⟨": 1772,
      "LieSubalgebra": 1773,
      "ensity": 1774,
      "hisker": 1775,
      "au": 1776,
      "unit": 1777,
      "_mono": 1778,
      "AddMonoidWith": 1779,
      "AddMonoidWithOne": 1780,
      "Res": 1781,
      "arr": 1782,
      "Modular": 1783,
      "Founded": 1784,
      "hμ": 1785,
      "cop": 1786,
      "Simple": 1787,
      "own": 1788,
      "ValuationRing": 1789,
      "negY": 1790,
      "First": 1791,
      "PartialHomeomorph": 1792,
      "FirstCountableTopology": 1793,
      "down": 1794,
      "posSeq": 1795,
      "NonposSeq": 1796,
      "restrictNonposSeq": 1797,
      "IsLUB": 1798,
      "Commute": 1799,
      "forget": 1800,
      "car": 1801,
      "sphere": 1802,
      "kernelSubobjectIso": 1803,
      "_t": 1804,
      "₅₁₂": 1805,
      "ord": 1806,
      "arrows": 1807,
      "IsNoetherianRing": 1808,
      "rier": 1809,
      "IsIntegral": 1810,
      "divisorsAntidiagonal": 1811,
      "carrier": 1812,
      "hτ": 1813,
      "ediat": 1814,
      "ermediat": 1815,
      "ae_1": 1816,
      "tfae_1": 1817,
      "IsModular": 1818,
      "IsModularLattice": 1819,
      "WellFounded": 1820,
      "_pow": 1821,
      "ULift": 1822,
      "idx": 1823,
      "Factorization": 1824,
      "UniqueFactorization": 1825,
      "UniqueFactorizationMonoid": 1826,
      "entri": 1827,
      "entries": 1828,
      "eField": 1829,
      "Intermediat": 1830,
      "IntermediateField": 1831,
      "elWithCorners": 1832,
      "ModelWithCorners": 1833,
      "io": 1834,
      "hfg": 1835,
      "_nhds": 1836,
      "],": 1837,
      "⇑(": 1838,
      "Numeric": 1839,
      "₁))": 1840,
      "hmem": 1841,
      "Divisors": 1842,
      "gcongr": 1843,
      "union": 1844,
      "Nonneg": 1845,
      "Sᶜ": 1846,
      "⋯).": 1847,
      "Iio": 1848,
      "Bi": 1849,
      "lie": 1850,
      "filterAt": 1851,
      "ty": 1852,
      "CommSq": 1853,
      "perty": 1854,
      "_ro": 1855,
      "eight": 1856,
      "xs": 1857,
      "step1": 1858,
      "forall": 1859,
      "-↑": 1860,
      "_nat": 1861,
      "ContinuousOn": 1862,
      "Acc": 1863,
      "Pos": 1864,
      "Nontrivial": 1865,
      "CatCommSq": 1866,
      "mono": 1867,
      "tl": 1868,
      "IsPath": 1869,
      "Ta": 1870,
      "P1": 1871,
      "']": 1872,
      "erent": 1873,
      "))).": 1874,
      "hκ": 1875,
      "pr": 1876,
      "_mk": 1877,
      "IsSem": 1878,
      "isimple": 1879,
      "IsSemisimple": 1880,
      "init": 1881,
      "directed": 1882,
      "IsPrim": 1883,
      "esc": 1884,
      "onge": 1885,
      "ToHom": 1886,
      "FiniteMeasure": 1887,
      "ring": 1888,
      "Gu": 1889,
      "ContinuousMultilinearMap": 1890,
      "subset": 1891,
      "Imm": 1892,
      "og": 1893,
      "star": 1894,
      "_max": 1895,
      "black": 1896,
      "Immersion": 1897,
      "Dist": 1898,
      "su": 1899,
      "ToLp": 1900,
      "(∃": 1901,
      "_ne": 1902,
      "_3": 1903,
      "εpos": 1904,
      "iable": 1905,
      "ption": 1906,
      "hco": 1907,
      "u_10": 1908,
      "suff": 1909,
      "longe": 1910,
      "stPre": 1911,
      "Tape": 1912,
      "longestPre": 1913,
      "longestPrefix": 1914,
      "ices": 1915,
      "suffices": 1916,
      "toSubmodule": 1917,
      "rwa": 1918,
      "rib": 1919,
      "erase": 1920,
      "exists": 1921,
      "_h": 1922,
      "Floor": 1923,
      "chain": 1924,
      "stepAux": 1925,
      "Trim": 1926,
      "_of_le": 1927,
      "lpMeasToLp": 1928,
      "TrimLie": 1929,
      "lpMeasToLpTrimLie": 1930,
      "sing": 1931,
      "IntegrableOn": 1932,
      "hw": 1933,
      "FloorRing": 1934,
      "UniformSpace": 1935,
      "₂⟩": 1936,
      "eqToHom": 1937,
      "ning": 1938,
      "Const": 1939,
      "IsAffine": 1940,
      "end": 1941,
      "h_int": 1942,
      "(∡": 1943,
      "raph": 1944,
      "extend": 1945,
      "Injective": 1946,
      "IsLocallyFiniteMeasure": 1947,
      "✝).": 1948,
      "HasF": 1949,
      "₁).": 1950,
      "_root_": 1951,
      "LB": 1952,
      "WSeq": 1953,
      "NoZero": 1954,
      "¬((": 1955,
      "pect": 1956,
      "Trans": 1957,
      "ihy": 1958,
      "‖↑": 1959,
      "mem_insert": 1960,
      "Reg": 1961,
      "Regular": 1962,
      "IsOpenImmersion": 1963,
      "mt": 1964,
      "ningSet": 1965,
      "use": 1966,
      "‖₊)": 1967,
      "}).": 1968,
      "preinclusion": 1969,
      "bot": 1970,
      "fixF": 1971,
      "zsmul": 1972,
      "thog": 1973,
      "ablyGenerated": 1974,
      "CountablyGenerated": 1975,
      "thogonal": 1976,
      "Balanced": 1977,
      "Char": 1978,
      "_comm": 1979,
      "SpanningSet": 1980,
      "SpanningSetsIn": 1981,
      "inal": 1982,
      "lem": 1983,
      "✝¹⁵": 1984,
      "LinearEquiv": 1985,
      "h5": 1986,
      "IsM": 1987,
      "nect": 1988,
      "_cast": 1989,
      "gener": 1990,
      "IsS": 1991,
      "Subs": 1992,
      "map_add": 1993,
      "lattice": 1994,
      "condexpL1": 1995,
      "mem_singleton": 1996,
      ".{?": 1997,
      "normalizeIso": 1998,
      "Ad": 1999,
      "For": 2000,
      "met": 2001,
      "icFunction": 2002,
      "ithmet": 2003,
      "Arithmet": 2004,
      "ArithmeticFunction": 2005,
      "_atTop": 2006,
      "ua": 2007,
      "Cover": 2008,
      "Mk": 2009,
      "From": 2010,
      "pconts": 2011,
      "angent": 2012,
      "IsGLB": 2013,
      "Tᶜ": 2014,
      "hα": 2015,
      "Ordered": 2016,
      "++": 2017,
      "oot": 2018,
      "CU": 2019,
      "✝.": 2020,
      "g_nonneg": 2021,
      "_in_": 2022,
      "Rec": 2023,
      "desc": 2024,
      "SMulDivisors": 2025,
      "nonneg": 2026,
      "NoZeroSMulDivisors": 2027,
      "Size": 2028,
      "Orient": 2029,
      "ClosedEmbedding": 2030,
      "lie_mem": 2031,
      "ys": 2032,
      "NormalSpace": 2033,
      ")),": 2034,
      "NoetherianSpace": 2035,
      "MDiff": 2036,
      "repr": 2037,
      "_cancel": 2038,
      "_in_K": 2039,
      "LT": 2040,
      "Pullback": 2041,
      "eff": 2042,
      "_cont": 2043,
      "oid": 2044,
      "has": 2045,
      "oms": 2046,
      "_top": 2047,
      "Generalized": 2048,
      "isRed": 2049,
      "Colex": 2050,
      "✝¹⁶": 2051,
      "Property": 2052,
      "ihxy": 2053,
      "Free": 2054,
      "whisker": 2055,
      "intCast": 2056,
      "Bound": 2057,
      "lement": 2058,
      "seq": 2059,
      "edFraction": 2060,
      "Continu": 2061,
      "GeneralizedContinu": 2062,
      "GeneralizedContinuedFraction": 2063,
      "atoms": 2064,
      "Coeff": 2065,
      "Ir": 2066,
      "urjective": 2067,
      "_assoc": 2068,
      "IsLimit": 2069,
      "FintypeCat": 2070,
      "compExact": 2071,
      "compExactValue": 2072,
      "β_in_K": 2073,
      "Groupoid": 2074,
      "gt": 2075,
      "HasZero": 2076,
      "Homolog": 2077,
      "map_mul": 2078,
      "IsPrimitive": 2079,
      "→*": 2080,
      "s_ind": 2081,
      "RedRed": 2082,
      "_norm": 2083,
      "Prim": 2084,
      "[]": 2085,
      "negPart": 2086,
      "_inf_": 2087,
      "FG": 2088,
      "inhabited": 2089,
      "inhabited_h": 2090,
      "IsCon": 2091,
      "b_inf_": 2092,
      "b_inf_Sup_s": 2093,
      "hxp": 2094,
      "Pl": 2095,
      "hd2": 2096,
      "Cof": 2097,
      "];": 2098,
      "rc": 2099,
      "ram": 2100,
      "s_atoms": 2101,
      "h_meas": 2102,
      "ᵒᵖ": 2103,
      "irc": 2104,
      "Stmt": 2105,
      "hU": 2106,
      "hxl": 2107,
      "Oriented": 2108,
      "kup": 2109,
      "okup": 2110,
      "lookup": 2111,
      "addX": 2112,
      "alc": 2113,
      "Distrib": 2114,
      "Y_n": 2115,
      "s_max": 2116,
      "NormalizedFactors": 2117,
      "MapEquiv": 2118,
      "PolyMk": 2119,
      "head": 2120,
      "normalizedFactorsMapEquiv": 2121,
      "MinPolyMk": 2122,
      "Irreducible": 2123,
      "NormalizedFactorsMinPolyMk": 2124,
      "normalizedFactorsMapEquivNormalizedFactorsMinPolyMk": 2125,
      ")!": 2126,
      "Ap": 2127,
      "✝,": 2128,
      "⟩⟩": 2129,
      "toNat": 2130,
      "_singleton": 2131,
      "true": 2132,
      "Mo": 2133,
      "Moves": 2134,
      "u_11": 2135,
      "ists": 2136,
      "s_fun": 2137,
      "blocks_fun": 2138,
      "bu": 2139,
      "sq": 2140,
      "powers": 2141,
      "dlookup": 2142,
      "cokernel": 2143,
      "hgf": 2144,
      "_mul_": 2145,
      "Root": 2146,
      "Exists": 2147,
      "Fu": 2148,
      "Option": 2149,
      "ihyx": 2150,
      "_zero_eq": 2151,
      "InfinitePl": 2152,
      "InfinitePlace": 2153,
      "hE": 2154,
      "oom": 2155,
      "UpTo": 2156,
      "rpos": 2157,
      "Minimal": 2158,
      "tangent": 2159,
      "Local": 2160,
      "uare": 2161,
      ")‖": 2162,
      ">]": 2163,
      "[>]": 2164,
      "uD": 2165,
      "alle": 2166,
      "rever": 2167,
      "upd": 2168,
      "aralle": 2169,
      "Abelian": 2170,
      "ual": 2171,
      "do": 2172,
      "Coprod": 2173,
      "ardBorelSpace": 2174,
      "Stand": 2175,
      "StandardBorelSpace": 2176,
      "xeq": 2177,
      "Ordnode": 2178,
      "_nonempty": 2179,
      "h_int_": 2180,
      "CompactSpace": 2181,
      "_map": 2182,
      "Cotangent": 2183,
      "nected": 2184,
      "ber": 2185,
      "OrderTopology": 2186,
      "update": 2187,
      "Small": 2188,
      "Graph": 2189,
      "convex": 2190,
      "SimpleGraph": 2191,
      "reverse": 2192,
      "split": 2193,
      "⦄,": 2194,
      "↑(↑": 2195,
      "ance": 2196,
      "(∏": 2197,
      "_f": 2198,
      "ds": 2199,
      "integrable": 2200,
      "g_pos": 2201,
      "mot": 2202,
      "renam": 2203,
      "motive": 2204,
      "lintegral": 2205,
      "IsClosed": 2206,
      "Cochain": 2207,
      "single": 2208,
      "_id": 2209,
      "ki": 2210,
      "⟩)": 2211,
      "hcom": 2212,
      "_r": 2213,
      "mul_comm": 2214,
      "Cpos": 2215,
      "calc": 2216,
      "rum": 2217,
      "ski": 2218,
      "hb2": 2219,
      "pectrum": 2220,
      "field": 2221,
      "jection": 2222,
      "bi": 2223,
      ")))))": 2224,
      "hcp": 2225,
      "Hf": 2226,
      "isoE": 2227,
      "hG": 2228,
      "owski": 2229,
      "hcomm": 2230,
      "toEnd": 2231,
      "os": 2232,
      "ingCoeff": 2233,
      "bit": 2234,
      "ets": 2235,
      "ckets": 2236,
      "StarRing": 2237,
      "_succ_n": 2238,
      "ible": 2239,
      "TopologicalAddGroup": 2240,
      "LeftInvariant": 2241,
      "mul_assoc": 2242,
      "MvPolynomial": 2243,
      "TopologicalGroup": 2244,
      "adingCoeff": 2245,
      "IsMulLeftInvariant": 2246,
      "Integral": 2247,
      "hδ1": 2248,
      "tone": 2249,
      "GCD": 2250,
      "✝¹⁷": 2251,
      "RightInvariant": 2252,
      "Presieve": 2253,
      "hδ2": 2254,
      "GCDMonoid": 2255,
      "sc": 2256,
      "ifp_succ_n": 2257,
      "∞)": 2258,
      "Square": 2259,
      "infer": 2260,
      "Over": 2261,
      "leadingCoeff": 2262,
      "generate": 2263,
      "Singleton": 2264,
      "W_": 2265,
      "nnorm": 2266,
      "udo": 2267,
      "ht2": 2268,
      "seudo": 2269,
      "_measu": 2270,
      "congr_": 2271,
      "isoF": 2272,
      "itting": 2273,
      "Strict": 2274,
      "te": 2275,
      "icon": 2276,
      "Triang": 2277,
      "prox": 2278,
      "Approx": 2279,
      "ary": 2280,
      "nonempty": 2281,
      "True": 2282,
      "2Space": 2283,
      "T2Space": 2284,
      "Normalization": 2285,
      "lastr": 2286,
      "stream_zero_eq": 2287,
      "subset_": 2288,
      "fig": 2289,
      "mγ": 2290,
      "_to_2": 2291,
      "Composition": 2292,
      "icontinuous": 2293,
      "a_": 2294,
      "cod": 2295,
      "idean": 2296,
      "ht1": 2297,
      "clidean": 2298,
      "Euclidean": 2299,
      "..": 2300,
      "insertWith": 2301,
      "_to_4": 2302,
      "IsMulRightInvariant": 2303,
      "tfae_1_to_4": 2304,
      "Pseudo": 2305,
      "hε": 2306,
      "hfs_": 2307,
      "rightInv": 2308,
      "ifp_zero": 2309,
      "inej": 2310,
      "RBCol": 2311,
      "RBColor": 2312,
      "Epi": 2313,
      "hgs_": 2314,
      "aeSeq": 2315,
      "Exp": 2316,
      "✝¹⁸": 2317,
      "enc0": 2318,
      "EuclideanSpace": 2319,
      "paralle": 2320,
      "CommClass": 2321,
      "Normalized": 2322,
      "total": 2323,
      "SMulCommClass": 2324,
      "NormalizedGCDMonoid": 2325,
      "starRing": 2326,
      "contDiff": 2327,
      "CL": 2328,
      "toL1": 2329,
      "CLM": 2330,
      "from": 2331,
      "_sup": 2332,
      "Morphisms": 2333,
      "sm": 2334,
      "hfin": 2335,
      "LeftMoves": 2336,
      "Bod": 2337,
      "Bil": 2338,
      "kowski": 2339,
      "yLT": 2340,
      "change": 2341,
      "minkowski": 2342,
      "convexBod": 2343,
      "yLTFactor": 2344,
      "minkowskiBound": 2345,
      "convexBodyLTFactor": 2346,
      "Gen": 2347,
      "open": 2348,
      "Sat": 2349,
      "lor": 2350,
      "PreservesColimit": 2351,
      "gf": 2352,
      "_inj": 2353,
      "HasZeroMorphisms": 2354,
      "Tay": 2355,
      "normalizer": 2356,
      "SeriesUpTo": 2357,
      "destruct": 2358,
      "HasFTay": 2359,
      "buckets": 2360,
      "lorSeriesUpTo": 2361,
      "HasFTaylorSeriesUpTo": 2362,
      "23": 2363,
      "Ak": 2364,
      "Ba": 2365,
      "zzi": 2366,
      "raBa": 2367,
      "urren": 2368,
      "Recurren": 2369,
      "AkraBa": 2370,
      "zziRecurren": 2371,
      "AkraBazziRecurren": 2372,
      "AkraBazziRecurrence": 2373,
      "Mon_": 2374,
      "Var": 2375,
      "ah": 2376,
      "iteCon": 2377,
      "place": 2378,
      "IsOpenPos": 2379,
      "elliteCon": 2380,
      "SatelliteCon": 2381,
      "IsOpenPosMeasure": 2382,
      "SatelliteConfig": 2383,
      "onN": 2384,
      "hcoprime": 2385,
      "u_12": 2386,
      "sOf": 2387,
      "rop": 2388,
      "MeasurableEmbedding": 2389,
      "hsub": 2390,
      "replace": 2391,
      "e_a": 2392,
      "refine_3": 2393,
      "↑↑↑((": 2394,
      "_eq_mul": 2395,
      "hp1": 2396,
      "isymm": 2397,
      "hdec": 2398,
      "weight": 2399,
      "Mem": 2400,
      "VonN": 2401,
      "hal": 2402,
      "of_": 2403,
      "IsLocal": 2404,
      "VonNBounded": 2405,
      "π_n": 2406,
      "Additive": 2407,
      "letI": 2408,
      "antisymm": 2409,
      "MorphismProperty": 2410,
      "ideal": 2411,
      "step2": 2412,
      "$>": 2413,
      "sOfSize": 2414,
      "16": 2415,
      "✝¹⁹": 2416,
      "Primes": 2417,
      "Bot": 2418,
      "ced": 2419,
      "zoom": 2420,
      "₃'": 2421,
      "rans_": 2422,
      ":::": 2423,
      "h_1": 2424,
      "orthogonal": 2425,
      "Semicontinuous": 2426,
      "comb": 2427,
      "NeZero": 2428,
      "_re": 2429,
      "NormedAlgebra": 2430,
      "hpr": 2431,
      "imalPrimes": 2432,
      "Se": 2433,
      "module": 2434,
      "IsVonNBounded": 2435,
      "condCountableTopology": 2436,
      "Adj": 2437,
      "SecondCountableTopology": 2438,
      "hai": 2439,
      "hij": 2440,
      "₃₄": 2441,
      "-(": 2442,
      "xl": 2443,
      "⟨∑": 2444,
      "eta": 2445,
      "ContinuousSMul": 2446,
      "_ne_top": 2447,
      "pad": 2448,
      "hrpos": 2449,
      "h123": 2450,
      "padic": 2451,
      "h1234": 2452,
      "ces": 2453,
      "'}": 2454,
      "(∫": 2455,
      "δnonneg": 2456,
      "Bifunctor": 2457,
      "PreservesColimitsOfSize": 2458,
      "density": 2459,
      "x0": 2460,
      "y0": 2461,
      "arget": 2462,
      "Bilin": 2463,
      "cre": 2464,
      "elim": 2465,
      "hb_pos": 2466,
      "Ordinal": 2467,
      "_two": 2468,
      "crete": 2469,
      "trans_": 2470,
      "Proces": 2471,
      "LocallyCompactSpace": 2472,
      "densityProces": 2473,
      "Coequalizer": 2474,
      "Exponent": 2475,
      "ne_": 2476,
      "diag": 2477,
      "_or": 2478,
      "minimalPrimes": 2479,
      "aximal": 2480,
      "arable": 2481,
      "drop": 2482,
      "hac": 2483,
      "lPair": 2484,
      "₂⁻¹": 2485,
      "hnpos": 2486,
      "⋯⟩,": 2487,
      "(.": 2488,
      "Compl": 2489,
      "h_directed": 2490,
      "tensorBimod": 2491,
      "Subspace": 2492,
      "(⋃": 2493,
      "s_meas": 2494,
      "od_cast": 2495,
      "starRingEnd": 2496,
      "ym": 2497,
      "ContMDiff": 2498,
      "compPartial": 2499,
      "compPartialSum": 2500,
      "₀,": 2501,
      "stance": 2502,
      "Instance": 2503,
      "alizedModule": 2504,
      "inferInstance": 2505,
      "_range": 2506,
      "jExponent": 2507,
      "pres": 2508,
      "hC": 2509,
      "✝),": 2510,
      "ToKernel": 2511,
      "HasShift": 2512,
      "y_1": 2513,
      "hf_lb": 2514,
      "Density": 2515,
      "point": 2516,
      "ult": 2517,
      "LocalRing": 2518,
      "fderiv": 2519,
      "s1": 2520,
      "s2": 2521,
      "root": 2522,
      "chart": 2523,
      "(⟨": 2524,
      "not_": 2525,
      "IsConnected": 2526,
      "IsMaximal": 2527,
      "BilinForm": 2528,
      "haveI": 2529,
      "diagram": 2530,
      "odup": 2531,
      "le_antisymm": 2532,
      "We": 2533,
      "CommMonoid": 2534,
      "rename": 2535,
      "CochainComplex": 2536,
      "$$>": 2537,
      "<$$>": 2538,
      "not": 2539,
      "IsUnit": 2540,
      "plits": 2541,
      "chartAt": 2542,
      "_const": 2543,
      "cau": 2544,
      "ush": 2545,
      "ball": 2546,
      "mE": 2547,
      "sl": 2548,
      "IsIso": 2549,
      "_injective": 2550,
      "evalFrom": 2551,
      "_obj": 2552,
      "≪≫": 2553,
      "IsLocalizedModule": 2554,
      "Valid": 2555,
      "Monotone": 2556,
      "ha22": 2557,
      "Succ": 2558,
      "ale": 2559,
      "_def": 2560,
      "ak": 2561,
      "ofColex": 2562,
      "hμs": 2563,
      "Weak": 2564,
      "tE": 2565,
      "t_": 2566,
      "hxi": 2567,
      "one_mul": 2568,
      "latticeClosure": 2569,
      "FAE": 2570,
      "TFAE": 2571,
      "HasSum": 2572,
      "Jord": 2573,
      "next": 2574,
      "uι": 2575,
      "rot": 2576,
      "Upper": 2577,
      "Jordan": 2578,
      "By": 2579,
      "zero_lt": 2580,
      "erentiable": 2581,
      "omposition": 2582,
      "Decomposition": 2583,
      "tensorRight": 2584,
      "Neg": 2585,
      "idue": 2586,
      "adjoin": 2587,
      "eq_or": 2588,
      "form": 2589,
      "EqOn": 2590,
      "_le_iff": 2591,
      "D_cont": 2592,
      "acob": 2593,
      "Constant": 2594,
      "_div": 2595,
      "ove": 2596,
      "smul_": 2597,
      "hf_ub": 2598,
      "half_": 2599,
      "densityProcess": 2600,
      "FDeriv": 2601,
      "ault": 2602,
      "fold": 2603,
      "τpos": 2604,
      "↑⌊": 2605,
      "mem_univ": 2606,
      "RestrictScalars": 2607,
      "₄).": 2608,
      "IsCompl": 2609,
      "zip": 2610,
      "presheaf": 2611,
      "ℒp": 2612,
      "product": 2613,
      "h𝒜": 2614,
      "ialization": 2615,
      "Preorder": 2616,
      "default": 2617,
      "mem_insert_of_mem": 2618,
      "PGam": 2619,
      "_stream": 2620,
      "out": 2621,
      "ide": 2622,
      "_sq": 2623,
      "cos": 2624,
      "withDensity": 2625,
      "PGame": 2626,
      "iUnion": 2627,
      "_ge": 2628,
      "hF": 2629,
      "₁‖": 2630,
      "⋯.": 2631,
      "hdiv": 2632,
      "tsum": 2633,
      "imageToKernel": 2634,
      "ShiftIso": 2635,
      "24": 2636,
      "hP": 2637,
      "plicate": 2638,
      "].": 2639,
      "hA": 2640,
      "_not": 2641,
      "Stream": 2642,
      "Residue": 2643,
      "fact": 2644,
      "h6": 2645,
      "ped": 2646,
      "setTo": 2647,
      "Monoidal": 2648,
      "_of_nonneg": 2649,
      "(-↑": 2650,
      "t_count": 2651,
      "Dual": 2652,
      "two": 2653,
      "₁⁻¹": 2654,
      "pec": 2655,
      "ht4": 2656,
      "ₗᵢ": 2657,
      "read": 2658,
      "ults": 2659,
      "hpq": 2660,
      "Results": 2661,
      "bdd": 2662,
      "ht6": 2663,
      "ective": 2664,
      "Memℒp": 2665,
      "bern": 2666,
      "false": 2667,
      "oull": 2668,
      "replicate": 2669,
      "Indep": 2670,
      "bernoull": 2671,
      "bernoulli": 2672,
      "toSub": 2673,
      "ois": 2674,
      "alois": 2675,
      "h_2": 2676,
      "_stream_eq": 2677,
      "_span": 2678,
      "associat": 2679,
      "fint": 2680,
      "h_s": 2681,
      "AddSubmonoid": 2682,
      "UpperSemicontinuous": 2683,
      "_4": 2684,
      "_is": 2685,
      "PartialOrder": 2686,
      "(↥(": 2687,
      "Point": 2688,
      "mem_sup": 2689,
      "If": 2690,
      "z_to_": 2691,
      "hgt": 2692,
      "combine": 2693,
      "₀'": 2694,
      "mapBifunctor": 2695,
      "HasFTaylorSeriesUpToOn": 2696,
      "jacob": 2697,
      "abv": 2698,
      "Two": 2699,
      "Triv": 2700,
      "4_to_": 2701,
      "tfae_4_to_": 2702,
      "JordanDecomposition": 2703,
      "tfae_4_to_3": 2704,
      "_nz": 2705,
      "den_nz": 2706,
      "'),": 2707,
      "OfLE": 2708,
      "key": 2709,
      "⋯⟩)": 2710,
      "finiteSpanningSetsIn": 2711,
      "TwoSquare": 2712,
      "Eff": 2713,
      "Th": 2714,
      "Effective": 2715,
      "way": 2716,
      "Alg": 2717,
      "integer": 2718,
      "h_nonempty": 2719,
      "LieSubmodule": 2720,
      "tfae_2": 2721,
      "inated": 2722,
      "↑(-": 2723,
      "Opens": 2724,
      "InnerRegular": 2725,
      "toMeasurable": 2726,
      "Bᴴ": 2727,
      "Vit": 2728,
      "iFamily": 2729,
      "↑↑(": 2730,
      "aliFamily": 2731,
      "toAddMonoidWithOne": 2732,
      "ht3": 2733,
      "ht5": 2734,
      "finiteSpanningSetsInOpen": 2735,
      "VitaliFamily": 2736,
      "Cᵒᵖ": 2737,
      "_app": 2738,
      "haJ": 2739,
      "_dvd": 2740,
      "colim": 2741,
      "_mem_": 2742,
      "eparable": 2743,
      "PullbackCone": 2744,
      "hs_m": 2745,
      "compl": 2746,
      "Filtered": 2747,
      "ircle": 2748,
      "_spec": 2749,
      "Projection": 2750,
      "parallelPair": 2751,
      "Away": 2752,
      "ata": 2753,
      "etOf": 2754,
      "reduced": 2755,
      ")^": 2756,
      "Ore": 2757,
      "itiv": 2758,
      "Change": 2759,
      "₃))": 2760,
      "PseudoMetricSpace": 2761,
      "HasDeriv": 2762,
      "LiftP": 2763,
      "Surjective": 2764,
      "Gamma1": 2765,
      "Cofix": 2766,
      "))))": 2767,
      "hcb": 2768,
      "h_cau": 2769,
      "OpenCover": 2770,
      "tfae_have": 2771,
      "cone": 2772,
      "ue_": 2773,
      "→₀": 2774,
      "_nnnorm": 2775,
      "main": 2776,
      "mul_one": 2777,
      "Presheaf": 2778,
      "_of_mem_": 2779,
      "CotangentSpace": 2780,
      "ResidueField": 2781,
      "prim": 2782,
      "itart": 2783,
      "Finsupp": 2784,
      "IsGalois": 2785,
      "Guitart": 2786,
      "GuitartExact": 2787,
      "15": 2788,
      "injective": 2789,
      "Number": 2790,
      "nDeriv": 2791,
      "atible": 2792,
      "FinMeas": 2793,
      "FiniteSpanningSetsIn": 2794,
      "AlgHom": 2795,
      "arg": 2796,
      "mem_singleton_iff": 2797,
      "_hom": 2798,
      "ihn": 2799,
      "MonoidalCategory": 2800,
      "FinMeasAdditive": 2801,
      "_univ": 2802,
      "m1": 2803,
      "equiv": 2804,
      "lyRegular": 2805,
      "Orth": 2806,
      "WithOne": 2807,
      "Localization": 2808,
      "AddGroupWithOne": 2809,
      "padicNorm": 2810,
      "WeaklyRegular": 2811,
      "EffectiveEpi": 2812,
      "OfVar": 2813,
      "compChange": 2814,
      "Products": 2815,
      "OfVariable": 2816,
      "compChangeOfVariable": 2817,
      "Out": 2818,
      "alIdeal": 2819,
      "ator": 2820,
      "FractionalIdeal": 2821,
      "Outer": 2822,
      "tfae_1_to_2": 2823,
      "NumberField": 2824,
      "icalComplex": 2825,
      "HomologicalComplex": 2826,
      "fu": 2827,
      "asIdeal": 2828,
      "IsE": 2829,
      "toMatrix": 2830,
      "↑(⨆": 2831,
      "ling": 2832,
      "orbit": 2833,
      "IsFiltered": 2834,
      "additive": 2835,
      "Preadditive": 2836,
      "_to_1": 2837,
      "158": 2838,
      "HAdd": 2839,
      "Weight": 2840,
      "_coe": 2841,
      "hAdd": 2842,
      "}))": 2843,
      "Dominated": 2844,
      "plic": 2845,
      "DominatedFinMeasAdditive": 2846,
      "push": 2847,
      "ngelian": 2848,
      "fract_eq_zero": 2849,
      "gcont": 2850,
      "olog": 2851,
      "self": 2852,
      "IsA": 2853,
      "ArgsRel": 2854,
      "P124": 2855,
      "ology": 2856,
      "RT": 2857,
      "WRT": 2858,
      "borel": 2859,
      "apos": 2860,
      "_symm": 2861,
      "hc1": 2862,
      "hneq": 2863,
      "smul_eq_mul": 2864,
      "compChangeOfVariables": 2865,
      "Element": 2866,
      "_mod_cast": 2867,
      "positiv": 2868,
      "Pow": 2869,
      "contra": 2870,
      "choose_spec": 2871,
      "positivity": 2872,
      "ylin": 2873,
      "_of_pos": 2874,
      "all_": 2875,
      "_summable": 2876,
      "readAux": 2877,
      "ylinder": 2878,
      "EMetricSpace": 2879,
      "cexp": 2880,
      "contDiffGroupoid": 2881,
      "InnerRegularWRT": 2882,
      "mon": 2883,
      "vComp": 2884,
      "ision": 2885,
      "hb20": 2886,
      "e_f": 2887,
      "zero_lt_one": 2888,
      "PresheafedSpace": 2889,
      "EffectiveEpiFamily": 2890,
      "IsEngelian": 2891,
      "Ra": 2892,
      "⟨?": 2893,
      "ised": 2894,
      "_eq_one_": 2895,
      "Raised": 2896,
      "Ang": 2897,
      "_image": 2898,
      "balanc": 2899,
      "is_": 2900,
      "coh": 2901,
      "Structomorph": 2902,
      "Cancels": 2903,
      "Angle": 2904,
      "_fst": 2905,
      "ha0": 2906,
      "Compatible": 2907,
      "trace": 2908,
      "OfElement": 2909,
      "induction_": 2910,
      "FamilyOfElement": 2911,
      "Homology": 2912,
      "plicity": 2913,
      "FamilyOfElements": 2914,
      "hcd": 2915,
      "spanSingleton": 2916,
      "Differentiable": 2917,
      "Target": 2918,
      "_cons": 2919,
      "disjoint": 2920,
      "DistribMulAction": 2921,
      "Trivialization": 2922,
      "rnDeriv": 2923,
      "kernelSubobjectMap": 2924,
      "ByMonic": 2925,
      "isionRing": 2926,
      "hf_int": 2927,
      "Eqv": 2928,
      "Fac": 2929,
      "])": 2930,
      "u𝕜": 2931,
      "xe": 2932,
      "ecting": 2933,
      "minFac": 2934,
      "mem_setOf": 2935,
      "_measure": 2936,
      "associator": 2937,
      "Ob": 2938,
      "PE": 2939,
      "ofNat": 2940,
      "uctor": 2941,
      "conductor": 2942,
      "')⁻¹": 2943,
      "TensorProduct": 2944,
      "step3": 2945,
      "vert": 2946,
      "exact_mod_cast": 2947,
      "tfae_2_to_1": 2948,
      "coherent": 2949,
      "itz": 2950,
      "isClosed": 2951,
      "Inters": 2952,
      "aeval": 2953,
      "measure_mono": 2954,
      "Intersecting": 2955,
      "cR": 2956,
      "las": 2957,
      "trTape": 2958,
      "_mul_left": 2959,
      "weightSpace": 2960,
      "_empty": 2961,
      "Computation": 2962,
      "hg2": 2963,
      "ContinuousLinearMap": 2964,
      "RelPrime": 2965,
      "sumTrans": 2966,
      "Theta": 2967,
      "sumTransform": 2968,
      "iSup": 2969,
      "IsRelPrime": 2970,
      "hyd": 2971,
      "_pi": 2972,
      "ppconts": 2973,
      "onorm": 2974,
      "DistribLattice": 2975,
      "onormal": 2976,
      "DivisionRing": 2977,
      "reverseAux": 2978,
      "Circle": 2979,
      "Nodup": 2980,
      "b0": 2981,
      "iTheta": 2982,
      "_nth": 2983,
      "jacobiTheta": 2984,
      "Sha": 2985,
      "gam": 2986,
      "HasFinite": 2987,
      "hU0": 2988,
      "start": 2989,
      "((-": 2990,
      "h_lb": 2991,
      "congr_arg": 2992,
      "EqvGen": 2993,
      "element": 2994,
      "gint": 2995,
      "MulSemiring": 2996,
      "tfae_3": 2997,
      "ullMeasurableSet": 2998,
      "Orthonormal": 2999,
      "Shape": 3000,
      "MulSemiringAction": 3001,
      "hst": 3002,
      "ToLimit": 3003,
      "Integer": 3004,
      "diagonal": 3005,
      "LimitToLimit": 3006,
      "__src": 3007,
      "colimitLimitToLimit": 3008,
      "toNatCast": 3009,
      "rotate": 3010,
      "integerNormalization": 3011,
      "colimitLimitToLimitColimit": 3012,
      "ates": 3013,
      "tensorLeft": 3014,
      "ihxyn": 3015,
      "codRestrict": 3016,
      "AlgHomClass": 3017,
      "Le_": 3018,
      "AddOfLE": 3019,
      "ExistsAddOfLE": 3020,
      "compPartialSumTarget": 3021,
      "(⇑(": 3022,
      "keys": 3023,
      "b_1": 3024,
      "omial": 3025,
      "ative": 3026,
      "imates": 3027,
      "LinearOn": 3028,
      "MonCat": 3029,
      "Approximates": 3030,
      "ApproximatesLinearOn": 3031,
      "Spectrum": 3032,
      "Separable": 3033,
      "mod": 3034,
      "mem_union": 3035,
      "balanced": 3036,
      "coprime": 3037,
      "mem_Icc": 3038,
      "commShiftIso": 3039,
      "_compl": 3040,
      "IsLocalStructomorph": 3041,
      "OuterMeasure": 3042,
      "IsLocalStructomorphWithinAt": 3043,
      "s0": 3044,
      "‖(": 3045,
      "Cokernel": 3046,
      "homology": 3047,
      "isoG": 3048,
      "StructureGroupoid": 3049,
      "Gamma0": 3050,
      ")})": 3051,
      "_C": 3052,
      "NonAssoc": 3053,
      "baseSet": 3054,
      "Sublattice": 3055,
      "hc2": 3056,
      "LinearOrderedCommSemiring": 3057,
      "ComplexShape": 3058,
      "Data": 3059,
      "dis_": 3060,
      "gen": 3061,
      "left_inv": 3062,
      "a_dis_": 3063,
      "a_dis_Sup_s": 3064,
      "ho": 3065,
      "lt_of_le": 3066,
      "Triangle": 3067,
      "sf": 3068,
      "true_": 3069,
      "prop": 3070,
      "SFinite": 3071,
      "h_summable": 3072,
      "hyp": 3073,
      "_lt_n": 3074,
      "Arrows": 3075,
      "tmul": 3076,
      "IsCountablyGenerated": 3077,
      "_mul_right": 3078,
      "noncomm": 3079,
      "ChartAt": 3080,
      "Homotop": 3081,
      "cylinder": 3082,
      "alStar": 3083,
      "✝²⁰": 3084,
      "NonZero": 3085,
      "mulOption": 3086,
      "Types": 3087,
      "map_apply": 3088,
      "commut": 3089,
      "condexpL1CLM": 3090,
      "iscrete": 3091,
      "Inj": 3092,
      "Atlas": 3093,
      "OfEq": 3094,
      "CharZero": 3095,
      "ircum": 3096,
      "Sₘ": 3097,
      "affine": 3098,
      "mor": 3099,
      "supClosed": 3100,
      "h_ub": 3101,
      "finset": 3102,
      "extChartAt": 3103,
      "₁⟩": 3104,
      "_surjective": 3105,
      "hne": 3106,
      "le_rfl": 3107,
      "Sym": 3108,
      "|↑": 3109,
      "conjExponent": 3110,
      "add_comm": 3111,
      "htt2": 3112,
      "WellOrder": 3113,
      "ihyxn": 3114,
      "NullMeasurableSet": 3115,
      "spectrum": 3116,
      "IsNonZero": 3117,
      "isOpen": 3118,
      "hfs": 3119,
      "IsIntegralClosure": 3120,
      "Discrete": 3121,
      "rad": 3122,
      "IsWellOrder": 3123,
      "encd": 3124,
      "Ind": 3125,
      "toNeg": 3126,
      "hft": 3127,
      "_set": 3128,
      "encdec": 3129,
      "unfold": 3130,
      "hf1": 3131,
      "ext1": 3132,
      "htt4": 3133,
      "IsLocallyConstant": 3134,
      "PiCoprod": 3135,
      "mem_support": 3136,
      "elementalStar": 3137,
      "noncommPiCoprod": 3138,
      "elementalStarAlgebra": 3139,
      "AddCircle": 3140,
      "cycleType": 3141,
      "Empty": 3142,
      "lhs": 3143,
      "₂)).": 3144,
      "mem_image": 3145,
      "whiskerRight": 3146,
      "h_int_bound_fs": 3147,
      "hfs_int": 3148,
      "hfs_bound": 3149,
      "eq_or_ne": 3150,
      "OreSet": 3151,
      "AList": 3152,
      "_congr": 3153,
      "hgs": 3154,
      "stop": 3155,
      "LiftProp": 3156,
      "Biproduct": 3157,
      "h_int_bound_gs": 3158,
      "hgs_int": 3159,
      "hgs_bound": 3160,
      "een": 3161,
      "ween": 3162,
      "⊤)": 3163,
      "etween": 3164,
      "entral": 3165,
      "FP": 3166,
      "sen": 3167,
      "mapCone": 3168,
      "iltered": 3169,
      "mersen": 3170,
      "maximalAtlas": 3171,
      "infClosed": 3172,
      "NonAssocSemiring": 3173,
      "intTr": 3174,
      "ofArrows": 3175,
      "illing": 3176,
      "WithTop": 3177,
      "hb0": 3178,
      "divMod": 3179,
      "delRoot": 3180,
      "unitIso": 3181,
      "ByMonicAux": 3182,
      "divModByMonicAux": 3183,
      "fz": 3184,
      "wf": 3185,
      "oned": 3186,
      "edge": 3187,
      "ha1": 3188,
      "htt3": 3189,
      "fract_ne_zero": 3190,
      "half_z": 3191,
      "_ge_atTop": 3192,
      "z_to_half_z": 3193,
      "induction_on": 3194,
      "intTrace": 3195,
      "reg": 3196,
      "toLp": 3197,
      "Conv": 3198,
      "integrableOn": 3199,
      "mersenne": 3200,
      "hX": 3201,
      "h_add": 3202,
      "WithBot": 3203,
      "factors": 3204,
      "colimMap": 3205,
      "parallelPairHom": 3206,
      "inary": 3207,
      "normSq": 3208,
      "hyl": 3209,
      "ext_iff": 3210,
      "map_cyclotomic": 3211,
      "Lin": 3212,
      "hitting": 3213,
      "lu": 3214,
      "ιB": 3215,
      "mem_range": 3216,
      "_fun": 3217,
      "le_of_lt": 3218,
      "idpoint": 3219,
      "Orthogonal": 3220,
      "hn_pos": 3221,
      "HasCoequalizer": 3222,
      "hr_lt_n": 3223,
      "Localizer": 3224,
      "tendsto_id": 3225,
      "orthogonalProjection": 3226,
      "LocalizerMorphism": 3227,
      "Ev": 3228,
      "((∫": 3229,
      "ofiltered": 3230,
      "e_iff": 3231,
      "right_inv": 3232,
      "subst": 3233,
      "Unitor": 3234,
      "one_div": 3235,
      "measurableSet": 3236,
      "Rₘ": 3237,
      "h_one": 3238,
      "fourierBasis": 3239,
      "Walking": 3240,
      "Binary": 3241,
      "compProd": 3242,
      "_mem_nhds": 3243,
      "limitCone": 3244,
      "AsSmall": 3245,
      "trans_le": 3246,
      "stopped": 3247,
      "ti": 3248,
      "₂₃": 3249,
      "toColex": 3250,
      "toDual": 3251,
      "adj": 3252,
      "small_": 3253,
      "small_k": 3254,
      "CommGroup": 3255,
      "loc": 3256,
      "erior": 3257,
      "Mₗ": 3258,
      "PTendsto": 3259,
      "hD": 3260,
      "xβ_in_K": 3261,
      "αxβ_in_K": 3262,
      "als": 3263,
      "uncurry": 3264,
      "toAddMonoid": 3265,
      "map_smul": 3266,
      "mem_setOf_eq": 3267,
      "De": 3268,
      "{↑(": 3269,
      "₁₃": 3270,
      "CommShift": 3271,
      "toCotangent": 3272,
      "Lang": 3273,
      "uX": 3274,
      "uage": 3275,
      "map_zero": 3276,
      "FunLike": 3277,
      "norm_cast": 3278,
      "(↑↑": 3279,
      "algebraMapSubmonoid": 3280,
      "IsCofiltered": 3281,
      "_of_forall": 3282,
      "_iUnion": 3283,
      "units": 3284,
      "₅₁₂₃₄": 3285,
      "Triangular": 3286,
      "ContMDiffOn": 3287,
      "bernoulliFun": 3288,
      "Language": 3289,
      "Fil": 3290,
      "Whisker": 3291,
      "tration": 3292,
      "isoWhisker": 3293,
      "NormalizationMonoid": 3294,
      "slice": 3295,
      "Filtration": 3296,
      "Fn": 3297,
      "vsub": 3298,
      "NormedRing": 3299,
      "AffineSpace": 3300,
      "Ig": 3301,
      "⋯))": 3302,
      "Inf": 3303,
      "col": 3304,
      "pose": 3305,
      "h_3": 3306,
      "(-(": 3307,
      "nthLe_": 3308,
      "DifferentiableWithinAt": 3309,
      "SNorm": 3310,
      "_Icc": 3311,
      "invFun": 3312,
      "h2u": 3313,
      "InnerConst": 3314,
      "ihl": 3315,
      "htt5": 3316,
      "htt6": 3317,
      "snormLE": 3318,
      "FDerivOfEq": 3319,
      "HasCoequalizers": 3320,
      "SNormFDerivOfEq": 3321,
      "snormLESNormFDerivOfEq": 3322,
      "snormLESNormFDerivOfEqInnerConst": 3323,
      "_int": 3324,
      "dom": 3325,
      "mal": 3326,
      "₅₃₄": 3327,
      "✝¹,": 3328,
      "ending": 3329,
      "_eq_iff": 3330,
      "opens": 3331,
      "gamation": 3332,
      "malgamation": 3333,
      "gu": 3334,
      "IsTriangular": 3335,
      "isFalse": 3336,
      "hff": 3337,
      "izable": 3338,
      "_eq_zero_iff": 3339,
      "StarSubalgebra": 3340,
      "Preserv": 3341,
      "IsTriangularizable": 3342,
      "HC": 3343,
      "rpow": 3344,
      "_to_5": 3345,
      "inter_subset": 3346,
      "whiskerLeft": 3347,
      "_measurable": 3348,
      "Fitting": 3349,
      "erw": 3350,
      "ice_": 3351,
      "mul_zero": 3352,
      "step4": 3353,
      "derivative": 3354,
      "generateFrom": 3355,
      "FittingComp": 3356,
      "Quiv": 3357,
      "IsK": 3358,
      "DecidableRel": 3359,
      "Power": 3360,
      "_eq_left": 3361,
      "denom": 3362,
      "eventually_atTop": 3363,
      "Quiver": 3364,
      "ihr": 3365,
      "AddHom": 3366,
      "ContinuousLinearEquiv": 3367,
      "↑‖↑↑↑((": 3368,
      "AffineSubspace": 3369,
      "hKK": 3370,
      "commutes": 3371,
      "Func": 3372,
      "Hol": 3373,
      "¬∃": 3374,
      "inner": 3375,
      "inst_1": 3376,
      "rection": 3377,
      "anSubalgebra": 3378,
      "artanSubalgebra": 3379,
      "_eq_bot": 3380,
      "direction": 3381,
      "IsCartanSubalgebra": 3382,
      "AffineLocally": 3383,
      "wittStructureRat": 3384,
      "collinear": 3385,
      "IsKilling": 3386,
      "bs": 3387,
      "hcont": 3388,
      "₁),": 3389,
      "ick": 3390,
      "isoWhiskerLeft": 3391,
      "fp": 3392,
      "rec": 3393,
      "revert": 3394,
      "ural": 3395,
      "oneda": 3396,
      "(∑'": 3397,
      "Between": 3398,
      "Card": 3399,
      "Central": 3400,
      "ionBetween": 3401,
      "derivWithin": 3402,
      "Forall": 3403,
      "regionBetween": 3404,
      "CentralSeries": 3405,
      "cs": 3406,
      "circum": 3407,
      "move": 3408,
      "yβ_in_K": 3409,
      "αyβ_in_K": 3410,
      "interior": 3411,
      "✝²¹": 3412,
      "hfi": 3413,
      "_of_mul": 3414,
      "mem_assert": 3415,
      "_eq_add": 3416,
      "_rpow": 3417,
      "s_1": 3418,
      "_nonpos": 3419,
      "_eq_one": 3420,
      "tendsto_order": 3421,
      "br": 3422,
      "iber": 3423,
      "ink": 3424,
      "struct": 3425,
      "Isom": 3426,
      "subfield": 3427,
      "rel": 3428,
      "ico": 3429,
      "IntCast": 3430,
      "class": 3431,
      "shiftFunctorAdd": 3432,
      "auto": 3433,
      "affineSpan": 3434,
      "_insert": 3435,
      "Inter": 3436,
      "aeStronglyMeasurable": 3437,
      "coeFn": 3438,
      "stoppedValue": 3439,
      "ιA": 3440,
      "FinLin": 3441,
      "_snd": 3442,
      "hg_eq": 3443,
      "_ofNat": 3444,
      "NonemptyFinLin": 3445,
      "tendsto_const": 3446,
      "_natCast": 3447,
      "true_and": 3448,
      "NonemptyFinLinOrd": 3449,
      "_closedBall": 3450,
      "OrderedAddCommMonoid": 3451,
      "EMetric": 3452,
      "roid": 3453,
      "_swap": 3454,
      "ertible": 3455,
      "OneHom": 3456,
      "sourceAffineLocally": 3457,
      "h_lb_pos": 3458,
      "urality": 3459,
      "‖↑↑": 3460,
      "⟨(": 3461,
      "multi": 3462,
      "_union": 3463,
      "orBimod": 3464,
      "hxK": 3465,
      "_of_not": 3466,
      "AssociatorBimod": 3467,
      "h_splits": 3468,
      "tendsto_const_nhds": 3469,
      "ga": 3470,
      "h_mono": 3471,
      "ping": 3472,
      "u_diff": 3473,
      "haar": 3474,
      "mul_nonneg": 3475,
      "(↑↑↑": 3476,
      "presheafHom": 3477,
      "IndepFun": 3478,
      "eo": 3479,
      "hpos": 3480,
      "sch": 3481,
      "edArrow": 3482,
      "IsTotal": 3483,
      "refine_4": 3484,
      "uredArrow": 3485,
      "h2p": 3486,
      "Units": 3487,
      "permutationsAux": 3488,
      "fx": 3489,
      "part": 3490,
      "⟨↑": 3491,
      "toEmbedding": 3492,
      "Liftp": 3493,
      "_eq_one_iff": 3494,
      "PFunctor": 3495,
      "Xᘁ": 3496,
      "ower": 3497,
      "‖↑(": 3498,
      "_simp": 3499,
      "↑(↑↑": 3500,
      "Object": 3501,
      "USize": 3502,
      "hid": 3503,
      "ιb": 3504,
      "Realize": 3505,
      "mem_toFinset": 3506,
      "setToL1": 3507,
      "_Ioi": 3508,
      "sian": 3509,
      "sieve": 3510,
      "ιa": 3511,
      "toTopologicalSpace": 3512,
      "ussian": 3513,
      "decide": 3514,
      "eventually_ge_atTop": 3515,
      "toDualContinuousMultilinearMap": 3516,
      "gaussian": 3517,
      "rat": 3518,
      "isLimit": 3519,
      "undle": 3520,
      "Param": 3521,
      "nth_stream_eq": 3522,
      "Invertible": 3523,
      "InjOn": 3524,
      "dim": 3525,
      "toOneHom": 3526,
      "(↑((": 3527,
      "comp_apply": 3528,
      "angle": 3529,
      "OrderedRing": 3530,
      "lued": 3531,
      "aux": 3532,
      "dual": 3533,
      "hort": 3534,
      "ys_": 3535,
      "str": 3536,
      "ofReal_two": 3537,
      "UniformGroup": 3538,
      "hrpos_i": 3539,
      "Bundle": 3540,
      "_sUnion": 3541,
      "hg1": 3542,
      "mul_mem": 3543,
      "cept": 3544,
      "StrictMono": 3545,
      "IsAmalgamation": 3546,
      "Cardinal": 3547,
      "(↑↑↑((": 3548,
      "hM": 3549,
      "lfp": 3550,
      "SetLike": 3551,
      "_eq_restrict": 3552,
      "coe_mk": 3553,
      "fixed": 3554,
      "hμm": 3555,
      "lfpApprox": 3556,
      ")/": 3557,
      "Splits": 3558,
      "ca": 3559,
      "ependent": 3560,
      "⟩.": 3561,
      "injection": 3562,
      "hxlb": 3563,
      "vec": 3564,
      "zero_eq": 3565,
      "independent": 3566,
      "succ_nth": 3567,
      "Height": 3568,
      "Associated": 3569,
      "_le_z": 3570,
      "setToFun": 3571,
      ")/(": 3572,
      "succ_nth_stream_eq": 3573,
      "Gro": 3574,
      "Range": 3575,
      "kTopology": 3576,
      "list": 3577,
      "toNNReal": 3578,
      "eckTopology": 3579,
      "rightUnitor": 3580,
      "pow_one": 3581,
      "dieckTopology": 3582,
      "thendieckTopology": 3583,
      "StarAlgHomClass": 3584,
      "StarOrderedRing": 3585,
      "Matroid": 3586,
      "dg0": 3587,
      "lt_of_le_of_lt": 3588,
      "permutationsAux2": 3589,
      "GrothendieckTopology": 3590,
      "bers": 3591,
      "etry": 3592,
      "toMeasure": 3593,
      "_eq_mk": 3594,
      "Multico": 3595,
      "↑‖↑↑": 3596,
      "OneSpectrum": 3597,
      "_subset_iff": 3598,
      "HeightOneSpectrum": 3599,
      "Multicoequalizer": 3600,
      "deg": 3601,
      "rTensor": 3602,
      "isScalarTower": 3603,
      "enter": 3604,
      "LinearIndependent": 3605,
      "and_": 3606,
      "hlen": 3607,
      "Concrete": 3608,
      "_of_is": 3609,
      "ConcreteCategory": 3610,
      "posFittingComp": 3611,
      "_eq_top": 3612,
      "span_singleton": 3613,
      "pow_succ": 3614,
      "mul_div": 3615,
      "sInf": 3616,
      "structuredArrow": 3617,
      "![": 3618,
      "12": 3619,
      "_indicator": 3620,
      "|⌉": 3621,
      "₃.": 3622,
      "⌈|": 3623,
      "ree_": 3624,
      "ToFun": 3625,
      "OrEmpty": 3626,
      "_of_ne": 3627,
      "h_lim": 3628,
      "abs_": 3629,
      "HasDerivWithinAt": 3630,
      "IsCofilteredOrEmpty": 3631,
      "Dvd": 3632,
      "_wf": 3633,
      "hφ": 3634,
      "lic": 3635,
      "accept": 3636,
      "ening": 3637,
      "thick": 3638,
      "map_comp": 3639,
      "tails": 3640,
      "inits": 3641,
      "balanceL": 3642,
      "h_ub_pos": 3643,
      "LiftPropOn": 3644,
      "Convex": 3645,
      "map_cyclotomic_int": 3646,
      "thickening": 3647,
      "psch": 3648,
      "((↑": 3649,
      "Lipsch": 3650,
      "HasHomology": 3651,
      "Lipschitz": 3652,
      "PUnit": 3653,
      "basis": 3654,
      "cle": 3655,
      "stere": 3656,
      "upper": 3657,
      "ish": 3658,
      "CategoryTheory": 3659,
      "Multiple": 3660,
      "weighted": 3661,
      "h_sep": 3662,
      "IntegerMultiple": 3663,
      "finsetIntegerMultiple": 3664,
      "PowerSeries": 3665,
      "accepts": 3666,
      "clear": 3667,
      "#(": 3668,
      "Cau": 3669,
      "I_1": 3670,
      "LSeries": 3671,
      "sym": 3672,
      "ula": 3673,
      "Formula": 3674,
      "IsChain": 3675,
      "LSeriesSummable": 3676,
      "Block": 3677,
      "Short": 3678,
      "center": 3679,
      "yn": 3680,
      "lean": 3681,
      "res": 3682,
      "ulift": 3683,
      "hg_cont": 3684,
      "Boolean": 3685,
      "circumsphere": 3686,
      "D_pos": 3687,
      "Ioc": 3688,
      "_congr_": 3689,
      "first": 3690,
      "iation": 3691,
      "m2": 3692,
      "eq_zero": 3693,
      "_iff_eq": 3694,
      "one_lt": 3695,
      "Numbers": 3696,
      "_ind": 3697,
      "_bound": 3698,
      "ime": 3699,
      "isNilpotent": 3700,
      "_null": 3701,
      "hg_meas": 3702,
      "AssocList": 3703,
      "IsConjExponent": 3704,
      "field_simp": 3705,
      "nonempty_Icc": 3706,
      "rootSpace": 3707,
      "gaussianReal": 3708,
      "_diff": 3709,
      "oToFun": 3710,
      "le_sup": 3711,
      "cover": 3712,
      "hyz": 3713,
      "huv": 3714,
      "nonempty_of_mem": 3715,
      "alen": 3716,
      "_mem_nhdsWithin": 3717,
      "stereoToFun": 3718,
      "_5": 3719,
      "edist": 3720,
      "cast_": 3721,
      "_tmul": 3722,
      "split_": 3723,
      "✝))": 3724,
      "⟩))": 3725,
      "ingale": 3726,
      "zero_mul": 3727,
      "artingale": 3728,
      "hgb": 3729,
      "oothNumbers": 3730,
      "subset_closure": 3731,
      "HasDerivAt": 3732,
      "g_mem": 3733,
      "hnorm": 3734,
      "ia": 3735,
      "nnnorm": 3736,
      "ray": 3737,
      "_support": 3738,
      "self_mem_nhdsWithin": 3739,
      "_preimage": 3740,
      "fab": 3741,
      "hH": 3742,
      "√↑": 3743,
      "mem_diff": 3744,
      "opLinearEquiv": 3745,
      "cyclic": 3746,
      "PropertyIsLocal": 3747,
      "_real": 3748,
      "primPart": 3749,
      "monomial": 3750,
      "Time": 3751,
      "fle": 3752,
      "spe": 3753,
      "Equation": 3754,
      "cialize": 3755,
      "hrsz": 3756,
      "hST": 3757,
      "Refl": 3758,
      "slice_": 3759,
      "specialize": 3760,
      "70": 3761,
      "hh": 3762,
      "₂]": 3763,
      "₄],": 3764,
      "toJordanDecomposition": 3765,
      "CostructuredArrow": 3766,
      "jectiv": 3767,
      "hww": 3768,
      "Fork": 3769,
      "tfae_3_to_5": 3770,
      "multiplicity": 3771,
      "lue": 3772,
      "ιK": 3773,
      "if_pos": 3774,
      "_subtype": 3775,
      "LiftRel": 3776,
      "sigma": 3777,
      "Cycle": 3778,
      "IsZero": 3779,
      "ions": 3780,
      "hg_eq_restrict": 3781,
      "sep": 3782,
      "RootSubalgebra": 3783,
      "points": 3784,
      "edges": 3785,
      "endingCentralSeries": 3786,
      "bal": 3787,
      "₁₅": 3788,
      "₂✝)": 3789,
      "isBl": 3790,
      "HasBiproduct": 3791,
      "mul_apply": 3792,
      "MDiffWithinAt": 3793,
      "unitsSMul": 3794,
      "isBlack": 3795,
      "V2": 3796,
      "reCLM": 3797,
      "✝²²": 3798,
      "✝²³": 3799,
      "✝²⁴": 3800,
      "measure_ne_top": 3801,
      "PseudoEMetricSpace": 3802,
      "Homotopy": 3803,
      "Blocks": 3804,
      "(⊤": 3805,
      "_ae": 3806,
      "¬∀": 3807,
      "hmn": 3808,
      "lt_": 3809,
      "exists_prop": 3810,
      "continuousOn": 3811,
      "coprim": 3812,
      "alence": 3813,
      "_coprime": 3814,
      "eq_top": 3815,
      "inv_mul": 3816,
      "BoundedFormula": 3817,
      "haarAddCircle": 3818,
      "firstDiff": 3819,
      "Seg": 3820,
      "nih": 3821,
      "tprod": 3822,
      "✝²⁵": 3823,
      "mem_prod": 3824,
      "_lt_top": 3825,
      "olve": 3826,
      "smoothNumbers": 3827,
      "Variation": 3828,
      "[↑": 3829,
      "graph": 3830,
      "hν": 3831,
      "opt": 3832,
      "⋂₀": 3833,
      "))⁻¹": 3834,
      "ifs": 3835,
      "hable": 3836,
      "castSucc": 3837,
      "dgmem": 3838,
      "raded": 3839,
      "split_ifs": 3840,
      "Source": 3841,
      "glued": 3842,
      "xa": 3843,
      "⋃₀": 3844,
      "_mon": 3845,
      "Array": 3846,
      "succ_injective": 3847,
      "hik": 3848,
      "hjk": 3849,
      "hasSum": 3850,
      "compPartialSumSource": 3851,
      "monic": 3852,
      "true_and_iff": 3853,
      "GH": 3854,
      "L0": 3855,
      "Mᵢ": 3856,
      "how": 3857,
      "show": 3858,
      "lepi": 3859,
      "✝²⁶": 3860,
      "toAddHom": 3861,
      "igroup": 3862,
      "cocone": 3863,
      "imalGH": 3864,
      "parallelepi": 3865,
      "parallelepiped": 3866,
      "chy": 3867,
      "hextend": 3868,
      "↑⟨": 3869,
      "u_lt": 3870,
      "IsCoprime": 3871,
      "pow_add": 3872,
      "cast_pow": 3873,
      "HasZeroObject": 3874,
      "_fact": 3875,
      "eq_or_lt": 3876,
      "fxy": 3877,
      "hextends": 3878,
      "EReal": 3879,
      "Simp": 3880,
      "m_empty": 3881,
      "real": 3882,
      "comp_": 3883,
      "property": 3884,
      "_toMeasurable": 3885,
      "Bicat": 3886,
      "ih1": 3887,
      "pa": 3888,
      "μa": 3889,
      "encard": 3890,
      "✝²⁷": 3891,
      "✝²⁸": 3892,
      "✝²⁹": 3893,
      "annih": 3894,
      "ilator": 3895,
      "ections": 3896,
      "index": 3897,
      "le_trans": 3898,
      "UniqueMDiffWithinAt": 3899,
      "injEq": 3900,
      "_congr_ae": 3901,
      "Bicategory": 3902,
      "annihilator": 3903,
      "'₁": 3904,
      "Glue": 3905,
      "Mcongr": 3906,
      "rl": 3907,
      "₆)": 3908,
      "IsColimit": 3909,
      "isS": 3910,
      "e_6": 3911,
      "hsC": 3912,
      "OnBall": 3913,
      "measure_mono_null": 3914,
      "classical": 3915,
      "PowerSeriesOnBall": 3916,
      "GlueData": 3917,
      "Qu": 3918,
      "_map_": 3919,
      "find": 3920,
      "⟯)": 3921,
      "hf2": 3922,
      "KernelFork": 3923,
      "gcd_eq_one_iff": 3924,
      "kxO": 3925,
      "hκν": 3926,
      "Def": 3927,
      "gcd_eq_one_iff_coprime": 3928,
      "Fa": 3929,
      "singleton": 3930,
      "))]": 3931,
      "_not_": 3932,
      "mk_": 3933,
      "Submartingale": 3934,
      "OnWith": 3935,
      "_of_subset": 3936,
      "OfLeft": 3937,
      "Precoherent": 3938,
      "h0n": 3939,
      "ConeOfLeft": 3940,
      "pullbackConeOfLeft": 3941,
      "LocallyConstant": 3942,
      "IsPrimary": 3943,
      "HasFDeriv": 3944,
      "Adjoint": 3945,
      "rename_": 3946,
      "uᶜ": 3947,
      "₄),": 3948,
      "ₛₗ": 3949,
      "lower": 3950,
      "lt_succ": 3951,
      "nonzero": 3952,
      "by_contra": 3953,
      "totalVariation": 3954,
      "fromBlocks": 3955,
      "_prod": 3956,
      "yoneda": 3957,
      "uniform": 3958,
      "toUSize": 3959,
      "_eq_self": 3960,
      "epar": 3961,
      "PullbackShift": 3962,
      "hash": 3963,
      "Coproduct": 3964,
      "_nnnorm_sub": 3965,
      "Even": 3966,
      "(⨆": 3967,
      "LIntegral": 3968,
      "_Ici": 3969,
      "aI": 3970,
      "aJ": 3971,
      "xn": 3972,
      "_sing": 3973,
      "mem_map": 3974,
      "ilted": 3975,
      "distrib": 3976,
      "sum_": 3977,
      "Op": 3978,
      "Wf": 3979,
      "line": 3980,
      "sections": 3981,
      "tilted": 3982,
      "funext": 3983,
      "isB": 3984,
      "hfs_meas": 3985,
      "_midpoint": 3986,
      "h_bound": 3987,
      "hvw": 3988,
      "PreservesCoequalizer": 3989,
      "ne_zero": 3990,
      "opensRange": 3991,
      "ys_hd": 3992,
      "DvdMonoid": 3993,
      "eparated": 3994,
      "WfDvdMonoid": 3995,
      "target": 3996,
      "vl": 3997,
      "zeroRootSubalgebra": 3998,
      "pow_zero": 3999,
      "SeminormedRing": 4000,
      "owerSet": 4001,
      "Coproducts": 4002,
      "En": 4003,
      "Rₐ": 4004,
      "dic": 4005,
      "wr": 4006,
      "ha_ne_zero": 4007,
      "normSeminorm": 4008,
      "hnm": 4009,
      "orderIso": 4010,
      "finite_": 4011,
      "InvariantProp": 4012,
      "PreservesLimit": 4013,
      "PosDef": 4014,
      "inferInstanceAs": 4015,
      "OrthonormalBasis": 4016,
      "Isometry": 4017,
      ")|": 4018,
      "_fract_ne_zero": 4019,
      "aem": 4020,
      "ihx": 4021,
      "ate_": 4022,
      "easurable": 4023,
      "toProd": 4024,
      "hg_bound": 4025,
      "nth_fract_ne_zero": 4026,
      "bound_integrable": 4027,
      "_add_": 4028,
      "eq_empty": 4029,
      "factor": 4030,
      "aemeasurable": 4031,
      "V1": 4032,
      "V3": 4033,
      "V4": 4034,
      "hmain": 4035,
      "₀)": 4036,
      "Init": 4037,
      "_nil": 4038,
      "simple": 4039,
      "liminf": 4040,
      "mem_to": 4041,
      "delta": 4042,
      "kyO": 4043,
      "IsLowerSet": 4044,
      "eventually_": 4045,
      "IsAcyclic": 4046,
      "contrapose": 4047,
      "₁₅₂": 4048,
      "Graded": 4049,
      "_lhs": 4050,
      "max_le_iff": 4051,
      "h_right": 4052,
      "conv_lhs": 4053,
      "one_le": 4054,
      "eous": 4055,
      "eq_top_iff": 4056,
      "Zoom": 4057,
      "huniv": 4058,
      "nodup": 4059,
      "oangle": 4060,
      "uIcc": 4061,
      "₁]": 4062,
      "u_lim": 4063,
      "omeg": 4064,
      "✝³⁰": 4065,
      "hf_meas": 4066,
      "zero_add": 4067,
      "_eq_right": 4068,
      "MvPFunctor": 4069,
      "hf_Indep": 4070,
      "tendsto_atTop": 4071,
      "_cancel_right": 4072,
      "trans_lt": 4073,
      "DiscreteTopology": 4074,
      "hνν": 4075,
      "write": 4076,
      "Zoomed": 4077,
      "omega": 4078,
      "₃₅": 4079,
      "hxz": 4080,
      "_min": 4081,
      "OfIso": 4082,
      "_eq_iUnion": 4083,
      "succ_le": 4084,
      "Equivalence": 4085,
      "StarModule": 4086,
      "LocalInvariantProp": 4087,
      "pair": 4088,
      "₃₅₄": 4089,
      "Len": 4090,
      "_induction": 4091,
      "cancel": 4092,
      "cthickening": 4093,
      "fals": 4094,
      "zmod": 4095,
      "⟦(-": 4096,
      "ofι": 4097,
      "alizing": 4098,
      "condCount": 4099,
      "hIX": 4100,
      "ContDiffAt": 4101,
      "f_lim": 4102,
      "generalizing": 4103,
      "_fintype": 4104,
      "openCover": 4105,
      "HasFiniteCoproducts": 4106,
      "hnormeq": 4107,
      "[-": 4108,
      "mkₐ": 4109,
      "All": 4110,
      "NonUnit": 4111,
      "restrict_apply": 4112,
      "symmDiff": 4113,
      "_eq_abs": 4114,
      "Subsem": 4115,
      "(‖": 4116,
      "6_iff_": 4117,
      "==": 4118,
      "hβ": 4119,
      "μc": 4120,
      "igO": 4121,
      "_seq_": 4122,
      "TopologicalSemiring": 4123,
      "hprim": 4124,
      "_of_ne_zero": 4125,
      "mem_nhds": 4126,
      "tfae_6_iff_": 4127,
      "Simplex": 4128,
      "tfae_6_iff_5": 4129,
      "Bel": 4130,
      "g_inv": 4131,
      "nhds": 4132,
      "refle": 4133,
      "_sSup": 4134,
      "_eq_c": 4135,
      "'✝,": 4136,
      "wittPolynomial": 4137,
      "eq_comm": 4138,
      "_rat": 4139,
      "of_openCover": 4140,
      "mapBifunctorHomologicalComplex": 4141,
      "tfae_3_to_2": 4142,
      "Below": 4143,
      "hR": 4144,
      "iᶜ": 4145,
      "vInv": 4146,
      "xu": 4147,
      "le_2": 4148,
      "hxub": 4149,
      "_eq_norm": 4150,
      "power": 4151,
      "absNorm": 4152,
      "_apply_apply": 4153,
      "Above": 4154,
      "half_z_to_": 4155,
      "hyp_ind": 4156,
      "fz_eq_c": 4157,
      "le_2n": 4158,
      "half_z_to_base": 4159,
      "-((": 4160,
      "94": 4161,
      "xet": 4162,
      "rwitz": 4163,
      "rich": 4164,
      "Coxet": 4165,
      "hpa": 4166,
      "hg_mem": 4167,
      "mem_coe": 4168,
      "hds_": 4169,
      "_eq_empty": 4170,
      "LeftHomology": 4171,
      "map_expand": 4172,
      "naturality": 4173,
      "_of_dvd": 4174,
      "_negSucc": 4175,
      "Union_eq_iUnion": 4176,
      "Preservation": 4177,
      "Subsemigroup": 4178,
      "Coxeter": 4179,
      "free": 4180,
      "₂),": 4181,
      "toContinuousLinearEquiv": 4182,
      "hpb": 4183,
      "neg_mul": 4184,
      "ContinuousWithinAt": 4185,
      "_eq_coe": 4186,
      "prod_map": 4187,
      "ularPart": 4188,
      "_iff_dvd": 4189,
      "Subsingleton": 4190,
      "Bounds": 4191,
      "padicVal": 4192,
      "slice_lhs": 4193,
      "_single": 4194,
      "isBigO": 4195,
      "NonUnital": 4196,
      "[],": 4197,
      "𝟙_": 4198,
      "omy": 4199,
      "IsSimple": 4200,
      "isUnit": 4201,
      "mul_lt": 4202,
      "otomy": 4203,
      "ilinearMap": 4204,
      "toSubfield": 4205,
      "eq_zero_or": 4206,
      "richotomy": 4207,
      "IsSimpleOrder": 4208,
      "BEq": 4209,
      "DF": 4210,
      "hNN": 4211,
      "mod_cast": 4212,
      "var": 4213,
      "isSub": 4214,
      "rw_sum": 4215,
      "essSup": 4216,
      "ContinuousStar": 4217,
      "h_rw_sum": 4218,
      "forall_": 4219,
      "CoprodI": 4220,
      "of_gt": 4221,
      "ne_of_gt": 4222,
      "domRestrict": 4223,
      "padicValRat": 4224,
      "'✝¹": 4225,
      "Zeta": 4226,
      "]))": 4227,
      "_Iic": 4228,
      "fu_diff": 4229,
      "ius": 4230,
      "pb": 4231,
      "vadd": 4232,
      "₄,": 4233,
      "ℤˣ": 4234,
      "✝⟩": 4235,
      "_of_injective": 4236,
      "cons_": 4237,
      "const_mul": 4238,
      "tfae_5": 4239,
      "hJ_ne_zero": 4240,
      "[].": 4241,
      "_obj_obj": 4242,
      "coprime_": 4243,
      "FSet": 4244,
      "IRec": 4245,
      "ZFSet": 4246,
      "_6": 4247,
      "_π": 4248,
      "i_inj": 4249,
      "onical": 4250,
      "unique": 4251,
      "u_13": 4252,
      "To𝕜": 4253,
      "anonical": 4254,
      "Semide": 4255,
      "tinian": 4256,
      "_of_eq": 4257,
      "Hashable": 4258,
      "mem_iUnion": 4259,
      "Artinian": 4260,
      "h2b0": 4261,
      "nonpos": 4262,
      "extendTo𝕜": 4263,
      "intCast_ofNat": 4264,
      "h_meas_right": 4265,
      "_of_mem_irreducibleComponents": 4266,
      "isClosed_of_mem_irreducibleComponents": 4267,
      "Semidef": 4268,
      "hV": 4269,
      "son": 4270,
      "uced": 4271,
      "₁✝)": 4272,
      "asi": 4273,
      "map_sub": 4274,
      "mk_eq_zero": 4275,
      "Nondeg": 4276,
      "add_zero": 4277,
      "hurwitz": 4278,
      "enerate": 4279,
      "coherentTopology": 4280,
      "Holor": 4281,
      "resolve": 4282,
      "BooleanAlgebra": 4283,
      "Nondegenerate": 4284,
      "Den": 4285,
      "ZPow": 4286,
      "_exp": 4287,
      "sIso": 4288,
      "₃}": 4289,
      "zero_le": 4290,
      "lt_t": 4291,
      "h_left": 4292,
      "card_": 4293,
      "natCast": 4294,
      "WithCancel": 4295,
      "Multiplicity": 4296,
      "IsSheaf": 4297,
      "lintegral_congr_ae": 4298,
      "codable": 4299,
      "selfZPow": 4300,
      "unitsSMulWithCancel": 4301,
      "succ_le_of_lt": 4302,
      "canonical": 4303,
      "nex": 4304,
      "∅,": 4305,
      "intros": 4306,
      "id_comp": 4307,
      "✝³²": 4308,
      "✝³³": 4309,
      "✝³¹": 4310,
      "✝³⁴": 4311,
      "✝³⁵": 4312,
      "negSucc": 4313,
      "mul_ne_zero": 4314,
      "HomEquiv": 4315,
      "inversion": 4316,
      "hrx": 4317,
      "h_comm": 4318,
      "Iso_iff": 4319,
      "Prenex": 4320,
      "div_iff": 4321,
      "dgb": 4322,
      "exists_rat": 4323,
      "PosSemidef": 4324,
      "ringChar": 4325,
      "_or_nonempty": 4326,
      "Points": 4327,
      "compProd_apply": 4328,
      "mem_assert_iff": 4329,
      "canonicalEmbedding": 4330,
      "exists_rat_": 4331,
      "Ima": 4332,
      "_tsum": 4333,
      "vcomp": 4334,
      "toAlgebra": 4335,
      "HasCokernel": 4336,
      "alizedFunctor": 4337,
      "coe_injective": 4338,
      "pullbackShiftIso": 4339,
      "mem_singleton_self": 4340,
      "intCast_negSucc": 4341,
      "sq_nonneg": 4342,
      "not_lt": 4343,
      "Homotopic": 4344,
      "localizedFunctor": 4345,
      "moveLeft": 4346,
      "_factor": 4347,
      "Image": 4348,
      "HasCokernels": 4349,
      "())": 4350,
      ")[": 4351,
      "82": 4352,
      "FiniteKernel": 4353,
      "setLIntegral": 4354,
      "hnp": 4355,
      "minor": 4356,
      "measurable_id": 4357,
      "IsSFiniteKernel": 4358,
      "_monomial": 4359,
      "Shr": 4360,
      "[(": 4361,
      "ko": 4362,
      "Padic": 4363,
      "inf_le": 4364,
      "ne_eq": 4365,
      "stronglyMeasurable": 4366,
      "|⌉.": 4367,
      "rename_i": 4368,
      "nhdsWithin": 4369,
      "Shrink": 4370,
      "PadicSeq": 4371,
      "K_sub": 4372,
      "_one_": 4373,
      "bI": 4374,
      "iIndepFun": 4375,
      "vKernel": 4376,
      "arko": 4377,
      "ofMulAction": 4378,
      "_mΩ": 4379,
      "_mα": 4380,
      "hps": 4381,
      "OfPreserves": 4382,
      "WithLp": 4383,
      "HasPullback": 4384,
      "HasOrthogonal": 4385,
      "h1n": 4386,
      "SpanSingleton": 4387,
      "NormalEpi": 4388,
      "IsMarko": 4389,
      "FreeBicategory": 4390,
      "fromOrthogonal": 4391,
      "15870": 4392,
      "15894": 4393,
      "15882": 4394,
      "isLimitOfPreserves": 4395,
      "ConvexOn": 4396,
      "vInvEquiv": 4397,
      "K_subs": 4398,
      "HasOrthogonalProjection": 4399,
      "NormalEpiCategory": 4400,
      "IsMarkovKernel": 4401,
      "fromOrthogonalSpanSingleton": 4402,
      "Herm": 4403,
      "Rpow": 4404,
      "mgf": 4405,
      "nsq": 4406,
      "μH": 4407,
      "μs": 4408,
      "IsHerm": 4409,
      "itian": 4410,
      "veOn": 4411,
      "Conca": 4412,
      "Proj": 4413,
      "hom_inv": 4414,
      "HasMap": 4415,
      "h_le": 4416,
      "_nonzero": 4417,
      "VectorBundle": 4418,
      "SmoothOn": 4419,
      "TransGen": 4420,
      "push_neg": 4421,
      "le_sup_right": 4422,
      "eparatedFor": 4423,
      "orderIsoRpow": 4424,
      "IsHermitian": 4425,
      "ConcaveOn": 4426,
      "hom_inv_id": 4427,
      "_desc": 4428,
      "iInf": 4429,
      "⨂[": 4430,
      "_le_one_": 4431,
      "IsPrimitiveRoot": 4432,
      "nonempty_fintype": 4433,
      "rootMultiplicity": 4434,
      "Obj": 4435,
      "radical": 4436,
      "inter_subset_right": 4437,
      "ShortComplex": 4438,
      ":(": 4439,
      "P2": 4440,
      "_fr": 4441,
      "floor": 4442,
      "⊤.": 4443,
      "IsArtinian": 4444,
      "CompTriple": 4445,
      "_of_measure": 4446,
      "_iff_le": 4447,
      "RingHomCompTriple": 4448,
      "↑‖↑↑(": 4449,
      "summable": 4450,
      "heq_iff_eq": 4451,
      "antidiagonal": 4452,
      "_le_tsum": 4453,
      "continuous_fst": 4454,
      "monotone": 4455,
      "_of_not_mem": 4456,
      "and_imp": 4457,
      "_auto": 4458,
      "tsub": 4459,
      "x_2": 4460,
      "toPrenex": 4461,
      "ht_pos": 4462,
      "_mod": 4463,
      "_toReal": 4464,
      "gcd_eq_one": 4465,
      "condexpInd": 4466,
      "interval": 4467,
      "shiftFunctorComm": 4468,
      "SimpleFunc": 4469,
      "singularPart": 4470,
      "a_ih": 4471,
      "ne_of": 4472,
      "_symm_apply": 4473,
      "autoParam": 4474,
      "uliftFunctor": 4475,
      "_ext": 4476,
      "hinj": 4477,
      "hderiv": 4478,
      "midpoint": 4479,
      "rs": 4480,
      "₃⟩": 4481,
      "isPrim": 4482,
      "InClosure": 4483,
      "Congr": 4484,
      "hnil": 4485,
      "mul_neg": 4486,
      "inv_hom": 4487,
      "add_left": 4488,
      "cast_mul": 4489,
      "exp_pos": 4490,
      "pectsIso": 4491,
      "bot_iff": 4492,
      "_span_singleton": 4493,
      "_mem_Icc": 4494,
      "HasFDerivWithinAt": 4495,
      "exists_rat_gt": 4496,
      "ne_of_lt": 4497,
      "(↥↑": 4498,
      "bJ": 4499,
      "pure": 4500,
      "wise": 4501,
      "ination": 4502,
      "rep": 4503,
      "Isomorph": 4504,
      "isBounded": 4505,
      "_eq_s": 4506,
      "NatTrans": 4507,
      "₁)),": 4508,
      "mul_inv": 4509,
      "smul_mem": 4510,
      "measure_iUnion": 4511,
      "aeSeqSet": 4512,
      "nthLe_insertNth": 4513,
      "Preserving": 4514,
      "Holder": 4515,
      "lt_trichotomy": 4516,
      "-⟩": 4517,
      "W_1": 4518,
      "_inst": 4519,
      "n_pos": 4520,
      "sUnion_eq_iUnion": 4521,
      "t_1": 4522,
      "⟦(": 4523,
      "IsInteger": 4524,
      "ely": 4525,
      "hf_pos": 4526,
      "hmeas": 4527,
      "exacts": 4528,
      "cast_one": 4529,
      "_submodule": 4530,
      "UniqueUpTo": 4531,
      "alkMap": 4532,
      "HasFPowerSeriesOnBall": 4533,
      "subset_union": 4534,
      "PointUniqueUpTo": 4535,
      "CauSeq": 4536,
      "PointUniqueUpToIso": 4537,
      "19": 4538,
      "Odd": 4539,
      "ip": 4540,
      "think": 4541,
      "hxx": 4542,
      "SemilinearMap": 4543,
      "'',": 4544,
      "add_right": 4545,
      "h_group": 4546,
      "abel": 4547,
      "topping": 4548,
      "biUnion": 4549,
      "ifp_succ_n_fr": 4550,
      "conePointUniqueUpToIso": 4551,
      "balanceR": 4552,
      "Eventually": 4553,
      "inv_hom_id": 4554,
      "toppingTime": 4555,
      "Last": 4556,
      "Sphere": 4557,
      "aes": 4558,
      "IsInit": 4559,
      "odic": 4560,
      "WithZero": 4561,
      "_le_nhds": 4562,
      "image_subset": 4563,
      "le_div_iff": 4564,
      "inf_eq_left": 4565,
      "DirectedOn": 4566,
      "innerSL": 4567,
      "lt_succ_iff": 4568,
      "simpleFunc": 4569,
      "aesop": 4570,
      "(#": 4571,
      "bK": 4572,
      "cor": 4573,
      "go": 4574,
      "ihg": 4575,
      "IsRefl": 4576,
      "toSimpleFunc": 4577,
      "htc": 4578,
      "hcμs": 4579,
      "trian": 4580,
      "normalization": 4581,
      "symm_apply_apply": 4582,
      "apply_fun": 4583,
      "sub_eq_add": 4584,
      "hdeg": 4585,
      "RightMoves": 4586,
      "_of_tendsto": 4587,
      "elfAdjoint": 4588,
      "directedOn": 4589,
      "Cofan": 4590,
      "infer_inst": 4591,
      "FDerivAt": 4592,
      "_pi_apply": 4593,
      "dualTensor": 4594,
      "triang": 4595,
      "normalizationMonoid": 4596,
      "sub_eq_add_neg": 4597,
      "infer_instance": 4598,
      "([],": 4599,
      "Fiber": 4600,
      "Pred": 4601,
      "Push": 4602,
      "ihf": 4603,
      "lx": 4604,
      "⋯;": 4605,
      "Idx": 4606,
      "_of_measurable": 4607,
      "OfAdj": 4608,
      "_iff_not_": 4609,
      "length_": 4610,
      "subgraph": 4611,
      "ae_eq_mk": 4612,
      "vers": 4613,
      ")⁻¹)": 4614,
      "⟨⟨⟨": 4615,
      "hU1": 4616,
      "fderivWithin": 4617,
      "_div_two": 4618,
      "outI": 4619,
      "nhdsWithin_le_nhds": 4620,
      "PushoutI": 4621,
      "subgraphOfAdj": 4622,
      "well": 4623,
      "orn": 4624,
      "reassoc": 4625,
      "mapAux": 4626,
      "eriodic": 4627,
      "Lifting": 4628,
      "IsSelfAdjoint": 4629,
      "StrictConcaveOn": 4630,
      "OreLocalization": 4631,
      "HasFiniteIntegral": 4632,
      "BinaryBiproduct": 4633,
      "LipschitzWith": 4634,
      "balLeft": 4635,
      "89": 4636,
      "Chain": 4637,
      "Ske": 4638,
      "dam": 4639,
      "jO": 4640,
      "jᶜ": 4641,
      "kjO": 4642,
      "mn": 4643,
      "option": 4644,
      "{↑(-": 4645,
      "alDomain": 4646,
      "IsKernel": 4647,
      "IsIsomorph": 4648,
      "mapping": 4649,
      "counit": 4650,
      "entalDomain": 4651,
      "Fundam": 4652,
      "mul_eq_zero": 4653,
      "homEquiv": 4654,
      "HasHomotopy": 4655,
      "ContinuousMul": 4656,
      "pher": 4657,
      "_total": 4658,
      "h2n": 4659,
      "OneDiv": 4660,
      "_to_7": 4661,
      "Homogen": 4662,
      "mono_is": 4663,
      "pconts_eq": 4664,
      "Cofiber": 4665,
      "ExistsOneDiv": 4666,
      "smeval": 4667,
      "hydl": 4668,
      "hydr": 4669,
      "ih1_neg": 4670,
      "findExistsOneDiv": 4671,
      "tfae_5_to_7": 4672,
      "hurwitzZeta": 4673,
      "Iso_iff_nonzero": 4674,
      "IsInitSeg": 4675,
      "Skeleton": 4676,
      "IsKernelPair": 4677,
      "IsIsomorphic": 4678,
      "mappingCone": 4679,
      "FundamentalDomain": 4680,
      "HasHomotopyCofiber": 4681,
      "Homogeneous": 4682,
      "mono_isIso_iff_nonzero": 4683,
      "findExistsOneDivLT": 4684,
      "#↑": 4685,
      ")⟩": 4686,
      "]→": 4687,
      "_inter": 4688,
      "hψ": 4689,
      "pp": 4690,
      "zpow": 4691,
      "₀⟩": 4692,
      "three": 4693,
      "pological": 4694,
      "hg_nnnorm": 4695,
      "h_Union": 4696,
      "redred": 4697,
      "OpenEmbedding": 4698,
      "pow_nonneg": 4699,
      "_lt_iff": 4700,
      "_apply_self": 4701,
      "₁₂]": 4702,
      "Restricts": 4703,
      "StrictFDerivAt": 4704,
      "eq_empty_or_nonempty": 4705,
      "EventuallyEq": 4706,
      "length_insertNth": 4707,
      "pologicalClosure": 4708,
      "hg_nnnorm_eq": 4709,
      "_val": 4710,
      "qu": 4711,
      "say": 4712,
      "xc": 4713,
      "or_lt": 4714,
      "reindex": 4715,
      "igma": 4716,
      "hmono": 4717,
      "content": 4718,
      "le_or_lt": 4719,
      "curryLeft": 4720,
      "₂✝.": 4721,
      "nectedSpace": 4722,
      "contDiffOn": 4723,
      "BinaryCofan": 4724,
      "inter_subset_left": 4725,
      "dimH": 4726,
      "DFA": 4727,
      "inf_le_left": 4728,
      "says": 4729,
      "Paralle": 4730,
      "cf": 4731,
      "pK": 4732,
      "principal": 4733,
      "})).": 4734,
      "conj": 4735,
      "DecidablePred": 4736,
      "pow_mul": 4737,
      "_nonneg_right": 4738,
      "exists_pow": 4739,
      "_of_lt_of_le": 4740,
      "CharP": 4741,
      "nonneg_of_mul": 4742,
      "rotate_": 4743,
      "WalkingParalle": 4744,
      "moveRight": 4745,
      "upperBounds": 4746,
      "isPrimitive": 4747,
      "goals": 4748,
      "nonneg_of_mul_nonneg_right": 4749,
      "WalkingParallelPair": 4750,
      "Pt": 4751,
      "_card": 4752,
      "_closed": 4753,
      "_comb": 4754,
      "f8": 4755,
      "noc": 4756,
      "nreal": 4757,
      "rK": 4758,
      "snoc": 4759,
      "↑{": 4760,
      "ome_iff": 4761,
      "u_14": 4762,
      "toAddGroup": 4763,
      "FiniteIntegral": 4764,
      "_of_s": 4765,
      "flip": 4766,
      "utf8": 4767,
      "ZeroLE": 4768,
      "trivial": 4769,
      "linear_comb": 4770,
      "Same": 4771,
      "AddMonoidHom": 4772,
      "escendingCentralSeries": 4773,
      "chainTop": 4774,
      "Transvec": 4775,
      "Transvers": 4776,
      "hasFiniteIntegral": 4777,
      "smul_add": 4778,
      "Dest": 4779,
      "listTransvec": 4780,
      "span_singleton_eq_bot": 4781,
      "CoxeterMatrix": 4782,
      "linear_combination": 4783,
      "listTransvecCol": 4784,
      "Deg": 4785,
      "Tangent": 4786,
      "_U": 4787,
      "ly_surjective": 4788,
      "ofFunction": 4789,
      "_ofReal": 4790,
      "submodule": 4791,
      "mem_Iic": 4792,
      "IsPGroup": 4793,
      "jointly_surjective": 4794,
      "cast_lt": 4795,
      "IsDescendingCentralSeries": 4796,
      "Bijective": 4797,
      "_contDiff": 4798,
      "App": 4799,
      "collinear_insert": 4800,
      "eq_zero_or_pos": 4801,
      "ifp_succ_n_fr_eq_zero": 4802,
      "Transversal": 4803,
      "collinear_insert_iff": 4804,
      "dm": 4805,
      "dif_pos": 4806,
      "vel": 4807,
      "Incl": 4808,
      "FiniteSeq": 4809,
      "norm_eq_abs": 4810,
      "lt_of_lt_of_le": 4811,
      "fst_apply": 4812,
      "OpenSubgroup": 4813,
      "trivialization": 4814,
      "_inf": 4815,
      "SigmaMap": 4816,
      "numeric": 4817,
      "not_le": 4818,
      "foldr": 4819,
      "_hom_app": 4820,
      "verts": 4821,
      "LeftHomologyData": 4822,
      "-⟦(-": 4823,
      "H1": 4824,
      "n0": 4825,
      "n_1": 4826,
      "t2": 4827,
      "stk": 4828,
      "round": 4829,
      "erator": 4830,
      "im_sq": 4831,
      "MeasurePreserving": 4832,
      "hxq": 4833,
      "norm_nonneg": 4834,
      "norm_def": 4835,
      "''.": 4836,
      "OrderBot": 4837,
      "hbx": 4838,
      "_eq_compProd": 4839,
      "mul_right": 4840,
      "eq_condKernel": 4841,
      "coe_toFinset": 4842,
      "diff_subset": 4843,
      "continuousAt": 4844,
      "_mul_div": 4845,
      "_mul_im_sq": 4846,
      "totalEquiv": 4847,
      "partition": 4848,
      "_of_measure_eq_compProd": 4849,
      "eq_condKernel_of_measure_eq_compProd": 4850,
      "Side": 4851,
      "Word": 4852,
      "ls": 4853,
      "pf": 4854,
      "pg": 4855,
      "xr": 4856,
      "₁)))": 4857,
      "htn": 4858,
      "hp_top": 4859,
      "zero_apply": 4860,
      "_posPart": 4861,
      "_le_mul": 4862,
      "⋯⟩))": 4863,
      "measurable_fst": 4864,
      "diff_eq_empty": 4865,
      "eventually_r": 4866,
      "IsStoppingTime": 4867,
      "Squarefree": 4868,
      "_isS": 4869,
      "_dvd_iff_": 4870,
      "WalkingPair": 4871,
      "Envel": 4872,
      "reflector": 4873,
      "SemilinearMapClass": 4874,
      "EnvelGroup": 4875,
      "Siz": 4876,
      "sᶜ": 4877,
      "‖⁻¹": 4878,
      "toPresheafedSpace": 4879,
      "topologicalClosure": 4880,
      "⁻¹)": 4881,
      "_iff_ne_zero": 4882,
      "h_inv": 4883,
      "image_preimage": 4884,
      "inj_iff": 4885,
      "Direct": 4886,
      "mono_left": 4887,
      "all_goals": 4888,
      "aux1": 4889,
      "LipschitzOnWith": 4890,
      "inv_mul_cancel": 4891,
      "Sized": 4892,
      "17": 4893,
      "R_pos": 4894,
      "fac": 4895,
      "gu_diff": 4896,
      "idd": 4897,
      "len": 4898,
      "omin": 4899,
      "u_15": 4900,
      "map_sum": 4901,
      "Subset": 4902,
      "igin": 4903,
      "TopologicalBasis": 4904,
      "Origin": 4905,
      "restrict_": 4906,
      "OfZeroLE": 4907,
      "lt_top": 4908,
      "HasStrictFDerivAt": 4909,
      "mem_divisorsAntidiagonal": 4910,
      "h_ae": 4911,
      "ofReal_mul": 4912,
      "ZeroDivisors": 4913,
      "_toL1": 4914,
      "closure_snd": 4915,
      "mul_left": 4916,
      "map_fun": 4917,
      "map_rel": 4918,
      "nth_re": 4919,
      "PartialEquiv": 4920,
      "changeOrigin": 4921,
      "OfLEZero": 4922,
      "Index": 4923,
      "coeFn_toL1": 4924,
      "toMeasureOfZeroLE": 4925,
      "toMeasureOfLEZero": 4926,
      "_seq_directed": 4927,
      "Denomin": 4928,
      "FiberBundle": 4929,
      "trivializationAt": 4930,
      "h_ae_seq_directed": 4931,
      "nth_rewrite": 4932,
      "Term": 4933,
      "_by_": 4934,
      "_zmod": 4935,
      "lr": 4936,
      "sin": 4937,
      "¬(↑": 4938,
      "≃*": 4939,
      "station": 4940,
      "connected": 4941,
      "hc_ne_top": 4942,
      "hsp": 4943,
      "hbc": 4944,
      "LinearOrderedRing": 4945,
      "Absol": 4946,
      "_naturality": 4947,
      "[]).": 4948,
      "lintegral_rpow": 4949,
      "aryPoint": 4950,
      "two_ne_zero": 4951,
      "_coe_nnnorm_sub": 4952,
      "fixedBy": 4953,
      "fixedPoints": 4954,
      "setLIntegral_": 4955,
      "TangentSpace": 4956,
      "TransversalPair": 4957,
      "stationaryPoint": 4958,
      ">.": 4959,
      "Kae": 4960,
      "]]": 4961,
      "cb": 4962,
      "rDiff": 4963,
      "|>.": 4964,
      "}∗": 4965,
      "∅.": 4966,
      "ork": 4967,
      "rafilter": 4968,
      "ided": 4969,
      "contain": 4970,
      "ofπ": 4971,
      "mk0": 4972,
      "Continuants": 4973,
      "setIntegral": 4974,
      "ilattice": 4975,
      "Proper": 4976,
      "Semilattice": 4977,
      "neg_sub": 4978,
      "ceil": 4979,
      "le_assoc": 4980,
      "curry_obj_obj": 4981,
      "piₗᵢ": 4982,
      "Numerator": 4983,
      "measurable_pi_apply": 4984,
      "eq_bot_iff": 4985,
      "colimit_eq_iff": 4986,
      "hlerDiff": 4987,
      "erential": 4988,
      "_cancel_left": 4989,
      "_normalizedFactors": 4990,
      "Cofork": 4991,
      "nextDenomin": 4992,
      "nextContinuants": 4993,
      "nextNumerator": 4994,
      "ppconts_eq": 4995,
      "CokernelCofork": 4996,
      "limitConeIsLimit": 4997,
      "sieves": 4998,
      "coroot": 4999,
      "cfc": 5000,
      "iddle_assoc": 5001,
      "KaehlerDiff": 5002,
      "contained": 5003,
      "nextDenominator": 5004,
      "KaehlerDifferential": 5005,
      "Rad": 5006,
      "X_pow": 5007,
      "n1": 5008,
      "nk": 5009,
      "p2": 5010,
      "yst": 5011,
      "zg": 5012,
      "⁰.": 5013,
      "⁻⁰.": 5014,
      "✝⁻⁰.": 5015,
      "rail": 5016,
      "iter": 5017,
      "hadd": 5018,
      "_pos_of_pos": 5019,
      "prod_": 5020,
      "dist_eq_norm": 5021,
      "kerLift": 5022,
      "map_pow": 5023,
      ")].": 5024,
      "_self_iff_": 5025,
      "normalizeAux": 5026,
      "h_meas_left": 5027,
      "two_pos": 5028,
      "jacobson": 5029,
      "recOn": 5030,
      "_nonpos_right": 5031,
      "LiftRelO": 5032,
      "powerset": 5033,
      "rotate_left": 5034,
      "DirectSum": 5035,
      "ystem": 5036,
      "Lex": 5037,
      "M2": 5038,
      "Opt": 5039,
      "Sz": 5040,
      "g_ne": 5041,
      "h_mul": 5042,
      "pPreservation": 5043,
      "upling": 5044,
      "toCone": 5045,
      "conver": 5046,
      "FiniteType": 5047,
      "Coupling": 5048,
      "_le_add": 5049,
      "_eq_image": 5050,
      "cond_": 5051,
      "cast_natCast": 5052,
      "coe_submodule": 5053,
      "one_pow": 5054,
      "lift_": 5055,
      "NormalWord": 5056,
      "BalancedSz": 5057,
      "h_int_restrict": 5058,
      "mapBifunctorShift": 5059,
      "integerLattice": 5060,
      "optParam": 5061,
      "imalGHCoupling": 5062,
      "condexpIndL1": 5063,
      "utf8Len": 5064,
      "OptimalGHCoupling": 5065,
      "I_ne_zero": 5066,
      "PContinuous": 5067,
      "T_1": 5068,
      "_𝕜": 5069,
      "_ci": 5070,
      "_op": 5071,
      "data": 5072,
      "f_1": 5073,
      "ib": 5074,
      "uish": 5075,
      "wE": 5076,
      "ρ_": 5077,
      "inguish": 5078,
      "_nhds_": 5079,
      "let_fun": 5080,
      "_eq_of_": 5081,
      "hp0": 5082,
      "SuppPreservation": 5083,
      "add_sub": 5084,
      "sub_eq_zero": 5085,
      "mem_top": 5086,
      "_eq_pi": 5087,
      "pow_two": 5088,
      "prod_mul_": 5089,
      "distinguish": 5090,
      "map_id": 5091,
      "LiftR": 5092,
      "_of_dist": 5093,
      "RelLast": 5094,
      "hBU": 5095,
      "InvariantMeasure": 5096,
      "pullbackCover": 5097,
      "uteValue": 5098,
      "fixFEq": 5099,
      "zsmul_eq": 5100,
      "cauchy": 5101,
      "formPerm": 5102,
      "toSub_eq": 5103,
      "prime_": 5104,
      "toNeg_eq": 5105,
      "LiftPropWithinAt": 5106,
      "toAddMonoid_eq": 5107,
      "intervalIntegral": 5108,
      "isBounded_range": 5109,
      "reassoced": 5110,
      "hurwitzZetaEven": 5111,
      "AbsoluteValue": 5112,
      "prod_mul_distrib": 5113,
      "distinguished": 5114,
      "CC": 5115,
      "ENat": 5116,
      "Yoneda": 5117,
      "ωb": 5118,
      "le_max": 5119,
      "IsAbsoluteValue": 5120,
      "((↑(": 5121,
      "htd": 5122,
      "htcl": 5123,
      "ht_zero_eq": 5124,
      "hx_pos": 5125,
      "_eq_of_mem": 5126,
      "hsm": 5127,
      "mul_pos": 5128,
      "projective": 5129,
      "ph0": 5130,
      "IsoCokernel": 5131,
      "Preimage": 5132,
      "cast_ne_zero": 5133,
      "AffineIndependent": 5134,
      "hqy": 5135,
      "measure_closedBall": 5136,
      "subset_span": 5137,
      "IsSeparable": 5138,
      "(⋃₀": 5139,
      "aleph0": 5140,
      "SpectrumRestricts": 5141,
      "Cauchy": 5142,
      "optimalGH": 5143,
      "projectiveSeminorm": 5144,
      "optimalGHInj": 5145,
      "(⨁": 5146,
      "BC": 5147,
      "_trans": 5148,
      "c_1": 5149,
      "rid": 5150,
      "₂''": 5151,
      "arrow": 5152,
      "odal": 5153,
      "toWeak": 5154,
      "eq_of": 5155,
      "hx_sum": 5156,
      "Projectiv": 5157,
      "neg_zero": 5158,
      "lt_or": 5159,
      "comp_obj": 5160,
      "_positive": 5161,
      "mem_closure": 5162,
      "one_smul": 5163,
      "epi": 5164,
      "RingHomIsom": 5165,
      "'✝)": 5166,
      "even": 5167,
      "coe_toNNReal": 5168,
      "NeBot": 5169,
      "differentiable": 5170,
      "mono_right": 5171,
      "hwf": 5172,
      "half": 5173,
      "cosKernel": 5174,
      "DualBC": 5175,
      "Degree_": 5176,
      "ridge": 5177,
      "toWeakDualBC": 5178,
      "Projectivization": 5179,
      "RingHomIsometric": 5180,
      "toWeakDualBCNN": 5181,
      "_pair": 5182,
      "cendingCentralSeries": 5183,
      "dx": 5184,
      "hcond_": 5185,
      "i1": 5186,
      "sFiniteSeq": 5187,
      "uA": 5188,
      "¬↑": 5189,
      "ε0": 5190,
      "λ_": 5191,
      "IsAs": 5192,
      "✝¹)": 5193,
      "MeasurableSMul": 5194,
      "toLinearMap": 5195,
      "logMul": 5196,
      "umption": 5197,
      "irrefl": 5198,
      "Icc_self": 5199,
      "inv_eq_one_": 5200,
      "assumption": 5201,
      "_eq_floor": 5202,
      "ensely": 5203,
      "SMulInvariantMeasure": 5204,
      "Reduced": 5205,
      "indicatorConst": 5206,
      "mem_some_iff": 5207,
      "_inversion": 5208,
      "hf_rw": 5209,
      "liftNat": 5210,
      "eq_intCast": 5211,
      "_cat": 5212,
      "WellFoundedOn": 5213,
      "_not_mem": 5214,
      "_of_mul_nonpos_right": 5215,
      "_swap_mul": 5216,
      "separable": 5217,
      "lt_irrefl": 5218,
      "nonpos_of_mul_nonpos_right": 5219,
      "add_left_neg": 5220,
      "aesop_cat": 5221,
      "railing": 5222,
      "IsAscendingCentralSeries": 5223,
      "inv_eq_one_div": 5224,
      "enselyOrdered": 5225,
      "Cro": 5226,
      "DenselyOrdered": 5227,
      "Hull": 5228,
      "La": 5229,
      "_ℝ": 5230,
      "none": 5231,
      "ssing": 5232,
      "ι_": 5233,
      "₀]": 5234,
      "₁',": 5235,
      "₃).": 5236,
      "Connected": 5237,
      "Equ": 5238,
      "zero_mem": 5239,
      "MonoidHom": 5240,
      "(↑)": 5241,
      "dist_self": 5242,
      "olut": 5243,
      "toReal_eq_zero_iff": 5244,
      "_eq_zero_or": 5245,
      "ralRad": 5246,
      "coe_iff": 5247,
      "pectralRad": 5248,
      "bot_le": 5249,
      "OrderedSMul": 5250,
      "not_and": 5251,
      "withDensityᵥ": 5252,
      "traceForm": 5253,
      "_compl_iff": 5254,
      "wful": 5255,
      "opensFunctor": 5256,
      "IsSheafFor": 5257,
      "Crossing": 5258,
      "Lawful": 5259,
      "pectralRadius": 5260,
      "System": 5261,
      "cis": 5262,
      "f1": 5263,
      "f2": 5264,
      "hit": 5265,
      "p1": 5266,
      "spher": 5267,
      "φH": 5268,
      "⁰)": 5269,
      "∣[": 5270,
      "ore": 5271,
      "rees": 5272,
      "u_16": 5273,
      "hx1": 5274,
      "OfAbs": 5275,
      "addHaar": 5276,
      "sub_self": 5277,
      "mem_cons": 5278,
      "_eq_iInf": 5279,
      "prod_mk": 5280,
      "constant": 5281,
      "abscis": 5282,
      "LimZero": 5283,
      "LinearOrderedAddCommGroup": 5284,
      "LieModuleHom": 5285,
      "one_le_": 5286,
      "saOfAbs": 5287,
      "₁))),": 5288,
      "_root": 5289,
      "extend_nonneg": 5290,
      "FreeAddMonoid": 5291,
      "smul_apply": 5292,
      "weightedDegree": 5293,
      "false_": 5294,
      "ProjRestrict": 5295,
      "abscissaOfAbs": 5296,
      "abscissaOfAbsConv": 5297,
      ");": 5298,
      "Cᶜ": 5299,
      "Curry": 5300,
      "Y_1": 5301,
      "_bot": 5302,
      "iInter": 5303,
      "rt": 5304,
      "tsupport": 5305,
      "xi": 5306,
      "}]": 5307,
      "IsFundamentalDomain": 5308,
      "icone": 5309,
      "NormedLattice": 5310,
      "eq_self_iff_": 5311,
      "hfx": 5312,
      "(↑))": 5313,
      "hom_ext": 5314,
      "Linear_C": 5315,
      "addRight": 5316,
      "h_bot": 5317,
      "one_mem": 5318,
      "h1f": 5319,
      "pow_pos": 5320,
      "insert_diff": 5321,
      "₂✝))": 5322,
      "_i1": 5323,
      "_i2": 5324,
      "_i3": 5325,
      "_i4": 5326,
      "_iInter": 5327,
      "directed_of_measurable": 5328,
      "zsmul_neg": 5329,
      "Coverage": 5330,
      "lintegral_i": 5331,
      "codisjoint": 5332,
      "smul_def": 5333,
      "vsub_ne_zero": 5334,
      "lineMap": 5335,
      "subset_union_left": 5336,
      "one_le_pow": 5337,
      "NormedLatticeAddCommGroup": 5338,
      "eq_self_iff_true": 5339,
      "Linear_CC": 5340,
      "(⋂": 5341,
      "P3": 5342,
      "P4": 5343,
      "RTensor": 5344,
      "_integral": 5345,
      "aH": 5346,
      "bH": 5347,
      "cm": 5348,
      "lcm": 5349,
      "nodal": 5350,
      "sur": 5351,
      "_iff_lt": 5352,
      "CompleteLinearOrder": 5353,
      "indep": 5354,
      "mem_carrier": 5355,
      "IsPre": 5356,
      "Closeds": 5357,
      "coeSubtype": 5358,
      "orphic": 5359,
      "map_map": 5360,
      "cycleOf_pow": 5361,
      "ae_iff": 5362,
      "unitVec": 5363,
      "copy": 5364,
      "zsmul_zero": 5365,
      "zsmul_succ": 5366,
      "StrictConvexOn": 5367,
      "disjoint_iff": 5368,
      "homologyIso": 5369,
      "Triangles": 5370,
      "ShortExact": 5371,
      "mapBifunctorHomologicalComplexShift": 5372,
      "isSubring": 5373,
      "distinguishedTriangles": 5374,
      "mem_closure_iff": 5375,
      "half_pos": 5376,
      "cycleOf_pow_apply_self": 5377,
      "Sheaf": 5378,
      "]⟩": 5379,
      "_basis": 5380,
      "sTo": 5381,
      "spectralRadius": 5382,
      "π_desc": 5383,
      "ᵐᵒᵖ": 5384,
      "⊗≫": 5385,
      "IsReduced": 5386,
      "odisjoint": 5387,
      "toPseudoEMetricSpace": 5388,
      "_sam": 5389,
      "Cospan": 5390,
      "byte": 5391,
      "left_U": 5392,
      "homeo": 5393,
      "reeCycle": 5394,
      "_nonZeroDivisors": 5395,
      "isoCoequalizer": 5396,
      "_right_C": 5397,
      "condexp_ae": 5398,
      "tendsto_nhds_": 5399,
      "CancelAddCommMonoid": 5400,
      "_subset_right_C": 5401,
      "Ico_mul": 5402,
      "bitwise": 5403,
      "ThreeCycle": 5404,
      "toMeasurableEquiv": 5405,
      "associator_inv": 5406,
      "WalkingCospan": 5407,
      "_measurableSet": 5408,
      "sigmaπ": 5409,
      "mk_ker": 5410,
      "uniformSpace": 5411,
      "finite_coe_iff": 5412,
      "constantCoeff": 5413,
      "surj": 5414,
      "byteIdx": 5415,
      "left_U_subset_right_C": 5416,
      "homeoOfIso": 5417,
      "SCLM": 5418,
      "dor": 5419,
      "le_mul": 5420,
      "le_total": 5421,
      "u_17": 5422,
      "u_18": 5423,
      "ication": 5424,
      "isTrue": 5425,
      "ification": 5426,
      "haus": 5427,
      "map_eq_image": 5428,
      "ofLe": 5429,
      "_move": 5430,
      "mem_product": 5431,
      "IsPeriodic": 5432,
      "_eq_lintegral": 5433,
      "↑↑↑": 5434,
      "cast_add": 5435,
      "isoOfIso": 5436,
      "le_add": 5437,
      "hvr": 5438,
      "IsSeparatedFor": 5439,
      "Adjoin": 5440,
      "integrable_indicator": 5441,
      "lintegral_mono": 5442,
      "subset_inter": 5443,
      "elim0": 5444,
      "map_comp_assoc": 5445,
      "balRight": 5446,
      "mul_lt_mul": 5447,
      "exists_pow_eq": 5448,
      "SemilatticeSup": 5449,
      "CrossingTime": 5450,
      "dorff": 5451,
      "hausdorff": 5452,
      "IsPeriodicPt": 5453,
      "integrable_indicator_iff": 5454,
      "Ult": 5455,
      "aG": 5456,
      "bG": 5457,
      "pn": 5458,
      "stalkMap": 5459,
      "le_top": 5460,
      "u_19": 5461,
      "))}": 5462,
      "egau": 5463,
      "if_neg": 5464,
      "of_le": 5465,
      "_iff_eq_zero": 5466,
      "hyb": 5467,
      "ContinuousFunction": 5468,
      "sub_zero": 5469,
      "sub_ne_zero": 5470,
      "LatticeHom": 5471,
      "filter_eq_self": 5472,
      "_of_finite": 5473,
      "lTensor_tmul": 5474,
      "dvd_mul_right": 5475,
      "measure_": 5476,
      "measure_iInter": 5477,
      "_comp_eq": 5478,
      "ne_one": 5479,
      "OpensMeasurableSpace": 5480,
      "induction_Ico_mul": 5481,
      "mem_range_self": 5482,
      "recF": 5483,
      "jective_": 5484,
      "triangle": 5485,
      "collinear_insert_iff_of_ne": 5486,
      "PartialEquivBEq": 5487,
      "railingDegree": 5488,
      "LawfulHashable": 5489,
      "Ultrafilter": 5490,
      "egauge": 5491,
      "measure_iInter_eq_iInf": 5492,
      "46": 5493,
      "Ax": 5494,
      "CstarRing": 5495,
      "l_eq": 5496,
      "z_nonneg": 5497,
      "AddChar": 5498,
      "isIrreducible": 5499,
      "ConnectedSpace": 5500,
      "_eq_midpoint": 5501,
      "_iff_sUnion": 5502,
      "lim_eq_midpoint": 5503,
      "hbi": 5504,
      "mem_closedBall": 5505,
      "aestronglyMeasurable": 5506,
      "exp_neg": 5507,
      "coeIdeal": 5508,
      "coe_ne_top": 5509,
      "mul_pow": 5510,
      "_of_one_le": 5511,
      "tendsto_sum": 5512,
      "Primcodable": 5513,
      ")^(": 5514,
      "dualTensorHomEquiv": 5515,
      "one_le_pow_of_one_le": 5516,
      "isIrreducible_iff_sUnion": 5517,
      "tendsto_sum_nat": 5518,
      "isIrreducible_iff_sUnion_closed": 5519,
      "Calc": 5520,
      "Codisjoint": 5521,
      "Hype": 5522,
      "g1": 5523,
      "pred": 5524,
      "rcover": 5525,
      "δpos": 5526,
      "alCalc": 5527,
      "IsSquare": 5528,
      "✝¹.": 5529,
      "AddSubsemigroup": 5530,
      "ulus": 5531,
      "haS": 5532,
      "map_eq": 5533,
      "_sigma": 5534,
      "inv_comp_eq": 5535,
      "fst_i": 5536,
      "addVal": 5537,
      "char": 5538,
      "sSup_le": 5539,
      "ndvd": 5540,
      "plitting": 5541,
      "OneHype": 5542,
      "_of_true": 5543,
      "_iff_forall": 5544,
      "_iff_integrableOn": 5545,
      "initSeg": 5546,
      "exists_eq": 5547,
      "subset_latticeClosure": 5548,
      "ExpChar": 5549,
      "totalShift": 5550,
      "SemicontinuousWithinAt": 5551,
      "not_or": 5552,
      "not_mem_": 5553,
      "zero_lt_succ": 5554,
      "FDerivWithinAt": 5555,
      "tfae_2_to_5": 5556,
      "equivShrink": 5557,
      "minFacProp": 5558,
      "HomotopyCategory": 5559,
      "mem_toAddSubmonoid": 5560,
      "mem_toSubsemigroup": 5561,
      "asiMeasurePreserving": 5562,
      "HolderOnWith": 5563,
      "submodule_span": 5564,
      "eq_condKernel_of_measure_eq_compProd_real": 5565,
      "ContinuousFunctionalCalc": 5566,
      "plittingField": 5567,
      "OneHypercover": 5568,
      "ContinuousFunctionalCalculus": 5569,
      "MO": 5570,
      "[[": 5571,
      "_aux": 5572,
      "hneg": 5573,
      "morphism": 5574,
      "₂',": 5575,
      "IsTopologicalBasis": 5576,
      "isNoetherian": 5577,
      "three_": 5578,
      "of_eq": 5579,
      "strictMono": 5580,
      "urd": 5581,
      "apply_symm_apply": 5582,
      "add_assoc": 5583,
      "_pos_iff": 5584,
      "_mul_le": 5585,
      "ofReal_one": 5586,
      "span_induction": 5587,
      "div_eq_": 5588,
      "absurd": 5589,
      "_negative": 5590,
      "continuous_const": 5591,
      "RespectsIso": 5592,
      "abs_one": 5593,
      "const_mul_atTop": 5594,
      "resolve_left": 5595,
      "_positive_negative": 5596,
      "MOD": 5597,
      "morphismRestrict": 5598,
      "'})": 5599,
      "7_to_2": 5600,
      "92": 5601,
      "Ag": 5602,
      "Lower": 5603,
      "sat": 5604,
      "she": 5605,
      "MeasurableSingleton": 5606,
      "eq_of_dist": 5607,
      "mapIncl": 5608,
      "hxf": 5609,
      "↑(‖↑↑": 5610,
      "CompLim": 5611,
      "byshe": 5612,
      "_of_nonpos": 5613,
      "LinearIsometry": 5614,
      "urate": 5615,
      "attice_": 5616,
      "card_le": 5617,
      "casesOn": 5618,
      "_eq_div": 5619,
      "_eq_condexpL1": 5620,
      "succAbove": 5621,
      "filter_mono": 5622,
      "tfae_7_to_2": 5623,
      "tail_cons": 5624,
      "UniformFun": 5625,
      "continuous_snd": 5626,
      "_of_pos_of_lt": 5627,
      "coprime_mul_left": 5628,
      "coprime_mul_right": 5629,
      "setToL1SCLM": 5630,
      "condexp_ae_eq_condexpL1": 5631,
      "Agrees": 5632,
      "saturate": 5633,
      "MeasurableSingletonClass": 5634,
      "eq_of_dist_eq_zero": 5635,
      "byshev": 5636,
      "-(↑": 5637,
      "A_meas": 5638,
      "_iso": 5639,
      "dy": 5640,
      "g_neg": 5641,
      "hin": 5642,
      "hex": 5643,
      "hSc": 5644,
      "middle_assoc": 5645,
      "×'": 5646,
      "₄)": 5647,
      "unction": 5648,
      "pact": 5649,
      "NormedDivisionRing": 5650,
      "isA": 5651,
      "↑(⟨∑": 5652,
      "esBelow": 5653,
      "hss": 5654,
      "negOne": 5655,
      "OnFun": 5656,
      "left_assoc": 5657,
      "lt_iff": 5658,
      "swap_self": 5659,
      "right_assoc": 5660,
      "mem_Ico": 5661,
      "_toList": 5662,
      "ae_eq_": 5663,
      "hipos": 5664,
      "nth_rw": 5665,
      "↑(((": 5666,
      "LinearOrderedCancelAddCommMonoid": 5667,
      "one_actLeft": 5668,
      "_of_mem_f": 5669,
      "coeff_zero": 5670,
      "_add_iff": 5671,
      "actRight_one": 5672,
      "four_mul_im_sq": 5673,
      "UniformOnFun": 5674,
      "eventually_of_forall": 5675,
      "IsSwap": 5676,
      "nonnegg_neg": 5677,
      "_normSq": 5678,
      "rootSet": 5679,
      "primesBelow": 5680,
      "lt_of_le_of_ne": 5681,
      "partial": 5682,
      "lt_four_mul_im_sq": 5683,
      "pullbackConeOfLeftLift": 5684,
      "three_lt_four_mul_im_sq": 5685,
      "LowerSemicontinuousWithinAt": 5686,
      "hineg": 5687,
      "negOnePow": 5688,
      "_of_mem_fdo": 5689,
      "nonnegg_neg_pos": 5690,
      "three_lt_four_mul_im_sq_of_mem_fdo": 5691,
      "Bridge": 5692,
      "Iff": 5693,
      "Pus": 5694,
      "_vsub": 5695,
      "gent": 5696,
      "i2": 5697,
      "wPath": 5698,
      "orward": 5699,
      "toSet": 5700,
      "hforward": 5701,
      "hpp": 5702,
      "neg_inj": 5703,
      "_iff_nth": 5704,
      "inv_lt": 5705,
      "HasLimit": 5706,
      "add_apply": 5707,
      "alized_factor": 5708,
      "_eq_aeval": 5709,
      "PreEnvelGroup": 5710,
      "cast_nonneg": 5711,
      "dist_comm": 5712,
      "gcd_mul_left": 5713,
      "functorPus": 5714,
      "indicator_of_mem": 5715,
      "_add_one": 5716,
      "_add_f": 5717,
      "_iff_collinear": 5718,
      "_comp_iff": 5719,
      "forall_mem": 5720,
      "IsSplittingField": 5721,
      "Orientation": 5722,
      "_normalized_factor": 5723,
      "_of_nonneg_ae": 5724,
      "compl_subset": 5725,
      "ircleMap": 5726,
      "Le_inj": 5727,
      "hyp2": 5728,
      "isOpen_compl_iff": 5729,
      "measurableSet_image": 5730,
      "measurableSet_toMeasurable": 5731,
      "cast_four": 5732,
      "cast_three": 5733,
      "nodup_iff_nth": 5734,
      "oangle_eq_zero_or": 5735,
      "isBigO_iff": 5736,
      "NonUnitalNonAssocSemiring": 5737,
      "resolve_right": 5738,
      "_eq_pi_iff_collinear": 5739,
      "liftNatIso": 5740,
      "coeff_zero_eq_aeval": 5741,
      "functorPushforward": 5742,
      "nodup_iff_nthLe_inj": 5743,
      "oangle_eq_zero_or_eq_pi_iff_collinear": 5744,
      "coeff_zero_eq_aeval_zero": 5745,
      "Rank": 5746,
      "TM2": 5747,
      "_ex": 5748,
      "ox": 5749,
      "ompose": 5750,
      "geom": 5751,
      "Inf_": 5752,
      "Subgraph": 5753,
      "Cospher": 5754,
      "hn_eq": 5755,
      "comp_id": 5756,
      "invApp": 5757,
      "mem_preimage": 5758,
      "h_init": 5759,
      "RightUnitor": 5760,
      "coe_ne_zero": 5761,
      "OneClass": 5762,
      "count_": 5763,
      "_of_has": 5764,
      "decompose": 5765,
      ")}).": 5766,
      "_neg_neg": 5767,
      "trans_eq": 5768,
      "exists_b": 5769,
      "inter_comm": 5770,
      "lieIdeal": 5771,
      "forall_ge_atTop": 5772,
      "_normalizer": 5773,
      "head_cons": 5774,
      "mapBifunctorRightUnitor": 5775,
      "hyp1": 5776,
      "ircumcenter": 5777,
      "mul_div_assoc": 5778,
      "eventually_forall_ge_atTop": 5779,
      "lt_or_le": 5780,
      "strictMono_": 5781,
      "Cospherical": 5782,
      "670": 5783,
      "Bu": 5784,
      "MF": 5785,
      "PMF": 5786,
      "g_inj": 5787,
      "variant": 5788,
      "₄.": 5789,
      "✝⟩)": 5790,
      "or_iff_not_": 5791,
      "IsThreeCycle": 5792,
      "toFin": 5793,
      "toMap": 5794,
      "toUniformOnFun": 5795,
      "zero_smul": 5796,
      "On_iff": 5797,
      "hnSeries": 5798,
      "comp_contDiff": 5799,
      "_zero_iff": 5800,
      "add_smul": 5801,
      "h_two": 5802,
      "_le_sq": 5803,
      "finsupp": 5804,
      "₂)),": 5805,
      "PreOneHypercover": 5806,
      "div_le_one_": 5807,
      "WithCircumcenter": 5808,
      "TotalDegree": 5809,
      "piFinset": 5810,
      "and_ne": 5811,
      "sum_congr": 5812,
      "HahnSeries": 5813,
      "SmoothVectorBundle": 5814,
      "_le_and_ne": 5815,
      "Gammaℂ": 5816,
      "NoZeroDivisors": 5817,
      "mem_insert_self": 5818,
      "sq_le_sq": 5819,
      "weightedTotalDegree": 5820,
      "comp_whiskerRight": 5821,
      "isUnit_one": 5822,
      "contDiffOn_comp_iff": 5823,
      "AdjoinSimple": 5824,
      "lt_iff_le_and_ne": 5825,
      "6702": 5826,
      "Buckets": 5827,
      "or_iff_not_imp": 5828,
      "comp_contDiffOn_iff": 5829,
      "01": 5830,
      "Cub": 5831,
      "Elem": 5832,
      "Hr": 5833,
      "P_iff": 5834,
      "dot": 5835,
      "gth": 5836,
      "j_1": 5837,
      "kur": 5838,
      "px": 5839,
      "pus": 5840,
      "₁@": 5841,
      "₂@": 5842,
      "₂⟩,": 5843,
      "ators": 5844,
      "atowski": 5845,
      "uniq": 5846,
      "))!": 5847,
      "isCompact": 5848,
      "toSubmonoid": 5849,
      "⁻¹⌋": 5850,
      "_of_surjective": 5851,
      "''⟩": 5852,
      "_mul_tmul": 5853,
      "h_cast": 5854,
      "_toSet": 5855,
      "getElem": 5856,
      "pathDest": 5857,
      "finite_toSet": 5858,
      "liftP_iff": 5859,
      "fract_add_f": 5860,
      "chainLen": 5861,
      "Forward": 5862,
      "_eq_mul_inv": 5863,
      "_square": 5864,
      "tmul_mul_tmul": 5865,
      "Encodable": 5866,
      "coprime_of": 5867,
      "counitForward": 5868,
      "iterate": 5869,
      "variantClass": 5870,
      "Cubic": 5871,
      "dotProduct": 5872,
      "kuratowski": 5873,
      "push_cast": 5874,
      "fract_add_floor": 5875,
      "chainLength": 5876,
      "kuratowskiEmbedding": 5877,
      "Che": 5878,
      "_wittPolynomial": 5879,
      "bc": 5880,
      "fH": 5881,
      "fapply": 5882,
      "vr": 5883,
      "x_real": 5884,
      "zorn": 5885,
      "₅}": 5886,
      "le_iff": 5887,
      "atBot": 5888,
      "IsBounded": 5889,
      ")))).": 5890,
      "ennreal": 5891,
      "_nf": 5892,
      "_eq_neg": 5893,
      "PartENat": 5894,
      "lt_coe": 5895,
      "inv_mem": 5896,
      "HasOuter": 5897,
      "sub_pos": 5898,
      "h_prod": 5899,
      "cast_eq_zero": 5900,
      "div_eq_mul_inv": 5901,
      "_sub_C": 5902,
      "map_bind": 5903,
      "_of_directed": 5904,
      "one_apply": 5905,
      "dvd_mul_left": 5906,
      "Condition": 5907,
      "coe_lt_coe": 5908,
      "continuous_iff_": 5909,
      "whisker_left": 5910,
      "ApproxClosed": 5911,
      "classification": 5912,
      "ys_ih": 5913,
      "exists_prop_of_true": 5914,
      "coprime_classification": 5915,
      "Chebyshev": 5916,
      "zorn_subset": 5917,
      "HasOuterApproxClosed": 5918,
      "73": 5919,
      "[⋀": 5920,
      "_co": 5921,
      "_dist": 5922,
      "_option": 5923,
      "circleMap": 5924,
      "lattice_": 5925,
      "sdiff": 5926,
      "wG": 5927,
      "xf": 5928,
      "εa": 5929,
      "or_": 5930,
      "rewrite": 5931,
      "elof": 5932,
      "hfν": 5933,
      "ofFun": 5934,
      "Algebraic": 5935,
      "indelof": 5936,
      "_zero_measure": 5937,
      "HasAntidiagonal": 5938,
      "mem_iInter": 5939,
      "_eq_count": 5940,
      "div_const": 5941,
      "map_rename": 5942,
      "map_units": 5943,
      "map_wittPolynomial": 5944,
      "Generators": 5945,
      "IoiPow": 5946,
      "measurableEmbedding": 5947,
      "volumeIoiPow": 5948,
      "IsLindelof": 5949,
      "_le_rpow": 5950,
      "hμν": 5951,
      "SmallCategory": 5952,
      "AddSubmonoidClass": 5953,
      "true_iff": 5954,
      "nthLe_permutations": 5955,
      "BooleanGenerators": 5956,
      "eventually_filterAt": 5957,
      "GradedRing": 5958,
      "isSublattice_": 5959,
      "1746": 5960,
      "[⋀^": 5961,
      "isSublattice_latticeClosure": 5962,
      "Bdd": 5963,
      "C_dvd_iff_": 5964,
      "Ep": 5965,
      "_im": 5966,
      "_triangle": 5967,
      "gH": 5968,
      "⊥)": 5969,
      "imorphic": 5970,
      "Finpartition": 5971,
      "hfμ": 5972,
      "hf_ne_top": 5973,
      "_snorm": 5974,
      "ModuleCat": 5975,
      "compact": 5976,
      "neg_one": 5977,
      "restrictPreimage": 5978,
      "mul_sub": 5979,
      "add_mem": 5980,
      "sup_eq_left": 5981,
      "mem_erase": 5982,
      "h_ab": 5983,
      "IsoLimit": 5984,
      "_eq_univ": 5985,
      "bounded": 5986,
      "div_mul": 5987,
      "_eq_zero_iff_dvd": 5988,
      "sum_mul": 5989,
      "injOn": 5990,
      "integral_Ioi": 5991,
      "coe_one": 5992,
      "continuousLinearMap": 5993,
      "_nat_mul_": 5994,
      "exists_of_eq": 5995,
      "seq_ne_zero": 5996,
      "_false": 5997,
      "lintegral_zero_measure": 5998,
      "zoom_": 5999,
      "_of_pos_right": 6000,
      "isOpenImmersion": 6001,
      "128": 6002,
      "factorization": 6003,
      "nthLe_insertNth_of_lt": 6004,
      "le_max_right": 6005,
      "associator_inv_naturality": 6006,
      "div_eq_inv_mul": 6007,
      "LinearIsometryEquiv": 6008,
      "partialSum": 6009,
      "C_dvd_iff_zmod": 6010,
      "Epimorphic": 6011,
      "Base": 6012,
      "GLB": 6013,
      "Rᵐᵒᵖ": 6014,
      "_hi": 6015,
      "_fract": 6016,
      "_tendsto_": 6017,
      "_ball": 6018,
      "ben": 6019,
      "cas": 6020,
      "nhds_": 6021,
      "π_apply": 6022,
      "₃;": 6023,
      "roben": 6024,
      "erResidue": 6025,
      "isIso": 6026,
      "isGLB": 6027,
      "introv": 6028,
      "toENNReal": 6029,
      "_simple": 6030,
      "MulOneClass": 6031,
      "hmerResidue": 6032,
      "mul_le": 6033,
      "homeomorph": 6034,
      "lim_mem_Icc": 6035,
      "HasBasis": 6036,
      "HasBinaryBiproduct": 6037,
      "LehmerResidue": 6038,
      "div_mul_div": 6039,
      "map_π_apply": 6040,
      "UnitSphere": 6041,
      "IsPrimePow": 6042,
      "coe_apply": 6043,
      "eventually_measure": 6044,
      "_pow_of_": 6045,
      "forall_const": 6046,
      "_natDegree": 6047,
      "sqrt": 6048,
      "not_false": 6049,
      "_spanSingleton": 6050,
      "lucas": 6051,
      "uncurry0": 6052,
      "nthLe_toList": 6053,
      "whiskerLeft_comp": 6054,
      "lowerCentralSeries": 6055,
      "sum_product": 6056,
      "cons_head": 6057,
      "_iff_le_sup": 6058,
      "intervalIntegral_tendsto_": 6059,
      "false_and": 6060,
      "codisjoint_iff_le_sup": 6061,
      "IsPreconnected": 6062,
      "toFinmap": 6063,
      "robenius": 6064,
      "toENNRealVectorMeasure": 6065,
      "homeomorphUnitSphere": 6066,
      "lucasLehmerResidue": 6067,
      "intervalIntegral_tendsto_integral_Ioi": 6068,
      "homeomorphUnitSphereProd": 6069,
      "<$>": 6070,
      "WSame": 6071,
      "_g": 6072,
      "_Iio": 6073,
      "_and_": 6074,
      "e_s": 6075,
      "ij": 6076,
      "term": 6077,
      "₀⁻¹": 6078,
      "⟨⋃₀": 6079,
      "((((": 6080,
      "haT": 6081,
      "toSphere": 6082,
      "_setOf": 6083,
      "pos_of_ne_zero": 6084,
      "neg_neg": 6085,
      "comp_inv": 6086,
      "h_cover": 6087,
      "h_fab": 6088,
      "hI0": 6089,
      "closure_le": 6090,
      "closure_isS": 6091,
      "div_self": 6092,
      "_lt_add": 6093,
      "ientation": 6094,
      "snd_i": 6095,
      "_of_closed": 6096,
      "nontrivial": 6097,
      "LinearOrderedCommRing": 6098,
      "ifp_n_fract": 6099,
      "tendsto_measure": 6100,
      "stieltjesOfMeasurableRat_rat": 6101,
      "_inv_eq_floor": 6102,
      "measurableSpace": 6103,
      "_cthickening": 6104,
      "⟨⟨⟩⟩": 6105,
      "intCast_zmod": 6106,
      "gt_iff_lt": 6107,
      "densityProcess_": 6108,
      "adjoin_simple": 6109,
      "associated": 6110,
      "gamma": 6111,
      "_of_isCompact": 6112,
      "_one_iff": 6113,
      "_mem_Icc_of_closed": 6114,
      "ih1_neg_right": 6115,
      "ih1_neg_left": 6116,
      "setLIntegral_stieltjesOfMeasurableRat_rat": 6117,
      "WSameSide": 6118,
      "closure_isSwap": 6119,
      "ifp_n_fract_inv_eq_floor": 6120,
      "tendsto_measure_cthickening": 6121,
      "intCast_zmod_eq_zero_iff_dvd": 6122,
      "tendsto_measure_cthickening_of_isCompact": 6123,
      "-,": 6124,
      "Bicone": 6125,
      "FPowerSeriesOnBall": 6126,
      "X_sub_C": 6127,
      "[{": 6128,
      "_order": 6129,
      "_epi": 6130,
      "hde": 6131,
      "sZMod": 6132,
      "uc": 6133,
      "ε_": 6134,
      "IsBil": 6135,
      "imit": 6136,
      "isConnected": 6137,
      "toFinsupp": 6138,
      "Subfield": 6139,
      "_series": 6140,
      "set_mem": 6141,
      "Cocone": 6142,
      "CovariantClass": 6143,
      "alize_": 6144,
      "es_": 6145,
      "_of_in": 6146,
      "(↑{": 6147,
      "homMap": 6148,
      "mem_ker": 6149,
      "h_dvd": 6150,
      "finish": 6151,
      "ext_": 6152,
      "gcd_def": 6153,
      "supported": 6154,
      "map_injective": 6155,
      "subtype_val": 6156,
      "cycles": 6157,
      "h0p": 6158,
      "tfae_finish": 6159,
      "₁✝.": 6160,
      "Derived": 6161,
      "MulActionWithZero": 6162,
      "BasisIndex": 6163,
      "coe_coe": 6164,
      "union_singleton": 6165,
      "_maximal": 6166,
      "OrderedSemiring": 6167,
      "roots": 6168,
      "Ortho": 6169,
      "Induction": 6170,
      "BinaryBicone": 6171,
      "_of_not_lt": 6172,
      "parts": 6173,
      "_sUnion_of_directed": 6174,
      "upperCrossingTime": 6175,
      "LiftRelAux": 6176,
      "cancel_mono": 6177,
      "cancel_epi": 6178,
      "nonpos_iff_eq_zero": 6179,
      "zero_le_one": 6180,
      "ProperSpace": 6181,
      "X_pow_order": 6182,
      "Equicontinuous": 6183,
      "submodule_span_eq": 6184,
      "IsBilimit": 6185,
      "124": 6186,
      "DFinsupp": 6187,
      "_finset": 6188,
      "hω": 6189,
      "hϕ": 6190,
      "h_of": 6191,
      "li": 6192,
      "t1": 6193,
      "₁₁": 6194,
      "lection": 6195,
      "isL": 6196,
      "((⋃": 6197,
      "eq_single": 6198,
      "_sdiff": 6199,
      "posite": 6200,
      "_eq_sum": 6201,
      "_eq_set": 6202,
      "neg_nonpos": 6203,
      "addPolynomial": 6204,
      "_eq_true": 6205,
      "pow_dvd": 6206,
      "cast_pos": 6207,
      "div_le_iff": 6208,
      "contMDiff": 6209,
      "Collection": 6210,
      "₁'⟩": 6211,
      "hjpos": 6212,
      "hjneg": 6213,
      "_subset_Ioi": 6214,
      "_subset_Ici": 6215,
      "_iff_length": 6216,
      "convert_2": 6217,
      "subset_sUnion": 6218,
      "not_mem": 6219,
      "HasFiniteFPowerSeriesOnBall": 6220,
      "mem_image_of_mem": 6221,
      "coeFn_posPart": 6222,
      "Opposite": 6223,
      "convergent": 6224,
      "YonedaCollection": 6225,
      "CurryCompLim": 6226,
      "lintegral_iInf_": 6227,
      "IsoLimitCurryCompLim": 6228,
      "nontriviality": 6229,
      "eq_single_iff_length": 6230,
      "_subset_Ici_self": 6231,
      "subset_sUnion_of_mem": 6232,
      "lintegral_iInf_directed_of_measurable": 6233,
      "-[": 6234,
      "And": 6235,
      "Born": 6236,
      "S_1": 6237,
      "[@": 6238,
      "_hc": 6239,
      "_all": 6240,
      "_erase": 6241,
      "_loc": 6242,
      "a_2": 6243,
      "ef": 6244,
      "hσ": 6245,
      "n_zero": 6246,
      "⟧)": 6247,
      "orientation": 6248,
      "IsOption": 6249,
      "isCompl": 6250,
      "hfm": 6251,
      "hf_eq": 6252,
      "htμ": 6253,
      "Projective": 6254,
      "e_apply": 6255,
      "_mem_atTop": 6256,
      "hys": 6257,
      "fstSigmaMap": 6258,
      "add_le_add": 6259,
      "ScalarFactor": 6260,
      "_eq_pow": 6261,
      "cast_neg": 6262,
      "expSeries": 6263,
      "CompactLT": 6264,
      "functorPullback": 6265,
      "sndSigmaMap": 6266,
      "measurable_snd": 6267,
      "exists_imp": 6268,
      "integral_eq_lintegral": 6269,
      "carrier_inj": 6270,
      "chain_ne": 6271,
      "_mul_option": 6272,
      "codom": 6273,
      "foldl": 6274,
      "bddBelow": 6275,
      "InnerRegularCompactLT": 6276,
      "_image_": 6277,
      "homologyFunctor": 6278,
      "_eq_iff_eq_add": 6279,
      "inner_": 6280,
      "haarScalarFactor": 6281,
      "independent_sUnion_of_directed": 6282,
      "degree_": 6283,
      "mul_div_cancel_left": 6284,
      "isSeparatedFor": 6285,
      "_map_app": 6286,
      "897": 6287,
      "numeric_option": 6288,
      "addHaar_image_": 6289,
      "922": 6290,
      "lieIdealSubalgebra": 6291,
      "div_le_one_of_le": 6292,
      "73897": 6293,
      "div_mul_div_comm": 6294,
      "Bornology": 6295,
      "_hcard": 6296,
      "integral_eq_lintegral_of_nonneg_ae": 6297,
      "InnerRegularCompactLTTop": 6298,
      "!)": 6299,
      "(‖↑↑": 6300,
      "42": 6301,
      "Box": 6302,
      "Fix": 6303,
      "PSet": 6304,
      "[×": 6305,
      "g2": 6306,
      "mx": 6307,
      "my": 6308,
      "rr": 6309,
      "zt": 6310,
      "₅⟩": 6311,
      "ometry": 6312,
      "IsEmpty": 6313,
      "emod": 6314,
      "mk_eq_mk": 6315,
      "_eq_of_lt": 6316,
      "zero_eq_bot": 6317,
      "norm_smul": 6318,
      "hng": 6319,
      "mul_sum": 6320,
      "hyxu": 6321,
      "fst_univ": 6322,
      "add_closedBall": 6323,
      "_posFittingComp": 6324,
      "mem_filter": 6325,
      "mem_adjoin_simple": 6326,
      "_eq_generateFrom": 6327,
      "Strong": 6328,
      "adrat": 6329,
      "min_le": 6330,
      "cast_zero": 6331,
      "cast_ofNat": 6332,
      "dist_le_mul": 6333,
      "_sub_le_tsum": 6334,
      "InnerProductSpaceable": 6335,
      "_of_cauchy": 6336,
      "_add_lt": 6337,
      "orderOf_dvd": 6338,
      "orderOf_map_": 6339,
      "_sum_norm": 6340,
      "exists_compl": 6341,
      "coe_comp": 6342,
      "'))⁻¹": 6343,
      "LocallyFinite": 6344,
      "Resolut": 6345,
      "subset_toMeasurable": 6346,
      "_norm_le": 6347,
      "bddAbove": 6348,
      "mem_supp": 6349,
      "coherentCoverage": 6350,
      "_of_forall_lt": 6351,
      "((↑)": 6352,
      "covering": 6353,
      "singleton_subset_iff": 6354,
      "reflection": 6355,
      "SameCycle": 6356,
      "_by_X_pow_order": 6357,
      "ided_by_X_pow_order": 6358,
      "hcond_fs": 6359,
      "isCompact_closedBall": 6360,
      "not_false_eq_true": 6361,
      "densityProcess_fst_univ": 6362,
      "add_closedBall_zero": 6363,
      "mem_adjoin_simple_self": 6364,
      "adratic": 6365,
      "_sub_le_tsum_of_cauchy": 6366,
      "orderOf_dvd_card": 6367,
      "orderOf_map_dvd": 6368,
      "_sum_norm_sub_le_tsum_of_cauchy": 6369,
      "exists_compl_positive_negative": 6370,
      "_sum_norm_sub_le_tsum_of_cauchy_snorm": 6371,
      "(@": 6372,
      "?,": 6373,
      "C_eq_coe": 6374,
      "Dep": 6375,
      "Mang": 6376,
      "_lie": 6377,
      "iance": 6378,
      "ll": 6379,
      "von": 6380,
      "↑⟨(": 6381,
      "IsEquivalence": 6382,
      "ariance": 6383,
      "lof": 6384,
      "loop": 6385,
      "id_obj": 6386,
      "mapIso": 6387,
      "ofFinite": 6388,
      "_of_le_one_": 6389,
      "lim_of_mem_": 6390,
      "dist_triangle": 6391,
      "hT_nonneg": 6392,
      "_left_iff": 6393,
      "le_coe": 6394,
      "and_congr": 6395,
      "sum_range": 6396,
      "oldt": 6397,
      "normalize_normalized_factor": 6398,
      "dvd_": 6399,
      "eq_comp_inv": 6400,
      "_sum_coe_nnnorm_sub": 6401,
      "exists_and": 6402,
      "coe_pos": 6403,
      "coe_le_coe": 6404,
      "radius_pos": 6405,
      "_tsub": 6406,
      "_pow_iff": 6407,
      "exists_nat_mul_": 6408,
      "InjectiveResolut": 6409,
      "StrictOrdered": 6410,
      "minkowskiBound_lt_top": 6411,
      "convexBodyLTFactor_ne_zero": 6412,
      "MemClass": 6413,
      "not_exists": 6414,
      "JordanHolder": 6415,
      "injectiveSeminorm": 6416,
      "mem_support_iff": 6417,
      "coeFn_mk": 6418,
      "multiplicity_eq_count": 6419,
      "_monic": 6420,
      "Quadratic": 6421,
      "HasFDerivAt": 6422,
      "ImageToKernel": 6423,
      "HasMapBifunctor": 6424,
      "lintegral_rpow_sum_coe_nnnorm_sub": 6425,
      "IsoCokernelImageToKernel": 6426,
      "optimalGHInjl": 6427,
      "sSup_le_sSup": 6428,
      "not_mem_erase": 6429,
      "compl_subset_compl": 6430,
      "or_iff_not_imp_right": 6431,
      "_le_rpow_tsum": 6432,
      "C_eq_coe_nat": 6433,
      "Mangoldt": 6434,
      "vonMangoldt": 6435,
      "lim_of_mem_C": 6436,
      "exists_nat_mul_gt": 6437,
      "JordanHolderLattice": 6438,
      "multiplicity_eq_count_normalizedFactors": 6439,
      "QuadraticForm": 6440,
      "lintegral_rpow_sum_coe_nnnorm_sub_le_rpow_tsum": 6441,
      "Glued": 6442,
      "TrailingDegree": 6443,
      "_μ": 6444,
      "_den": 6445,
      "_and": 6446,
      "_drop": 6447,
      "bes": 6448,
      "gue": 6449,
      "quot": 6450,
      "|(": 6451,
      "μb": 6452,
      "inhabit": 6453,
      "le_sSup": 6454,
      "IsHomogeneous": 6455,
      "IsOrtho": 6456,
      "eneous": 6457,
      "funMap": 6458,
      "iding": 6459,
      "had": 6460,
      "toIdeal": 6461,
      "ofGroup": 6462,
      "of_pos": 6463,
      "braiding": 6464,
      "_sphere": 6465,
      "entClosure": 6466,
      "MulMemClass": 6467,
      "normal": 6468,
      "mul_smul": 6469,
      "homog": 6470,
      "_iff_summable": 6471,
      "swap_comm": 6472,
      "_zero_right": 6473,
      "_mulVec": 6474,
      "Uniq": 6475,
      "sub_nonneg": 6476,
      "mem_attach": 6477,
      "(-((": 6478,
      "preCDF": 6479,
      "restrictScalars_mem": 6480,
      "ae_of_": 6481,
      "tendsto_iff": 6482,
      "dga": 6483,
      "tensor_μ": 6484,
      "measurable_const": 6485,
      "dvd_of_pos_of_lt": 6486,
      "₂✝).": 6487,
      "whisker_right": 6488,
      "fromGlued": 6489,
      "not_dvd_of_pos_of_lt": 6490,
      "two_": 6491,
      "colim_obj": 6492,
      "associatorBimod": 6493,
      "iSup_apply": 6494,
      "colimitLimitToLimitColimit_π": 6495,
      "adj1": 6496,
      "adj2": 6497,
      "relation": 6498,
      "nnnorm_of_nonneg": 6499,
      "sepDegree": 6500,
      "Opp": 6501,
      "_tsum_coe_nnnorm_sub": 6502,
      "abel_nf": 6503,
      "lintegral_rpow_tsum_coe_nnnorm_sub": 6504,
      "curry_obj_obj_map": 6505,
      "curry_obj_obj_obj": 6506,
      "add_sub_cancel_right": 6507,
      "ι_colimitLimitToLimitColimit_π": 6508,
      "oreDiv": 6509,
      "hausdorffDist": 6510,
      "RankCondition": 6511,
      "isLUB": 6512,
      "StrongRankCondition": 6513,
      "besgue": 6514,
      "eneousHull": 6515,
      "homogeneousHull": 6516,
      "lintegral_rpow_tsum_coe_nnnorm_sub_le_tsum": 6517,
      "ι_colimitLimitToLimitColimit_π_apply": 6518,
      "67": 6519,
      "Ferm": 6520,
      "Galois": 6521,
      "K_comp": 6522,
      "_ae_": 6523,
      "dick": 6524,
      "n2": 6525,
      "rhs": 6526,
      "solve": 6527,
      "tᶜ": 6528,
      "η_": 6529,
      "₀).": 6530,
      "⊤,": 6531,
      "injective_": 6532,
      "at42": 6533,
      "IsPartition": 6534,
      "apt": 6535,
      "toSubgroup": 6536,
      "toDist": 6537,
      "cocomp": 6538,
      "pos_iff": 6539,
      "_eq_of_forall": 6540,
      "hp_one": 6541,
      "neg_div": 6542,
      "left_mem_": 6543,
      "_pos_of_ne_zero": 6544,
      "mem_unique": 6545,
      "IsPullback": 6546,
      "sSup_singleton": 6547,
      "sSup_le_iff": 6548,
      "pow_eq_zero": 6549,
      "prod_pow": 6550,
      "_sub_eq_zero": 6551,
      "count_eq_zero": 6552,
      "ae_restrict": 6553,
      "indicator_indicator": 6554,
      "conv_r": 6555,
      "RelMap": 6556,
      "sum_mem": 6557,
      "sum_sigma": 6558,
      "tendsto_nhds": 6559,
      "integralSum": 6560,
      "_le_coe_submodule": 6561,
      "mono_set": 6562,
      "existsi": 6563,
      "sq_pos_of_pos": 6564,
      "sq_pos_of_ne_zero": 6565,
      "MemBase": 6566,
      "tsum_nnnorm_sub": 6567,
      "_app_assoc": 6568,
      "compl_compl": 6569,
      ")^[": 6570,
      "modByMonic": 6571,
      "mod_eq_of_lt": 6572,
      "edges_": 6573,
      "PowerBasis": 6574,
      "measure_iUnion_le": 6575,
      "wellFounded": 6576,
      "restrict_trim": 6577,
      "_by_elim": 6578,
      "coe_submodule_le_coe_submodule": 6579,
      "_ciInf": 6580,
      "eq_of_sub_eq_zero": 6581,
      "_pos_iff_support": 6582,
      "exists_between": 6583,
      "dotProduct_mulVec": 6584,
      "isGLB_ciInf": 6585,
      "addHaar_image_continuousLinearMap": 6586,
      "_of_le_one_left": 6587,
      "Fermat42": 6588,
      "_ae_lt_top": 6589,
      "dickson": 6590,
      "solve_by_elim": 6591,
      "cocomplex": 6592,
      "conv_rhs": 6593,
      "MemBaseSet": 6594,
      "tsum_nnnorm_sub_ae_lt_top": 6595,
      ")‖)": 6596,
      "18": 6597,
      "Bra": 6598,
      "F0": 6599,
      "VAdd": 6600,
      "WOpp": 6601,
      "_ih": 6602,
      "_distrib": 6603,
      "mfderivWithin": 6604,
      "oe": 6605,
      "≤[": 6606,
      "✝]": 6607,
      "aca": 6608,
      "toRingHom": 6609,
      "toAlgHom": 6610,
      "toLin": 6611,
      "toEReal": 6612,
      "of_mem": 6613,
      "ofRestrict": 6614,
      "of_nnnorm": 6615,
      "vector": 6616,
      "Conj": 6617,
      "_eq_swap_mul": 6618,
      "_of_n": 6619,
      "mul_swap": 6620,
      "mem_nonZeroDivisors": 6621,
      "hbI": 6622,
      "hrr": 6623,
      "Lebesgue": 6624,
      "hdn": 6625,
      "ofReal_re": 6626,
      "_eq_integral": 6627,
      "abil": 6628,
      "StalkMap": 6629,
      "String": 6630,
      "adjoint": 6631,
      "dist_midpoint": 6632,
      "support_pow": 6633,
      "Inverse": 6634,
      "_of_group": 6635,
      "Refle": 6636,
      "DerivAt": 6637,
      "coe_toLinearMap": 6638,
      "splits_": 6639,
      "bij": 6640,
      "totalDegree": 6641,
      "openEmbedding": 6642,
      "_ne_top_iff_summable": 6643,
      "tsum_coe": 6644,
      "Gamma0_mem": 6645,
      "isNilpotent_monomial": 6646,
      "_factors": 6647,
      "isSheaf": 6648,
      "_midpoint_le": 6649,
      "finite_irreducibleComponents": 6650,
      "mul_lt_mul_right": 6651,
      "natCast_dvd": 6652,
      "mul_inv_cancel_right": 6653,
      "idedCategory": 6654,
      "_ciSup": 6655,
      "measure_closedBall_pos": 6656,
      "measure_closedBall_lt_top": 6657,
      "morphismRestrictStalkMap": 6658,
      "isAmalgamation": 6659,
      "_of_hasCompactSupport": 6660,
      "sdiff_le": 6661,
      "nhds_basis": 6662,
      "oreDivAddChar": 6663,
      "isLUB_ciSup": 6664,
      "BraidedCategory": 6665,
      "WOppSide": 6666,
      "mul_swap_eq_swap_mul": 6667,
      "LebesgueDecomposition": 6668,
      "dist_midpoint_midpoint_le": 6669,
      "Reflect": 6670,
      "tsum_coe_ne_top_iff_summable": 6671,
      "isNilpotent_monomial_iff": 6672,
      ")‖₊": 6673,
      "-↑(": 6674,
      "319": 6675,
      "Thr": 6676,
      "X_1": 6677,
      "]?": 6678,
      "^[": 6679,
      "_imp": 6680,
      "cat": 6681,
      "ied": 6682,
      "pat": 6683,
      "yt": 6684,
      "πs": 6685,
      "ℤ_": 6686,
      "↑⌈|": 6687,
      "⋯),": 6688,
      "achable": 6689,
      "realize_": 6690,
      "IsClass": 6691,
      "IsBridge": 6692,
      "imI": 6693,
      "id_eq": 6694,
      "ified": 6695,
      "toNN": 6696,
      "hf3": 6697,
      "SubNeg": 6698,
      "↑(↑(((": 6699,
      "try": 6700,
      "e_5": 6701,
      "hsc": 6702,
      "hsur": 6703,
      "hnn": 6704,
      "HasImage": 6705,
      "ContinuousAt": 6706,
      "sub_mem": 6707,
      "mem_cylinder": 6708,
      "h_ac": 6709,
      "_le_sum": 6710,
      "sSup_union": 6711,
      "Prepartition": 6712,
      "condition": 6713,
      "prod_const": 6714,
      "min_eq_left": 6715,
      "dist_inversion": 6716,
      "isoOf": 6717,
      "div_pow": 6718,
      "coe_mul": 6719,
      "mul_dvd": 6720,
      "mul_conj": 6721,
      "natTrailingDegree": 6722,
      "le_iSup": 6723,
      "transitive": 6724,
      "mem_span": 6725,
      "_inv_mul": 6726,
      "exists_bounded": 6727,
      "fourierIntegral": 6728,
      "inter_iUnion": 6729,
      "inter_eq_right": 6730,
      "_cylinder": 6731,
      "_of_lt_one": 6732,
      "unitGroup": 6733,
      "_tprod": 6734,
      "_nat_add_iff": 6735,
      "nonnegg_pos": 6736,
      "'})).": 6737,
      "compl_eq_univ": 6738,
      "balance": 6739,
      "isClosed_singleton": 6740,
      "homologyMap": 6741,
      "↑(↑↑↑": 6742,
      "strong": 6743,
      "1218": 6744,
      "weightedHomogeneous": 6745,
      "lt_succ_self": 6746,
      "factorThr": 6747,
      "Initial": 6748,
      "quasiMeasurePreserving": 6749,
      "le_mul_pow_of_": 6750,
      "ae_eq_comp": 6751,
      "wPathDest": 6752,
      "continuous_iff_continuousAt": 6753,
      "sum_mul_sum": 6754,
      "vectorSpan": 6755,
      "isSheafFor": 6756,
      "paths": 6757,
      "IsClassified": 6758,
      "toNNRat": 6759,
      "SubNegMonoid": 6760,
      "dist_inversion_inversion": 6761,
      "nonnegg_pos_neg": 6762,
      "compl_eq_univ_diff": 6763,
      "weightedHomogeneousComponent": 6764,
      "quasiMeasurePreserving_fst": 6765,
      "le_mul_pow_of_radius_pos": 6766,
      "10": 6767,
      "48": 6768,
      "Dᵒᵖ": 6769,
      "bif": 6770,
      "fb": 6771,
      "surjective": 6772,
      "word": 6773,
      "αˣ": 6774,
      "εb": 6775,
      "ₘg": 6776,
      "stalk": 6777,
      "alf": 6778,
      "mapHomologicalComplex": 6779,
      "mapsTo": 6780,
      "setOf": 6781,
      "simp_all": 6782,
      "MapData": 6783,
      "norm_of_nonneg": 6784,
      "egoryᵒᵖ": 6785,
      "swap_mul": 6786,
      "comp_map": 6787,
      "hbJ": 6788,
      "HasInitial": 6789,
      "mem_Ioi": 6790,
      "mem_countablePartitionSet": 6791,
      "h2t": 6792,
      "prev": 6793,
      "abs_mul": 6794,
      "le_def": 6795,
      "le_refl": 6796,
      "inf_eq_right": 6797,
      "liftAux": 6798,
      "countablePartitionSet_mem": 6799,
      "measurable_mk": 6800,
      "measurable_prod": 6801,
      "natAbs_eq_zero": 6802,
      "_natDegree_": 6803,
      "whisker_ex": 6804,
      "_mul_exp_neg": 6805,
      "convex_univ": 6806,
      "splitFun": 6807,
      "_res": 6808,
      "_geom": 6809,
      "hPz": 6810,
      "MonoidalFunctor": 6811,
      "equivOf": 6812,
      "DifferentiableOn": 6813,
      "isClosed_range": 6814,
      "commute_": 6815,
      "integrableOn_Ici": 6816,
      "tiplicity": 6817,
      "dominated": 6818,
      "LiftpPreservation": 6819,
      "factorial": 6820,
      "one_le_n": 6821,
      "_minimal": 6822,
      "mem_nhds_iff": 6823,
      "CoxeterSystem": 6824,
      "forall_and": 6825,
      "dualTensorHom": 6826,
      "_div_two_lt": 6827,
      "zpow_neg": 6828,
      "eq_of_monic": 6829,
      "_swap_mul_swap": 6830,
      "tendsto_nhds_unique": 6831,
      "_iff_integrableOn_Ioi": 6832,
      "exists_eq_spanSingleton": 6833,
      "_mem_Icc_of_closed_of_le": 6834,
      "_of_infinite": 6835,
      "mem_nonZeroDivisors_iff_ne_zero": 6836,
      "categoryᵒᵖ": 6837,
      "exists_bounded_mem_Icc_of_closed_of_le": 6838,
      "factorThru": 6839,
      "swap_mul_swap_mul_swap": 6840,
      "whisker_exchange": 6841,
      "integrableOn_Ici_iff_integrableOn_Ioi": 6842,
      "exists_eq_spanSingleton_mul": 6843,
      "019": 6844,
      "49": 6845,
      "52": 6846,
      "9019": 6847,
      "GMonoid": 6848,
      "Gmodule": 6849,
      "HA": 6850,
      "Rack": 6851,
      "Y_ne": 6852,
      "be": 6853,
      "b_up": 6854,
      "gh": 6855,
      "hQ": 6856,
      "hY": 6857,
      "ncard": 6858,
      "sR": 6859,
      "sWithCircumcenter": 6860,
      "tally": 6861,
      "xy": 6862,
      "ylt": 6863,
      "yoned": 6864,
      "ybe": 6865,
      "|⟨": 6866,
      "₁[": 6867,
      "₁)).": 6868,
      "→◃": 6869,
      "→₁[": 6870,
      "✝].": 6871,
      "⟨↑((": 6872,
      "le_of_eq": 6873,
      "edean": 6874,
      "imedean": 6875,
      "Normalize": 6876,
      "NormedCommRing": 6877,
      "isPi": 6878,
      "isLocal": 6879,
      "ge_of_not_lt": 6880,
      "ulated": 6881,
      "ive_": 6882,
      "haI": 6883,
      "of_mul_left": 6884,
      "_nbij": 6885,
      "mk_surjective": 6886,
      "hpc": 6887,
      "On_contDiff": 6888,
      "maybe": 6889,
      "normalized": 6890,
      "_of_not_": 6891,
      "HomAux": 6892,
      "HomToHom": 6893,
      "HomRTensor": 6894,
      "homMk": 6895,
      "comp_of_s": 6896,
      "hbo": 6897,
      "inv_smul": 6898,
      "_mul_le_": 6899,
      "_mul_sq": 6900,
      "sup_le": 6901,
      "mem_Iio": 6902,
      "Arch": 6903,
      "(-⇑": 6904,
      "sSup_image": 6905,
      "allyCompactSpace": 6906,
      "IsoOfEq": 6907,
      "ofReal_pow": 6908,
      "Pretriang": 6909,
      "h2x": 6910,
      "cast_div": 6911,
      "getI": 6912,
      "mul_add": 6913,
      "andle": 6914,
      "sum_nbij": 6915,
      "smulAddMonoidHom": 6916,
      "_iff_aux": 6917,
      "preimage_image": 6918,
      "exists_eventually": 6919,
      "exists_forall": 6920,
      "includeRight_apply": 6921,
      "⟨⟨?": 6922,
      "_mk_left": 6923,
      "nonneg_mul_le": 6924,
      "Groupoid_iff_aux": 6925,
      "cokernelIsoOfEq": 6926,
      "CompositionSeries": 6927,
      "not_fals": 6928,
      "_const_mul_le_": 6929,
      "WeightsWithCircumcenter": 6930,
      "StructomorphOn_contDiff": 6931,
      "_mul_right_left": 6932,
      "mulOption_lt": 6933,
      "regular": 6934,
      "rTensorHomEquiv": 6935,
      "rTensorHomToHom": 6936,
      "129019": 6937,
      "gluedCover": 6938,
      "Quasi": 6939,
      "Quandle": 6940,
      "sum_blocksFun": 6941,
      "eq_empty_iff_forall": 6942,
      "GradedObject": 6943,
      "LeftHomologyMapData": 6944,
      "eq_zero_or_loc": 6945,
      "Dense": 6946,
      "card_fin": 6947,
      "h_comm_square": 6948,
      "mul_right_inj": 6949,
      "ProperMap": 6950,
      "IsoCokernelLift": 6951,
      "optimalGHInjr": 6952,
      "evenOdd": 6953,
      "isOpenImmersion_res": 6954,
      "12449": 6955,
      "pow_dvd_pow_iff": 6956,
      "_eq_pow_sum": 6957,
      "StrictOrderedCommRing": 6958,
      "apted": 6959,
      "prod_pow_eq_pow_sum": 6960,
      "toLinHomAux": 6961,
      "splits_comp_of_s": 6962,
      "measurable_prod_mk_left": 6963,
      "ghDist": 6964,
      "tallyBounded": 6965,
      "yoneda_": 6966,
      "isPiSystem": 6967,
      "isLocalStructomorphOn_contDiff": 6968,
      "of_mul_left_left": 6969,
      "maybeNormalize": 6970,
      "Archimedean": 6971,
      "allyCompactSpace_of_group": 6972,
      "Pretriangulated": 6973,
      "exists_eventually_const_mul_le_": 6974,
      "nonneg_mul_lem": 6975,
      "not_false_iff": 6976,
      "rTensorHomEquivHomRTensor": 6977,
      "rTensorHomToHomRTensor": 6978,
      "eq_empty_iff_forall_not_mem": 6979,
      "eq_zero_or_locallyCompactSpace_of_group": 6980,
      "isOpenImmersion_respectsIso": 6981,
      "splits_comp_of_splits": 6982,
      "isLocalStructomorphOn_contDiffGroupoid_iff_aux": 6983,
      "exists_eventually_const_mul_le_r": 6984,
      "(!": 6985,
      "1Space": 6986,
      "HEq": 6987,
      "WO": 6988,
      "_ℂ": 6989,
      "_de": 6990,
      "_tail": 6991,
      "_vadd": 6992,
      "_conver": 6993,
      "_coe_apply": 6994,
      "bas": 6995,
      "family": 6996,
      "g_g": 6997,
      "hux": 6998,
      "killing": 6999,
      "ms": 7000,
      "mand": 7001,
      "no": 7002,
      "s_s": 7003,
      "siz": 7004,
      "tiset": 7005,
      "uper": 7006,
      "{⟨": 7007,
      "‖}": 7008,
      "₃⟩)": 7009,
      "∂↑": 7010,
      "⋯)))": 7011,
      "⟨∑'": 7012,
      "peat": 7013,
      "rox": 7014,
      "repeat": 7015,
      "IsAlgebraic": 7016,
      "arcc": 7017,
      "imJ": 7018,
      "toLinearEquiv": 7019,
      "to_subtype": 7020,
      "eq_of_subset": 7021,
      "cocompact": 7022,
      "_eq_min": 7023,
      "_eq_mul_div": 7024,
      "hpX": 7025,
      "zero_sub": 7026,
      "hsmul": 7027,
      "hnj": 7028,
      "(↑⟨(": 7029,
      "mem_mul": 7030,
      "mem_of_s": 7031,
      "rows_": 7032,
      "mem_compPartialSumTarget": 7033,
      "s_fixedBy": 7034,
      "fined": 7035,
      "ZeroClass": 7036,
      "pow_eq_one": 7037,
      "RightDerived": 7038,
      "prodMap": 7039,
      "isoRightDerived": 7040,
      "divided_by_X_pow_order": 7041,
      "image_subset_iff": 7042,
      "gcd_eq_zero": 7043,
      "abs_of_nonneg": 7044,
      "finrank_eq": 7045,
      "_of_gcd_eq_one": 7046,
      "_of_dominated": 7047,
      "_of_gcd_eq_zero": 7048,
      "degree_eq_bot": 7049,
      "_negPart": 7050,
      "Ioo_subset_Ioi": 7051,
      "summand": 7052,
      "smul_zero": 7053,
      "_iff_indicator": 7054,
      "exists_index": 7055,
      "'⟩}": 7056,
      "measure_toMeasurable": 7057,
      "heaf_": 7058,
      "eventuallyEq": 7059,
      "Accum": 7060,
      "stepAux_move": 7061,
      "hasFDerivWithinAt": 7062,
      "sq_of_gcd_eq_one": 7063,
      "trans_apply": 7064,
      "_range_succ": 7065,
      "smul_tmul": 7066,
      "smul_tprod": 7067,
      "_ge_nat": 7068,
      "_of_nonneg_right": 7069,
      "borel_eq_generateFrom": 7070,
      "_symmDiff": 7071,
      "gence": 7072,
      "eventually_atTop_ge_nat": 7073,
      "coeFn_negPart": 7074,
      "eq_zero_of_gcd_eq_zero": 7075,
      "_bounded": 7076,
      "lowerBounds": 7077,
      "forall_exists_index": 7078,
      "subset_union_right": 7079,
      "well_de": 7080,
      "Apply": 7081,
      "restrict_restrict": 7082,
      "Terminal": 7083,
      "arrowCongr": 7084,
      "_move_left": 7085,
      "HasLimits": 7086,
      "count_well_de": 7087,
      "div_mul_eq_mul_div": 7088,
      "HasImages": 7089,
      "_geometric": 7090,
      "_convergence": 7091,
      "basic": 7092,
      "g_grows_": 7093,
      "killingForm": 7094,
      "s_ss_fixedBy": 7095,
      "size_": 7096,
      "uperset": 7097,
      "arccos": 7098,
      "mem_of_superset": 7099,
      "mem_compPartialSumTarget_iff": 7100,
      "_of_dominated_convergence": 7101,
      "Ioo_subset_Ioi_self": 7102,
      "count_well_defined": 7103,
      "g_grows_poly": 7104,
      "'₀": 7105,
      "Aᵀ": 7106,
      "Code": 7107,
      "Jacob": 7108,
      "_permutations": 7109,
      "_eval": 7110,
      "_ant": 7111,
      "_Ioc": 7112,
      "a_eq": 7113,
      "bd": 7114,
      "hconst": 7115,
      "rx": 7116,
      "tX": 7117,
      "tY": 7118,
      "tZ": 7119,
      "uα": 7120,
      "uβ": 7121,
      "uγ": 7122,
      "zsmul_": 7123,
      "ιMap": 7124,
      "‖‖": 7125,
      "∏'": 7126,
      "⌈(↑(": 7127,
      "✝)).": 7128,
      "asing": 7129,
      "reasing": 7130,
      "isSeparable": 7131,
      "isEmpty": 7132,
      "toPerm": 7133,
      "toString": 7134,
      "eq_iff": 7135,
      "map_posFittingComp": 7136,
      "ofTop": 7137,
      "mkRat": 7138,
      "_eq_span_singleton": 7139,
      "CompPartial": 7140,
      "neg_ne_zero": 7141,
      "atTop_basis": 7142,
      "left_lt_add": 7143,
      "_of_le_": 7144,
      "_of_natDegree_": 7145,
      "mulRight": 7146,
      "mulSupport": 7147,
      "mul_le_mul": 7148,
      "Le_mul": 7149,
      "valid": 7150,
      "sup_": 7151,
      "mem_circumsphere": 7152,
      "Aux_of_not_mem": 7153,
      "card_image": 7154,
      "_le_of_mem_": 7155,
      "h1p": 7156,
      "pow_left": 7157,
      "op_comp": 7158,
      "closure_fst": 7159,
      "closure_induction": 7160,
      "_23": 7161,
      "coe_nnnorm": 7162,
      "map_weightSpace": 7163,
      "Value_": 7164,
      "_right_iff": 7165,
      "_apply_inv_mul": 7166,
      "⋯⟩).": 7167,
      "dec_": 7168,
      "decreasing": 7169,
      "size_eq": 7170,
      "sum_le_sum": 7171,
      "tendsto_right_iff": 7172,
      "LieModuleEquiv": 7173,
      "_inv_comp": 7174,
      "hlast": 7175,
      "tensorHom": 7176,
      "measurable_eq": 7177,
      "orderOf_dvd_iff_": 7178,
      "exists_eventually_r": 7179,
      "_le_const_mul": 7180,
      "continuous_integral": 7181,
      "unitCompPartial": 7182,
      "ring1": 7183,
      "bot_lt": 7184,
      "hasBasis": 7185,
      "sqLe_mul": 7186,
      "convexHull": 7187,
      "_rnDeriv": 7188,
      "EffectiveEpimorphic": 7189,
      "disjoint_sup": 7190,
      "ofNat_eq_coe": 7191,
      "isClosed_iUnion": 7192,
      "edgeDensity": 7193,
      "stoppedValue_": 7194,
      "_closedBall_pow": 7195,
      "list_trans": 7196,
      "ReflTransGen": 7197,
      "Cycle_": 7198,
      "mk_vcomp": 7199,
      "GradedMonoid": 7200,
      "nodup_permutations": 7201,
      "foldr_": 7202,
      "coprime_of_minimal": 7203,
      "cons_head_tail": 7204,
      "ae_of_all": 7205,
      "two_zsmul_": 7206,
      "nhds_basis_closedBall_pow": 7207,
      "_mul_exp_neg_mul_sq": 7208,
      "Jacobian": 7209,
      "_anti": 7210,
      "ιMapBifunctor": 7211,
      "toPermHom": 7212,
      "map_posFittingComp_eq": 7213,
      "left_lt_add_div_two": 7214,
      "_of_natDegree_le": 7215,
      "map_weightSpace_eq": 7216,
      "orderOf_dvd_iff_pow_eq_one": 7217,
      "exists_eventually_r_le_const_mul": 7218,
      "continuous_integral_apply_inv_mul": 7219,
      "unitCompPartialBijective": 7220,
      "isClosed_iUnion_of_finite": 7221,
      "list_transvec": 7222,
      "two_zsmul_oangle": 7223,
      "#{": 7224,
      "-⟦": 7225,
      "Core": 7226,
      "Eig": 7227,
      "Periodic": 7228,
      "_closure": 7229,
      "cending": 7230,
      "fa": 7231,
      "frobenius": 7232,
      "gMul": 7233,
      "hint": 7234,
      "iht": 7235,
      "lsmul": 7236,
      "wRec": 7237,
      "zeta": 7238,
      "{(": 7239,
      "ι_π": 7240,
      "₁⟩,": 7241,
      "↥⊥": 7242,
      "⇑{": 7243,
      "alMap": 7244,
      "ascending": 7245,
      "requ": 7246,
      "ramer": 7247,
      "imK": 7248,
      "im_smul": 7249,
      "isCycle_": 7250,
      "anish": 7251,
      "toPoly": 7252,
      "toPartialHomeomorph": 7253,
      "config": 7254,
      "of_h": 7255,
      "mk_ne_zero": 7256,
      "ently": 7257,
      "_eq_sub": 7258,
      "norm_eq_zero": 7259,
      "norm_le_": 7260,
      "OfNat": 7261,
      "_iff_left": 7262,
      "OrderClosed": 7263,
      "inv_pos": 7264,
      "add_div_two_lt": 7265,
      "sub_sub": 7266,
      "mem_affineSpan": 7267,
      "h_lt": 7268,
      "h_top": 7269,
      "h_real": 7270,
      "h_three": 7271,
      "card_support": 7272,
      "succ_ne": 7273,
      "prod_nonneg": 7274,
      "insert_comm": 7275,
      "insert_subset_iff": 7276,
      "insert_erase": 7277,
      "coe_n": 7278,
      "limitIsoLimitCurryCompLim": 7279,
      "mul_emod": 7280,
      "_inner": 7281,
      "Ext": 7282,
      "Independent_iff_not_": 7283,
      "equation": 7284,
      "Relation": 7285,
      "mem_sigma": 7286,
      "sum_empty": 7287,
      "one_iff": 7288,
      "unop_op": 7289,
      "Reach": 7290,
      "sign_eq_zero_iff": 7291,
      "_inv_app": 7292,
      "_iff_colimit": 7293,
      "_iff_isSheafFor": 7294,
      "exists_isAmalgamation": 7295,
      "natAbs_ofNat": 7296,
      "unitary": 7297,
      "ModularGroup": 7298,
      "_power": 7299,
      "forallYoneda": 7300,
      "mono_of_injective": 7301,
      "exists_mem": 7302,
      "_of_le_of_le": 7303,
      "IsConform": 7304,
      "splits": 7305,
      "integrable_": 7306,
      "bius": 7307,
      "subset_univ": 7308,
      "a_w": 7309,
      "ideal_factor": 7310,
      "Trivial": 7311,
      "affineIndependent_iff_not_": 7312,
      "ReflGen": 7313,
      "slice_rhs": 7314,
      "isSheaf_": 7315,
      "_of_subset_left": 7316,
      "_of_subset_of_nonneg": 7317,
      "natCast_inj": 7318,
      "IsSheaf_iff_colimit": 7319,
      "mul_neg_one": 7320,
      "CauchySeq": 7321,
      "hcond_gs": 7322,
      "mul_lt_mul_of_pos_right": 7323,
      "_eq_div_normSq": 7324,
      "coprime_mul_right_right": 7325,
      "or_true_iff": 7326,
      "_and_exists_isAmalgamation": 7327,
      "_maximalIdeal": 7328,
      "isSeparatedFor_and_exists_isAmalgamation": 7329,
      "hadp": 7330,
      "oebius": 7331,
      "sum_le_sum_of_subset_of_nonneg": 7332,
      "requently": 7333,
      "im_smul_eq_div_normSq": 7334,
      "isCycle_cycleOf": 7335,
      "OrderClosedTopology": 7336,
      "add_div_two_lt_right": 7337,
      "succ_ne_self": 7338,
      "Reaches": 7339,
      "forallYonedaIsSheaf_iff_colimit": 7340,
      "IsConformalMap": 7341,
      "ideal_factor_ne_zero": 7342,
      "affineIndependent_iff_not_collinear": 7343,
      "isSeparatedFor_and_exists_isAmalgamation_iff_isSheafFor": 7344,
      "'✝¹,": 7345,
      "(⋯.": 7346,
      ")⟩,": 7347,
      "@(": 7348,
      "DFunLike": 7349,
      "PDF": 7350,
      "_exists_": 7351,
      "_embeddingReal": 7352,
      "_one_div": 7353,
      "_rename_": 7354,
      "_I_ne_zero": 7355,
      "fal": 7356,
      "ground": 7357,
      "hu_": 7358,
      "hup": 7359,
      "hus": 7360,
      "k2": 7361,
      "k_1": 7362,
      "rsuffices": 7363,
      "ust": 7364,
      "ιM": 7365,
      "⟨‖": 7366,
      "⟪↑↑": 7367,
      "Comap": 7368,
      "ithf": 7369,
      "ence": 7370,
      "toIntCast": 7371,
      "connectedSpace": 7372,
      "_smul_": 7373,
      "counitIso": 7374,
      "izer": 7375,
      "hcpos": 7376,
      "fty": 7377,
      "MapComap": 7378,
      "hn2": 7379,
      "homAux": 7380,
      "hbt": 7381,
      "add_one": 7382,
      "val_injective": 7383,
      "sub_const": 7384,
      "sup_apply": 7385,
      "sup_eq_right": 7386,
      "mem_parallelepiped": 7387,
      "hef": 7388,
      "univ_sum": 7389,
      "_eq_iSup": 7390,
      "pow_": 7391,
      "extension": 7392,
      "insert_eq_of_mem": 7393,
      "div_le": 7394,
      "image_univ": 7395,
      "image_iUnion": 7396,
      "map_one": 7397,
      "_of_bound": 7398,
      "le_radius": 7399,
      "sum_eq_zero": 7400,
      "inf_apply": 7401,
      "hl2": 7402,
      "expand_wittPolynomial": 7403,
      "exists_extension": 7404,
      "fourier_coe_apply": 7405,
      "_le_exp": 7406,
      "hvs": 7407,
      "Tail": 7408,
      "ring_iff": 7409,
      "[])": 7410,
      "single_smul": 7411,
      "singleObj": 7412,
      "GenEig": 7413,
      "Adjunction": 7414,
      "_le_iff_mem": 7415,
      "two_pi": 7416,
      "_app_one": 7417,
      "itive_": 7418,
      "integrableOn_union": 7419,
      "parallelPairHom_app_one": 7420,
      "_function": 7421,
      "adjunction": 7422,
      "nthLe_of_mem": 7423,
      "structure": 7424,
      "vecTail": 7425,
      "span_singleton_le_iff_mem": 7426,
      "abs_map": 7427,
      "cast_pred": 7428,
      "nnnorm_neg": 7429,
      "eq_or_lt_of_le": 7430,
      "Faithf": 7431,
      "uniformity": 7432,
      "orderIsoMapComap": 7433,
      "naturality_assoc": 7434,
      "isBigO_symm": 7435,
      "_Iic_rat": 7436,
      "card_attach": 7437,
      "hom_inv_id_app_assoc": 7438,
      "summable_nat_add_iff": 7439,
      "nthLe_insertNth_self": 7440,
      "elyContinuous": 7441,
      "_inf_le": 7442,
      "ι_colimMap": 7443,
      "insert_diff_singleton": 7444,
      "disjoint_iff_inf_le": 7445,
      "coprime_mul_left_right": 7446,
      "measurableEmbedding_embeddingReal": 7447,
      "ext_ring_iff": 7448,
      "isCompl_iff": 7449,
      "min_le_right": 7450,
      "InjectiveResolution": 7451,
      "abilizer": 7452,
      "wordProd": 7453,
      "yoneda_obj": 7454,
      "card_image_of_injective": 7455,
      "coe_nnreal": 7456,
      "isSheaf_yoneda_obj": 7457,
      "_rename_expand_wittPolynomial": 7458,
      "falsum": 7459,
      "mem_parallelepiped_iff": 7460,
      "univ_sum_single": 7461,
      "le_radius_of_bound": 7462,
      "two_pi_I_ne_zero": 7463,
      "Faithful": 7464,
      "252": 7465,
      "Half": 7466,
      "Principal": 7467,
      "Swap": 7468,
      "Spec": 7469,
      "^((": 7470,
      "_denom": 7471,
      "bis": 7472,
      "bsup": 7473,
      "c_mul_im_sq": 7474,
      "late": 7475,
      "nullMeasurableSet": 7476,
      "sb": 7477,
      "s_nth": 7478,
      "zpowers": 7479,
      "₀.": 7480,
      "₁'.": 7481,
      "₁^((": 7482,
      "∞))": 7483,
      "⟨-": 7484,
      "⟨![": 7485,
      "string": 7486,
      "peri": 7487,
      "IsUniform": 7488,
      "ane": 7489,
      "toPseudoMetricSpace": 7490,
      "toEnvelGroup": 7491,
      "ules": 7492,
      "hts": 7493,
      "Substring": 7494,
      "_source": 7495,
      "↑(∫⁻": 7496,
      "ece": 7497,
      "MulOpposite": 7498,
      "MapMap": 7499,
      "zero_comp": 7500,
      "Semigroup": 7501,
      "Icc_subset_Ici_self": 7502,
      "norm_eq": 7503,
      "norm_map": 7504,
      "_of_nhds": 7505,
      "_iff_right": 7506,
      "compr": 7507,
      "apply_r": 7508,
      "hy0": 7509,
      "add_tsub": 7510,
      "_mul_non": 7511,
      "_multiset": 7512,
      "valIntegrable": 7513,
      "sub_smul": 7514,
      "_le_normSq": 7515,
      "hdir": 7516,
      "sSup_sUnion": 7517,
      "ofReal_neg": 7518,
      "_eq_fun": 7519,
      "Preconnected": 7520,
      "preΨ": 7521,
      "_lt_rpow": 7522,
      "map_inv": 7523,
      "Choose": 7524,
      "EquivFun": 7525,
      "normalizedFactors_zero": 7526,
      "abs_self": 7527,
      "_of_left": 7528,
      "_of_pow_two": 7529,
      "_of_two_zsmul_oangle": 7530,
      ")})).": 7531,
      "comap_mono": 7532,
      "nilpotent": 7533,
      "PairwiseDisjoint": 7534,
      "piece": 7535,
      "tendsto_of_not_mem": 7536,
      "inductionOn": 7537,
      "smul_smul": 7538,
      "Supports": 7539,
      "hl1": 7540,
      "hji": 7541,
      "_add_cancel": 7542,
      "lift_mk": 7543,
      "dvd_iff_le": 7544,
      "four_le_": 7545,
      "_central": 7546,
      "continuous_inv": 7547,
      "hKf": 7548,
      "exists_seq_": 7549,
      "Plane": 7550,
      "congr_fun": 7551,
      "elim_": 7552,
      "UpperHalf": 7553,
      "withDensity_eq_set": 7554,
      "associates_": 7555,
      "_mem_fixed": 7556,
      "_of_mem_erase": 7557,
      "disjoint_sSup": 7558,
      "isOpen_iff": 7559,
      "IntervalIntegrable": 7560,
      "lfpApprox_mem_fixed": 7561,
      "edist_dist": 7562,
      "coprime_iff": 7563,
      "isSome": 7564,
      "LIntegral_mul_non": 7565,
      "mul_right_comm": 7566,
      "setLIntegral_withDensity_eq_set": 7567,
      "pow_two_of_pow_two": 7568,
      "hfxv": 7569,
      "_sameRay": 7570,
      "isNoetherian_pi": 7571,
      "isNoetherian_of_surjective": 7572,
      "strictMono_y": 7573,
      "strictMono_tendsto_of_not_mem": 7574,
      "comp_whiskerRight_assoc": 7575,
      "ucing": 7576,
      "isSeparable_range": 7577,
      "sup_exists": 7578,
      "affineIndependent_iff_not_collinear_set": 7579,
      "pow_four_le_": 7580,
      "25201": 7581,
      "bisim": 7582,
      "c_mul_im_sq_le_normSq": 7583,
      "s_nth_eq": 7584,
      "apply_rules": 7585,
      "ChooseBasisIndex": 7586,
      "_of_two_zsmul_oangle_eq": 7587,
      "_central_series": 7588,
      "exists_seq_strictMono_tendsto_of_not_mem": 7589,
      "UpperHalfPlane": 7590,
      "associates_irreducible": 7591,
      "disjoint_sSup_right": 7592,
      "lfpApprox_mem_fixedPoint": 7593,
      "LIntegral_mul_non_measurable": 7594,
      "setLIntegral_withDensity_eq_setLIntegral_mul_non_measurable": 7595,
      "pow_two_of_pow_two_le": 7596,
      "pow_four_le_pow_two_of_pow_two_le": 7597,
      "c_mul_im_sq_le_normSq_denom": 7598,
      ")⟩))": 7599,
      "HL2": 7600,
      "Kˣ": 7601,
      "Max": 7602,
      "Poc": 7603,
      "_X": 7604,
      "_d": 7605,
      "_condKernel": 7606,
      "dart": 7607,
      "frequently": 7608,
      "glb": 7609,
      "hL": 7610,
      "hha": 7611,
      "hInv": 7612,
      "ton": 7613,
      "tion": 7614,
      "wton": 7615,
      "yi": 7616,
      "¬¬": 7617,
      "π_assoc": 7618,
      "∂(": 7619,
      "le_of_forall_lt": 7620,
      "IsRoot": 7621,
      "enum": 7622,
      "isP": 7623,
      "ToTypes": 7624,
      "mapRingHom": 7625,
      "exfals": 7626,
      "_seq": 7627,
      "pos_iff_ne_zero": 7628,
      "↑(-↑": 7629,
      "irr": 7630,
      "ConGen": 7631,
      "hcs": 7632,
      "norm_of_nonpos": 7633,
      "_ofNNReal": 7634,
      "mmer": 7635,
      "_iff_ofNNReal": 7636,
      "lt_iff_": 7637,
      "comp_app": 7638,
      "length_toList": 7639,
      "max_neg_neg": 7640,
      "add_mul_right_left": 7641,
      "_pos_add_lt": 7642,
      "all_iff": 7643,
      "ContinuousMap": 7644,
      "Under": 7645,
      "mem_bot": 7646,
      "mem_interior": 7647,
      "_le_toReal": 7648,
      "_eq_range": 7649,
      "_eq_π_assoc": 7650,
      "spanning": 7651,
      "prod_insert": 7652,
      "h2X": 7653,
      "ClosedIic": 7654,
      "cast_le": 7655,
      "closure_subset": 7656,
      "div_one": 7657,
      "div_eq_iff": 7658,
      "mul_one_div": 7659,
      "_sub_one": 7660,
      "map_cons": 7661,
      "toReal_le_toReal": 7662,
      "_ne_map_eq": 7663,
      "Ioi_mem_atTop": 7664,
      "ae_eventually_measure": 7665,
      "ae_all_iff": 7666,
      "FunctorToTypes": 7667,
      "le_abs_self": 7668,
      "_self_iff": 7669,
      "MinOn": 7670,
      "dvd_iff_": 7671,
      "dvd_pow": 7672,
      "exists_cons": 7673,
      "integral_pos_iff_support": 7674,
      "base_": 7675,
      "interpo": 7676,
      "_mk_iff": 7677,
      "exists_eq_add": 7678,
      "exists_ne_map_eq": 7679,
      "descPoc": 7680,
      "whiskerEquiv": 7681,
      "gt_atTop": 7682,
      "_mul_X": 7683,
      "_family": 7684,
      "a_glb": 7685,
      "aeSeq_eq_fun": 7686,
      "zoomed": 7687,
      "SuccOrder": 7688,
      "_of_mem_aeSeqSet": 7689,
      "_fst_condKernel": 7690,
      "NonAssocRing": 7691,
      "compProd_fst_condKernel": 7692,
      "domCoprod": 7693,
      "jective_iff": 7694,
      "_ae_eq": 7695,
      "annihilator_bot": 7696,
      "diction": 7697,
      "eventually_gt_atTop": 7698,
      "uIcc_of_le": 7699,
      "mem_coeSubmodule": 7700,
      "_of_dvd_of_natDegree_le": 7701,
      "hasFiniteIntegral_iff_ofNNReal": 7702,
      "continuousAt_": 7703,
      "eventually_r_pos": 7704,
      "eventually_r_lt_n": 7705,
      "charpoly": 7706,
      "geom_sum": 7707,
      "pathDestRight": 7708,
      "pathDestLeft": 7709,
      "zoom_zoomed": 7710,
      "norm_smul_le": 7711,
      "Reflective": 7712,
      "eq_of_monic_of_dvd_of_natDegree_le": 7713,
      "preimage_image_eq": 7714,
      "exists_forall_pos_add_lt": 7715,
      "Relations": 7716,
      "PDFReal": 7717,
      "add_tsub_cancel_right": 7718,
      "hhammer": 7719,
      "exfalso": 7720,
      "ClosedIicTopology": 7721,
      "ae_eventually_measure_pos": 7722,
      "integral_pos_iff_support_of_nonneg": 7723,
      "exists_ne_map_eq_of_infinite": 7724,
      "descPochhammer": 7725,
      "aeSeq_eq_fun_of_mem_aeSeqSet": 7726,
      "(⟦": 7727,
      "(⨂[": 7728,
      ")⟩)": 7729,
      "00": 7730,
      "@⟨⟨⟩⟩": 7731,
      "E1": 7732,
      "E2": 7733,
      "Iu": 7734,
      "Rot": 7735,
      "Tag": 7736,
      "Z_eq_zero": 7737,
      "_hj": 7738,
      "_orderOf": 7739,
      "_withDensity": 7740,
      "_unique": 7741,
      "c_neg": 7742,
      "ged": 7743,
      "lish": 7744,
      "odd": 7745,
      "yᶜ": 7746,
      "₀))": 7747,
      "₁').": 7748,
      "↑∅": 7749,
      "∞),": 7750,
      "⟩|⟨": 7751,
      "⟪(": 7752,
      "asIso": 7753,
      "IsField": 7754,
      "IsHaarMeasure": 7755,
      "endsto": 7756,
      "isIntegr": 7757,
      "GroupWithZero": 7758,
      "ify": 7759,
      "ifield": 7760,
      "RingNorm": 7761,
      "MeasurableAdd": 7762,
      "toMultilinearMap": 7763,
      "MeasureEq": 7764,
      "MeasurePreimage": 7765,
      "of_surjective": 7766,
      "MulRingNorm": 7767,
      "Semifield": 7768,
      "ptendsto": 7769,
      "_of_m": 7770,
      "mem_max": 7771,
      "OrderIso": 7772,
      "Polish": 7773,
      "SumCongr": 7774,
      "length_le": 7775,
      "HasContinuous": 7776,
      "HasRight": 7777,
      "HasFundamentalDomain": 7778,
      "HasEqu": 7779,
      "ciSup": 7780,
      "algebraMap_eq": 7781,
      "mem_inter": 7782,
      "card_zero": 7783,
      "Iso_hom": 7784,
      "ofReal_natCast": 7785,
      "_eq_tsum": 7786,
      "pliable": 7787,
      "op_id": 7788,
      "div_nonneg": 7789,
      "gcd_dvd": 7790,
      "gcd_mul_right": 7791,
      "ModSumCongr": 7792,
      "enspace": 7793,
      "alizers": 7794,
      "subtypeRe": 7795,
      "constr": 7796,
      "matrix": 7797,
      "append_assoc": 7798,
      "_right_assoc": 7799,
      "QuotientMeasureEq": 7800,
      "_of_Z_eq_zero": 7801,
      "cycleOf_apply_self": 7802,
      "equal": 7803,
      "_to_Gamma0_mem": 7804,
      "MvPowerSeries": 7805,
      "take": 7806,
      "stieltjesOfMeasurableRat_Iic": 7807,
      "_subset_of_nhds": 7808,
      "evariance": 7809,
      "MonoCoprod": 7810,
      "IsAddRightInvariant": 7811,
      "exists_prim": 7812,
      "exists_upper": 7813,
      "newton": 7814,
      "measure_pos": 7815,
      "_le_lintegral": 7816,
      "continuous_ind": 7817,
      "Iio_mem_nhds": 7818,
      "hasFun": 7819,
      "hasDerivAt": 7820,
      ")!))": 7821,
      "⟩⟩)": 7822,
      "subset_ground": 7823,
      "IsLocalMax": 7824,
      "Semicontinuous_le_lintegral": 7825,
      "_rec": 7826,
      "_rev": 7827,
      "(⟨-": 7828,
      "not_not": 7829,
      "zero_lt_two": 7830,
      "AlgEquiv": 7831,
      "Gamma1_to_Gamma0_mem": 7832,
      "AngleRot": 7833,
      "ofNat_pos": 7834,
      "isClosed_Iic": 7835,
      "iSup_subtype": 7836,
      "_C_iff": 7837,
      "isOpen_support": 7838,
      "noncommPiCoprod_range": 7839,
      "integrableOn_rpow": 7840,
      "normSq_eq_abs": 7841,
      "hitting_mem": 7842,
      "vsub_sub": 7843,
      "derivative_mul": 7844,
      "1289": 7845,
      "_congr_fun": 7846,
      "one_lt_div": 7847,
      "isNilpotent_C_iff": 7848,
      "_null_iff": 7849,
      "₁₅₂,": 7850,
      "))⁻¹)": 7851,
      "gluedLift": 7852,
      "hasSum_iff": 7853,
      "comp_aemeasurable": 7854,
      "ih1_swap": 7855,
      "QuasiMeasurePreserving": 7856,
      "AdjointUniq": 7857,
      "₃₅₄]": 7858,
      "_rat_imp": 7859,
      "tfae_5_to_1": 7860,
      "natCast_": 7861,
      "setLIntegral_congr_fun": 7862,
      "measure_iUnion_null_iff": 7863,
      "896": 7864,
      "map_id_apply": 7865,
      "le_max_left": 7866,
      "_rootSpace": 7867,
      "SheafedSpace": 7868,
      "measure_stieltjesOfMeasurableRat_Iic": 7869,
      "Hrd": 7870,
      "eventually_filterAt_measurableSet": 7871,
      "eventually_filterAt_subset_of_nhds": 7872,
      "17460": 7873,
      "17464": 7874,
      "BddBelow": 7875,
      "128896": 7876,
      "associator_inv_naturality_right_assoc": 7877,
      "contMDiffOn": 7878,
      "₁'⟩),": 7879,
      "not_mem_support": 7880,
      "LocallyFiniteOrder": 7881,
      "sum_range_sub": 7882,
      "normalClosure": 7883,
      "strongInduction": 7884,
      "whisker_exchange_assoc": 7885,
      "hasFDerivWithinAt_univ": 7886,
      "stoppedValue_hitting_mem": 7887,
      "gMul_def": 7888,
      "of_h_eq_floor": 7889,
      "GenEigenspace": 7890,
      "itive_element": 7891,
      "period": 7892,
      "piecewise": 7893,
      "Tagged": 7894,
      "isIntegrallyClosed": 7895,
      "mem_maxGenEigenspace": 7896,
      "PolishSpace": 7897,
      "HasContinuousInv": 7898,
      "HasRightDual": 7899,
      "HasEqualizers": 7900,
      "mem_inter_iff": 7901,
      "subtypeRestr": 7902,
      "QuotientMeasureEqMeasurePreimage": 7903,
      "exists_primitive_element": 7904,
      "exists_upperSemicontinuous_le_lintegral": 7905,
      "continuous_induced": 7906,
      "IsLocalMaxOn": 7907,
      "AngleRotation": 7908,
      "integrableOn_rpow_mul_exp_neg_mul_sq": 7909,
      "128900": 7910,
      "_rat_imp_le": 7911,
      "TaggedPrepartition": 7912,
      "exists_upperSemicontinuous_le_lintegral_le": 7913,
      "14": 7914,
      "2922": 7915,
      "348": 7916,
      "Bes": 7917,
      "Dt": 7918,
      "GRing": 7919,
      "GAlgebra": 7920,
      "Rep": 7921,
      "Separated": 7922,
      "_proj": 7923,
      "_forall": 7924,
      "_opensRange": 7925,
      "_directed_of_measurable": 7926,
      "_01": 7927,
      "b_eq": 7928,
      "cramer": 7929,
      "hΛ": 7930,
      "hof": 7931,
      "khof": 7932,
      "nfp": 7933,
      "vit": 7934,
      "x_in": 7935,
      "ze": 7936,
      "¬↑(": 7937,
      "₁⁰": 7938,
      "₆,": 7939,
      "stabilizer": 7940,
      "leq": 7941,
      "le_inf": 7942,
      "atib": 7943,
      "unc": 7944,
      "IsProperMap": 7945,
      "emetric": 7946,
      "((⇑": 7947,
      "eq_nil": 7948,
      "ofHom": 7949,
      "hxs": 7950,
      "Subfamily": 7951,
      "_sound": 7952,
      "_some": 7953,
      "_split": 7954,
      "irkhof": 7955,
      "ility": 7956,
      "_eq_nil": 7957,
      "Comput": 7958,
      "Compatib": 7959,
      "MapObj": 7960,
      "MapsTo": 7961,
      "zero_pow": 7962,
      "e_of_": 7963,
      "Icc_01": 7964,
      "TopCat": 7965,
      "hmas": 7966,
      "mul_eq_mul": 7967,
      "Sup_directed_of_measurable": 7968,
      "swap_map": 7969,
      "untrop": 7970,
      "sub_apply": 7971,
      "Locus": 7972,
      "mem_divisors": 7973,
      "mem_emetric": 7974,
      "h_dec": 7975,
      "sSup_empty": 7976,
      "tsze": 7977,
      "one_ne_zero": 7978,
      "})),": 7979,
      "cast_inj": 7980,
      "exp_zero": 7981,
      "dist_le_of_mem_": 7982,
      "hu2": 7983,
      "huH": 7984,
      "isoRestrict": 7985,
      "image_": 7986,
      "RingHomInv": 7987,
      "hiftFunctor": 7988,
      "absolut": 7989,
      "primeFactors": 7990,
      "_apply_eq": 7991,
      "_of_card_le": 7992,
      "le_bot_iff": 7993,
      "Limits": 7994,
      "curry_obj": 7995,
      "Multipliable": 7996,
      "Reachable": 7997,
      "coeff_mul_X": 7998,
      "infsep": 7999,
      "tail_ih": 8000,
      "_add_succ": 8001,
      "_succ_of_ne_zero": 8002,
      "_iff_finite_": 8003,
      "colimit_sound": 8004,
      "chooseBasis": 8005,
      "_pow_mul_": 8006,
      "forall_mem_": 8007,
      "_nat_pow_mul_": 8008,
      "bot_eq_zero": 8009,
      "RecOn": 8010,
      "lie_mem_left": 8011,
      "MDifferentiable": 8012,
      "_mul_coe_": 8013,
      "berSubfamily": 8014,
      "calc_1": 8015,
      "pointCount": 8016,
      "ValidFor": 8017,
      "tsum_le_tsum": 8018,
      "_of_mem_affineSpan": 8019,
      "HasFiniteProducts": 8020,
      "OrthogonalFamily": 8021,
      "rpow_lt_rpow": 8022,
      "collinear_pair": 8023,
      "icovit": 8024,
      "presheafHom_obj": 8025,
      "mul_div_cancel": 8026,
      "hasSum_one_div": 8027,
      "lineCount": 8028,
      "wittPolynomial_zmod": 8029,
      "NonUnitalContinuousFunctionalCalculus": 8030,
      "mul_inv_lt_iff": 8031,
      "nthLe_insertNth_add_succ": 8032,
      "abel1": 8033,
      "directedOn_image": 8034,
      "well_def": 8035,
      "collinear_insert_iff_of_mem_affineSpan": 8036,
      "corootSpace": 8037,
      "lift_ι": 8038,
      "lintegral_iSup_directed_of_measurable": 8039,
      "exists_eq_succ_of_ne_zero": 8040,
      "not_or_of_not": 8041,
      "inv_lt_inv": 8042,
      "PreEnvelGroupRel": 8043,
      "forall_mem_range": 8044,
      "BddAbove": 8045,
      "associator_inv_naturality_m": 8046,
      "_ball_zero_iff": 8047,
      "₀⁻¹,": 8048,
      "gammaSet": 8049,
      "ae_restrict_of_": 8050,
      "tendsto_nhds_zero": 8051,
      "roxOn": 8052,
      "eq_of_subset_of_card_le": 8053,
      "ApplyIso": 8054,
      "_geometric_of_lt_one": 8055,
      "ιMapBifunctorMapObj": 8056,
      "singleObjApplyIso": 8057,
      "coe_nnreal_real": 8058,
      "nilpotent_iff_finite_": 8059,
      "enumFrom": 8060,
      "irror": 8061,
      "newton_seq": 8062,
      "29227": 8063,
      "Besicovit": 8064,
      "Dtu": 8065,
      "Computable": 8066,
      "Compatibility": 8067,
      "mul_eq_mul_left_iff": 8068,
      "mem_emetric_ball_zero_iff": 8069,
      "dist_le_of_mem_Icc_01": 8070,
      "RingHomInvPair": 8071,
      "absolutelyContinuous": 8072,
      "curry_obj_map_app": 8073,
      "_nat_pow_mul_fourier": 8074,
      "MDifferentiableWithinAt": 8075,
      "hasSum_one_div_nat_pow_mul_fourier": 8076,
      "wittPolynomial_zmod_self": 8077,
      "Besicovitch": 8078,
      "')).": 8079,
      ">>": 8080,
      "Ay": 8081,
      "EPair": 8082,
      "FEPair": 8083,
      "Germ": 8084,
      "HL1": 8085,
      "Horner": 8086,
      "MFDerivWithinAt": 8087,
      "[*": 8088,
      "_functor": 8089,
      "_weightSpace": 8090,
      "_aleph0": 8091,
      "a_not_mem": 8092,
      "bicone": 8093,
      "d_simp": 8094,
      "hins": 8095,
      "mma": 8096,
      "mfl": 8097,
      "seq_": 8098,
      "sheaf": 8099,
      "sInter": 8100,
      "zpow_one": 8101,
      "α_in_K": 8102,
      "₁')": 8103,
      "✝‖₊": 8104,
      "ash": 8105,
      "edup": 8106,
      "IsTerminal": 8107,
      "))[": 8108,
      "isPath": 8109,
      "isometry": 8110,
      "✝².": 8111,
      "TotallyBounded": 8112,
      "toEncodable": 8113,
      "Subfunctor": 8114,
      "Subring": 8115,
      "FiniteField": 8116,
      "veLebesgueDecomposition": 8117,
      "mk_mul": 8118,
      "esTriv": 8119,
      "Fun_finset": 8120,
      "norm_zero": 8121,
      "leftAdjointUniq": 8122,
      "OfSubfunctor": 8123,
      "_iff_norm_le": 8124,
      "mem_of_mem_erase": 8125,
      "rightAngleRotation": 8126,
      "complet": 8127,
      "range_coe": 8128,
      "_zeroRootSubalgebra": 8129,
      "addMonoidalFunctor": 8130,
      "Least": 8131,
      "_mul_m": 8132,
      "sub_eq_iff_eq_add": 8133,
      "mem_inf": 8134,
      "mem_cycleType": 8135,
      "card_congr": 8136,
      "_le_of_": 8137,
      "_lemma": 8138,
      "sSup_": 8139,
      "_eq_rank": 8140,
      "ext_nth": 8141,
      "cast_dvd": 8142,
      "expMap": 8143,
      "div_add": 8144,
      "_nonneg_left": 8145,
      "map_cast_dvd": 8146,
      "functorIncl": 8147,
      "constants": 8148,
      "↑‖(": 8149,
      "linearMap": 8150,
      "linfty": 8151,
      "_neg_iff": 8152,
      "cyclotomic_eq_min": 8153,
      "toList_eq_nil": 8154,
      "sum_map": 8155,
      "sum_monomial": 8156,
      "poly_rat": 8157,
      "PathConnectedSpace": 8158,
      "sign_neg": 8159,
      "minpolyDiv": 8160,
      "₁✝).": 8161,
      "hδ0": 8162,
      "HaveLebesgueDecomposition": 8163,
      "_subset_": 8164,
      "dvd_iff_norm_le": 8165,
      "integral_eq_norm": 8166,
      "₂✝)).": 8167,
      "ne_single": 8168,
      "inter_eq_left": 8169,
      "tendsto_condexpL1": 8170,
      "lie_mem_right": 8171,
      "biUnion_eq_iUnion": 8172,
      "a_h_left": 8173,
      "of_dist_le_mul": 8174,
      "orthogonalBilin": 8175,
      "not_forall": 8176,
      "not_measurable": 8177,
      "adjoin_le_iff": 8178,
      "_le_iff_le_": 8179,
      "smul_inv_smul": 8180,
      "injective_subtype": 8181,
      "_eq_one_left": 8182,
      "modEq": 8183,
      "balancedCore": 8184,
      "‖(‖": 8185,
      "localization": 8186,
      "rpow_pos_of_pos": 8187,
      "CardEq": 8188,
      "_of_mul_eq_one_left": 8189,
      "sieveOfSubfunctor": 8190,
      "_diff_self": 8191,
      "edist_eq_coe": 8192,
      "_map_cast": 8193,
      "findIdx": 8194,
      "singletonSubgraph": 8195,
      "intervalIntegrable": 8196,
      "le_div_iff_mul_le": 8197,
      "_posPart_sub": 8198,
      "recOnHorner": 8199,
      "prime_two": 8200,
      "_transpose": 8201,
      "separableClosure": 8202,
      "insert_diff_of_not_mem": 8203,
      "indepFun_finset": 8204,
      "mem_closedBall_zero_iff": 8205,
      "zoom_del": 8206,
      "_setOf_sameRay": 8207,
      "sZMod_eq_s": 8208,
      "isConnected_univ": 8209,
      "isConnected_setOf_sameRay": 8210,
      "_and_ne_zero": 8211,
      "size_balanceL": 8212,
      "anishesTriv": 8213,
      "uster": 8214,
      "dvd_iff_map_cast_dvd": 8215,
      "d_simps": 8216,
      "mfld_simps": 8217,
      "seq_decreasing": 8218,
      "mk_mul_mk": 8219,
      "mem_cycleType_iff": 8220,
      "ext_nthLe": 8221,
      "functorInclusion": 8222,
      "constantsOn": 8223,
      "linftyOp": 8224,
      "cyclotomic_eq_minpoly_rat": 8225,
      "toList_eq_nil_iff": 8226,
      "integral_eq_norm_posPart_sub": 8227,
      "ne_single_iff": 8228,
      "tendsto_condexpL1_of_dominated_convergence": 8229,
      "edist_eq_coe_nnnorm_sub": 8230,
      "isConnected_setOf_sameRay_and_ne_zero": 8231,
      "anishesTrivially": 8232,
      "dvd_iff_map_cast_dvd_map_cast": 8233,
      "63": 8234,
      "BilinearMap": 8235,
      "GOne": 8236,
      "HM2": 8237,
      "Jo": 8238,
      "L_comp": 8239,
      "ZNum": 8240,
      "])))": 8241,
      "_uniformity": 8242,
      "cpow": 8243,
      "fA": 8244,
      "fi": 8245,
      "fα": 8246,
      "fι": 8247,
      "hW": 8248,
      "hat": 8249,
      "k1": 8250,
      "lrl": 8251,
      "lrs": 8252,
      "lls": 8253,
      "rrs": 8254,
      "sUnion": 8255,
      "‖(-": 8256,
      "₂'.": 8257,
      "₃₂": 8258,
      "⌉₊": 8259,
      "atlas": 8260,
      "intentClosure": 8261,
      "IsMinOn": 8262,
      "IsLeast": 8263,
      "NormedLinearOrderedField": 8264,
      "ennnorm": 8265,
      "isCo": 8266,
      "isRoot": 8267,
      "isTopologicalBasis": 8268,
      "ToHomotopyCategory": 8269,
      "lyIn": 8270,
      "to_": 8271,
      "ofFinsupp": 8272,
      "igit": 8273,
      "↑(‖": 8274,
      "mk_right": 8275,
      "mk_left": 8276,
      "Cons": 8277,
      "trac": 8278,
      "zero_toReal": 8279,
      "neg_add": 8280,
      "CommRingCat": 8281,
      "TopOrder": 8282,
      "mulLeft": 8283,
      "mul_nonpos": 8284,
      "AtTarget": 8285,
      "OfBasis": 8286,
      "_iff_nat": 8287,
      "lt_map": 8288,
      "ame": 8289,
      "lim_of_n": 8290,
      "range_comp": 8291,
      "urelyIn": 8292,
      "add_mul": 8293,
      "add_lie": 8294,
      "_mul_cancel": 8295,
      "valuation": 8296,
      "val_mk": 8297,
      "submatrix": 8298,
      "DomCongr": 8299,
      "algebraMap_apply": 8300,
      "mem_U": 8301,
      "mem_annihilator": 8302,
      "mem_principal": 8303,
      "IsPWO": 8304,
      "card_le_": 8305,
      "ndist": 8306,
      "LeftInverse": 8307,
      "prod_cons": 8308,
      "h2e": 8309,
      "exp_le_exp": 8310,
      "image2": 8311,
      "coe_nonneg": 8312,
      "map_X": 8313,
      "map_prod": 8314,
      "acket": 8315,
      "natDegree_": 8316,
      "_injective_": 8317,
      "_ne_one": 8318,
      "pathComponent": 8319,
      "count_mul": 8320,
      "_neg_left": 8321,
      "_to_map": 8322,
      "_iff_exists": 8323,
      "eq_one_div": 8324,
      "_num_den": 8325,
      "measure_congr": 8326,
      "_iSup": 8327,
      "inter_union": 8328,
      "union_diff_self": 8329,
      "erase_subset": 8330,
      "_norm_bounded": 8331,
      "_singleton_right": 8332,
      "_mul_I": 8333,
      "Root_exp": 8334,
      "_map_eq_mul": 8335,
      "_map_to_map": 8336,
      "StrictConvex": 8337,
      "open_U": 8338,
      "half_period": 8339,
      "_sq_sum": 8340,
      "iUnion_subset_iff": 8341,
      "tsum_mul_left": 8342,
      "_of_nonneg_left": 8343,
      "_of_nonneg_of_nonpos": 8344,
      "mapBifunctorMapMap": 8345,
      "disjoint_singleton_right": 8346,
      "aeval_wittPolynomial": 8347,
      "integerNormalization_map_to_map": 8348,
      "mem_union_right": 8349,
      "one_div_mul_cancel": 8350,
      "measurableSet_Iic": 8351,
      "vsub_vadd": 8352,
      "domDomCongr": 8353,
      "affineSpan_pair": 8354,
      "_eq_one_iff_of": 8355,
      "gaussianPDFReal": 8356,
      "vecCons": 8357,
      "_iff_eq_nil": 8358,
      "PropertyIsLocalAtTarget": 8359,
      "multiplicity_factors": 8360,
      "rll": 8361,
      "rlr": 8362,
      "rls": 8363,
      "rlx": 8364,
      "_add_finrank": 8365,
      "mkₐ_eq_mk": 8366,
      "essSup_eq_s": 8367,
      "selfZPow_natCast": 8368,
      "_eq_shiftFunctor": 8369,
      "inv_hom_id_app": 8370,
      "_of_tendsto_zero": 8371,
      "quasi": 8372,
      "isPrimitiveRoot_exp": 8373,
      "numeric_def": 8374,
      "numeric_mul_option": 8375,
      "_isSome": 8376,
      "lrr": 8377,
      "lrx": 8378,
      "false_or": 8379,
      "le_add_of_nonneg_right": 8380,
      "dualTensorHomEquivOfBasis": 8381,
      "tendsto_sum_nat_add": 8382,
      "of_equiv": 8383,
      "coprime_of_sq_sum": 8384,
      "IsBoundedBilinearMap": 8385,
      "neg_one_sq": 8386,
      "eventually_measure_lt_top": 8387,
      "neg_nonpos_of_nonneg": 8388,
      "numeric_option_mul": 8389,
      "numeric_option_mul_option": 8390,
      "left_mem_affineSpan_pair": 8391,
      "mem_span_singleton": 8392,
      "isEmpty_or_nonempty": 8393,
      "valid_aux": 8394,
      "foldr_loop": 8395,
      "norm_le_half_period": 8396,
      "associator_inv_naturality_middle_assoc": 8397,
      "isPath_iff_eq_nil": 8398,
      "expMapCircle": 8399,
[...]
